[CLS]
[UNK]
[MASK]
[SEP]
[PAD]
-
.
다
의
이
,
는
)
(
에
을
하
년
은
고
를
한
가
있
로
으로
에서
되
일
##리
월
었
:
과
도
##스
인
기
지
와
##사
들
수
그
1
##자
적
였
##지
했
어
아
2
제
##인
##기
여
##이
대
전
3
해
##라
##e
##장
##시
시
된
##원
##로
게
##트
것
주
##수
##도
'
##정
4
사
##드
##부
##성
자
개
##어
##르
##상
서
오
유
성
"
《
》
나
등
5
중
##s
부
##가
##대
정
보
신
~
##치
##주
세
##산
동
6
마
소
##구
##나
##소
##a
조
공
##하
##전
며
만
역
S
상
##미
##t
##동
명
미
##군
8
7
##아
스
으며
##마
후
##일
##카
##서
M
##y
##선
할
C
##니
장
무
##제
화
##진
/
선
9
##위
구
##무
던
##우
##식
##비
##조
##o
##l
비
##해
##학
##관
진
##h
김
##단
##오
##타
연
##크
##고
·
##문
10
##키
원
A
라
##국
##n
내
##력
강
않
B
##토
##화
위
P
호
번
에게
##i
##명
파
##m
##한
##체
##9
##코
##호
D
모
##다
##티
남
경
##노
##러
##레
##면
##p
차
##계
##A
##종
##역
까지
받
바
회
##5
##4
일본
재
았
면
때
안
말
##히
##신
\
T
##세
12
##보
지만
##프
##즈
분
##당
L
##용
##u
영
##물
##7
##행
##파
##r
##S
불
##d
##6
F
##포
현
반
##재
##안
사용
##루
##바
##모
11
##an
포
두
##공
바깥
없
단
##영
카
R
##3
##er
##on
권
##경
##ar
라고
대한민국
고리
부터
교
##b
##려
발
##유
코
G
##8
라는
##양
##래
19
노
군
계
한국
##회
##E
리
##점
미국
##or
요
같
##ic
생
예
##교
##임
간
##al
##의
H
및
##법
배
형
N
E
거
초
우
양
##운
##야
##in
는데
입
##C
이후
##터
##쿠
##중
m
##O
s
타
##g
다고
##실
##린
##T
면서
##천
관
국
왕
##디
##생
##k
으나
더
야
실
##석
알
대한
##간
방
16
당
천
##차
K
##청
통
##브
##란
##c
15
학
18
본
##과
##방
##테
##0
집
총
박
##에
크
##적
##속
외
산
##난
##여
##2
##와
다는
W
17
##업
##립
##직
197
종
##1
O
##M
##네
때문
##후
##민
법
##격
지역
##P
##I
##왕
임
##f
a
##연
##남
함
##급
팀
사람
##D
##N
##츠
##병
청
추
용
##내
평
최
현재
피
196
J
토
편
##입
위해
매
문
저
##현
##반
영화
##금
경우
선수
##피
출
함께
시작
##거
##is
##it
점
c
##령
약
##만
##at
##형
경기
##메
북
##버
2010
##료
##발
##출
I
많
##질
##작
다른
세계
데
##각
##목
프로
체
##설
음
p
다음
금
2008
2009
조선
같이
##년
##스트
복
물
네
##en
##른
##족
이름
##케
베
방송
2011
2012
##ol
국가
##저
##권
##복
##데
14
##그
##w
또한
##판
합
##합
##량
##us
기록
##승
##워
달
2007
자신
##리아
}
레
창
##R
가지
{
of
투
활동
백
심
##베
##론
##류
치
n
살
##곡
##환
광
##항
이나
주석
항
감
사이
##L
각
당시
V
직
메
2013
그러나
##as
##개
##es
리그
##분
따라
증
20
##음
하나
또는
##색
역사
대표
2006
교육
트
위치
준
째
삼
뒤
##두
속
##집
근
가장
대학
별
2014
태
병
##v
##달
##온
##ing
니
순
의해
13
KBS
승
올
!
##태
루
변
도시
##심
열
표
##요
학교
=
##강
판
쓰
##통
##x
서울
##am
##더
목
##le
사회
0
##주의
t
행
특
건
드
##z
##건
〈
패
문화
〉
U
채
아이
연구
손
##G
씨
페
##ro
b
194
##약
식
##술
##ur
’
195
2005
##언
히
##B
##희
시대
##극
##런
##창
아니
##et
첫
죽
협
작
민
‘
##너
r
그리고
e
테
##례
중국
정부
확
##름
황
공식
30
온
##품
##근
f
디
결
##레이
보다
시즌
##편
##처
만들
설
##락
키
##예
##결
로서
프랑스
##림
##철
이상
2004
대해
##험
##ac
허
##외
이용
사건
다시
##션
엔
통해
전쟁
영국
##널
길
25
##평
##는
##랜드
게임
정치
버
##감
the
포함
##준
홍
가능
##녀
우승
는다
##표
작품
##북
농
검
l
독일
##투
##K
문제
##H
여러
##날
시간
##쓰
보기
참
참고
##om
MBC
##대학교
윤
취
졸업
충
정보
o
관계
##봉
##향
프
##V
다가
##라이
##등
TV
큰
##은
졌
관련
대회
모두
##송
모든
개발
The
%
##본
운동
지방
##겨
논
기술
##추
##ion
음악
##배
폭
드라마
##져
브
...
석
##순
2003
d
철
철도
자료
##망
즉
일부
##il
2000
설립
##ou
2002
감독
##초
출연
날
구성
송
##re
##퍼
운
행정
##um
##렸
국제
위한
##os
##페
##살
&
축구
제작
##절
24
줄
##틀
져
##록
##U
##덕
언
경제
플
##F
애
##슬
아들
중심
질
지원
일반
섬
##랑
존재
처음
려
정도
##리스
21
새
끝
사업
##니아
친
26
골
걸
##백
##ed
거나
##칭
클
##id
곡
##광
접
급
##울
28
in
##애
볼
##글
수상
##나라
향
##증
w
완
대통령
블
등장
곳
알려
23
##담
##움
전투
맞
좋
세기
##ch
27
##악
##학교
나타
로부터
뜻
##머
스타
될
절
##el
01
인구
공격
독
##범
2001
동안
밀
##턴
##열
앞
##들
##ot
관리
##람
##블
i
##벌
배우
주장
##슨
+
|
발표
또
주요
]
귀
##ation
높
운영
봉
##매
##ent
라이
기관
##착
필
발매
위원회
캐
22
탄
터
##im
[
##우스
결과
글
케
SBS
」
「
##ir
##초등학교
##ia
##박
측
##탄
##축
잘
소속
기준
##독
중앙
과학
헤
##말
k
년대
앨범
맡
이전
잡
v
##월
##게
쿠
누
##남도
책
타이
시키
“
29
이러
독립
##득
”
X
##쳐
Y
##황
돌
대상
–
프로그램
과정
##플
##스터
##ul
막
사망
설치
##킨
도록
갖
##클
아버지
어서
##ter
특별
최초
##ig
h
##프트
##누
##련
자유
홈페이지
쇼
km
##링
선거
난
의미
03
##친
##흥
##ec
##ad
갈
진행
##커
밝
St
으로서
##찬
발생
악
구조
##손
##찰
대전
들어
사실
현대
##암
사랑
대부분
커
고려
영향
발견
얻
시리즈
##슈
처
##익
and
침
변경
##졌
상태
출신
1999
##돌
이어
##필
##응
혼
생각
러시아
##견
암
따
결정
범
지정
##ay
머
##밀
인물
기타
##un
부분
그녀
극
형태
탈
1998
##op
##쟁
야구
조직
위원
##란드
류
하지만
##존
g
##택
##났
##ra
회사
##X
##총
##oc
유럽
필요
좌
##거리
##균
##st
여자
##릭
##고등학교
상대
존
In
층
##버스
##침
환
최고
특히
로마
이것
제국
##별
##협
##ut
참여
##렌
주로
새로운
2015
계획
100
계속
지구
축
인해
일어
여성
내용
각주
##퇴
##em
노선
##를
부산
##했
##촌
##숙
^
찾
참가
1996
##몬
##맹
발전
콘
사이트
##불
x
##함
올림픽
국민
풍
##습
생활
##칙
벌
성우
1997
규
연결
이탈리아
##탈
마이
생산
인간
제공
구역
방법
육
자리
000
##혀
힘
민주
딸
##훈
31
##였
이루어
우리
시스템
넘
Ch
매우
나라
작곡
##풍
처럼
울
으
##이스
눈
##갈
못
활
성공
민족
억
노래
1995
센터
##ow
정책
중요
##비아
;
이야기
##웨
다양
뿐
수록
##센
##ce
그리스
돌아
이유
李
도쿄
##а
평가
남자
##측
제도
1990
##릴
론
金
##ie
유명
##W
##옥
빠
##변
팔
데뷔
못하
##귀
##략
##삼
기원
뉴
버스
##ap
##규
##스크
##00
란
##율
폴
##능
훈
많이
##j
기능
공동
방식
해당
교통
##광역시
잠
격
경력
##ov
##육
초기
관한
몇
##압
프리
##쪽
결국
##길
효
단체
##골
##념
조사
##헌
보이
반대
##할
j
교수
1994
둘
##엘
레이
홈
##레스
##냈
##ー
##징
##학자
대학교
##벨
얼
시절
##od
ISBN
##렉
##카이
대신
기업
##궁
02
목적
##야마
##동차
폐
업
색
운행
학급
##빈
학생
##og
##art
##시아
군사
아래
엘
그룹
칼
담
모습
붙
산업
웹
으로써
50
퍼
개인
차량
이미
사무
가수
구간
한편
##and
경찰
휴
수도
##혜
##중학교
##괴
항공
분류
##디오
엄
전체
소설
몰
지도
으로부터
##팅
몸
##윤
##혁
연속
러
워
됐
싱글
시설
##충
인정
가족
##번
거리
##о
##막
언어
목록
떠
기본
연합
티
연혁
##и
자연
승리
기간
##시마
따르
지금
밖
##켓
##틴
개최
떨어
##읍
##스타
유지
뮤
인도
이사
마을
역할
나가
클럽
가운데
행위
빌
경기도
##륙
전라
희
##욱
1992
마지막
공화국
##효
애니메이션
긴
슈
여기
##랜
결혼
1993
##컬
느
09
공개
계약
생애
불리
모델
##책
##젤
능력
가진
##ae
다이
대구
전문
이르
189
이론
193
가리
시기
차지
##av
시장
동시
뛰
음반
각각
진출
표현
브라
##닝
##운드
##룡
##탁
##랙
1991
##왔
##镇
전국
어머니
건설
먹
응
사상
녹
왔
##엄
우주
자치
##접
##山
##ine
상황
##ip
아르
환경
압
##모토
##혼
나오
##폴
##긴
직접
망
싸
##ag
##Y
실제
놓
영어
##ist
친구
##대로
그림
통합
이동
##럼
de
주의
편성
규모
서비스
##완
명칭
특징
##르트
중화
거의
##로스
담당
##렇
##춘
부르
부문
##ak
추가
슬
문학
##ok
마음
도로
선정
쪽
묘
##털
##씨
오스트
그것
인천
##q
##ab
##굴
라디오
1980
우수
사진
Z
##패
##ity
##엔
##ran
정의
노동
보통
어린
시켰
실시
1987
의한
공연
##리카
##딩
##죄
大
##싱
견
사고
##맨
보호
탐
전기
##인민공화국
임명
열차
##ub
기념
핵
교회
##ian
건물
푸
1989
개요
후보
스페인
너
콜
##칸
황제
완전
##탕
##염
97
예술
옥
문헌
맥
출전
##든
##곳
변화
주변
겸
히로
→
##ard
##요일
math
습
고등학교
멤버
열린
역시
샤
달리
궁
##쳤
1988
##ン
##이트
의하
##ct
40
연기
##if
의원
##겼
웨
요구
##객
지하
##텐
활약
만든
제외
어떤
Al
탑
##액
취임
겠
##새
##채
전자
##얼
숙
##이지
공간
##텔
없이
u
세력
나이
##웠
FC
충청
사단
기획
비판
일으
과거
판매
##rac
##북도
원래
착
종교
##王
##eg
공항
##갔
부대
서로
##잡
##맥
##렬
국내
여객
##폰
연방
##е
##th
자기
##볼
##덴
월드컵
형성
컴퓨터
종류
센
혹은
낮
다면
보여
아닌
그래
##십
##н
링
##ill
장관
경영
므로
대사
##주시
촌
##던
교황
##ew
##리오
비롯
##혔
서울특별시
분야
방향
최대
슈퍼
##乡
##좌
퇴
덕
율
설명
04
##먼
벨
지휘
##올
회장
인기
##민주
##톨
그러
An
##ight
##ial
188
##ang
요시
##프리카
##大
##사카
회의
to
##끼
주인
님
##道
##확
Un
칸
팬
풀
##all
ht
바이
작사
삼성
플레이
수행
빈
예정
##자리
도입
##ph
국립
대하
컵
디자
만화
챔피언
태양
##샤
마다
낙
48
넓
윈
전통
05
동물
이때
작용
비슷
차이
후지
물리
외부
##취
##벤
36
1986
혁명
광주
작가
지배
법률
##per
먼
야마
이루
형식
면적
모양
##푸
도서
염
##스탄
데이터
피해
관할
##ta
헌법
소련
역대
의사
##ber
아시아
##릉
##늘
옮
주민
##홍
##디어
따라서
갑
거쳐
##콜
##랐
##벽
の
시민
바로
##ell
08
남쪽
』
『
행동
득
com
1985
버전
##р
↔
##토리
극장
Ar
##척
II
효과
규정
솔
꽃
##氏
계열
##學
07
스포
남부
##큐
폐지
잉
06
북쪽
1984
특수
1970
##르크
디지
캐릭터
연대
관광
##our
##ep
##낸
기존
박사
é
오늘
밤
표준
결승
##웨어
성격
##웅
기반
##ile
##스키
Q
##므로
으면
##ev
##라스
통일
품
시켜
카드
위하
당하
35
##루스
아키
##BS
기독교
확인
##子
메이
##나다
체제
태어났
정규
인터
선택
괴
경상
헌
밴드
FIFA
##먼트
에너지
작업
##톤
##둥
흑
유일
비교
어느
##갑
익
작전
##뢰
##с
군대
##흐
##닌
##ue
지지
보내
##ge
##앙
학년
#
1983
못했
출판
신라
빛
##20
##냐
일제
개교
텔레비전
개시
불교
잔
##꾸
통신
##J
방영
##이드
의회
）
하루
적용
흥
속하
최종
뉴욕
건축
속도
땅
186
업무
처리
왜
1981
쌍
종합
곧
##빌
컨
지명
소비
실패
뉴스
조정
문자
투수
##к
시험
앤
베이
안전
##콘
y
윌
동쪽
출시
캠
공사
##섭
헬
상당
##즘
인터넷
for
비행
##폐
본부
하이
돈
##res
##ry
승격
##멘
##곤
정신
장치
1982
경상북도
선언
고대
##ER
187
##age
지나
##이션
##셔
번호
##듬
조지
육군
00
32
연구소
강화
명령
분리
##가지
단계
획
교장
자체
서쪽
##째
200
가까
이끌
기자
강원
##ik
38
승강장
징
##핀
늘
주도
##나이
##ive
##며
##셜
높이
최근
##층
##방송
흔
。
옛
넣
##est
㎢
흐
##렵
（
##젝
칠
맨
홀
낸
움
겨
##ers
##대학
씩
됨
##받
덴
몽
태어
듯
：
률
##닉
##허
휘
잃
##쇼
그리
##묘
##롤
##렀
##킹
##iv
##셀
##덜
곤
##칠
국회의원
##人
##느
##he
##城
척
##튼
십
##멸
##킬
##헨
##州
##섯
##쇄
500
##검
##젠
혈
칭
##등학교
##힌
런
찬
##융
##룬
##ide
##라고
##몽
##억
깊
##い
값
데이
액
##때
읽
놀
##헤
*
##써
##혹
##nd
몬
##아들
##을
국회
##宗
믿
##FA
갔
##하이
##ies
멸
맺
##튜
##14
##(
##10
##BC
촉
##시스
##님
##활
##國
깨
##큼
술
##팔
널
빅
##в
##う
##잔
쓴
##이어
##ん
##л
멀
##회사
1950
끌
꿈
・
##rom
##겐
##부르크
##픽
##밍
##여자
궤
춘
능
##川
스페
죄
##ivers
빨
##웃
##틱
##교회
##폭
##뀌
##전자
##문화
월드
##뇌
##콩
##옹
##사이
벤
숨
든
##엽
##т
뇌
##돈
싶
쉽
흡
##랫
촬
##릿
##몰
##둔
##18
록
잇
##の
롯
앙
z
##럭
##빙
##19
##풀
펼
##탑
##베이
##혈
##쉬
##28
##25
##픈
##알
끼
##듀
300
##50
##켜
##럴
##12
##요시
##롭
三
##칼
젊
##걸
##빠
##田
##롱
##욕
##イ
##24
##바이
##나가
##公
##ル
##델
혜
맹
삶
벽
高
##き
##가리
##참
##й
##넷
앨
##21
츠
붕
국제공항
엑
펜
##15
핀
##냥
켄
##26
##27
##펜
##다이
##文
##짜
##29
##랍
돼
##속도로
##의회
봄
짧
멕
##븐
##우리
##11
컴
##뷰
##끄
냉
##촉
둔
##숭
##었
##싸
##공사
中
객
싱
꼬
##덤
프랑
##녕
##ien
까
##답
##휘
즐
납
##17
##럽
##TV
##for
##23
##핑
듣
##法
##뉴
##22
애니
##校
##ス
량
##40
르
##本
##못
캘
##아시아
##고리
##ous
1948
##꽃
##휴
꾸
##30
빼
##街
新
폰
##교육
##13
##し
##컨
##농
##ron
##16
굴
##까
새로
##홀
##솔
##윈
##君
##ton
겪
##ator
낳
南
밑
족
400
##・
##잉
##中
東
##메이
##동안
##틸
##롬
##콤
##아버지
혐
、
##캐
##事
##郡
##제국
1940
헝
옹
벗
##믹
##뜨
멜
##많
융
린
##랄
쌓
##라이나
##률
컬
##平
왼
##Z
##논
숫
헨
욕
짐
##ラ
##륜
##一
##IS
##な
##닥
셀
##뮤
으면서
##か
겐
킬
##랭
##얀
##院
균
좀
톤
답
##ier
붉
##문학
##原
베이스
닛
##ire
##書
##타이
냈
##寺
##짓
※
##앤
##몇
텍
q
—
잭
듀
쇠
##les
픽
쉬
##프로
●
플레이어
天
…
짓
렌
日
1930
옆
뒷
잎
##핵
1000
##FC
끊
##明
ㆍ
×
##봇
##天
##머니
##없이
찰
흘
>
##붙
##ト
콩
##정부
##リ
##た
##슴
##학생
##닛
##프리
##딘
##히로
##帝
첨
##엇
##ッ
댄
델
##ا
##김
##놀
##der
##쥐
갤
맛
흰
낭
##安
##部
##뉘
朴
文
샌
홋
##ath
숭
##국민
##洞
##正
##쿨
##de
西
##義
##to
##켰
숲
##府
##첩
##데이
##의원
##떻
##리스트
##민국
뿌
IS
##섬
安
킹
##룩
##地
##生
##앗
##Q
北
##폼
##主
##괄
래
썼
##陽
##곱
##え
##램
뽑
##у
##운동
랭
無
##東
삭
á
##톱
##家
롤
##元
##자기
##д
##특
##駅
##ces
##と
료
##tor
##펠
##붕
##里
셰
##35
##찍
##컷
##중앙
尹
##德
옷
##늄
##빛
택
##렐
##인물
##夫
롭
##렴
##行
##成
##마이
##죽
##48
##그룹
묻
탁
##닐
랜
##等
##所
##海
∼
##얄
써
##市
##iel
##ク
##ら
##軍
셋
##ま
太
##36
펠
##ren
##ram
##퀴
캄
##조선
##る
##of
읍
##會
##istor
##ل
##島
1938
삽
##м
##씬
둥
닌
엠
섭
1936
##컴
王
##面
##ode
##놓
##く
##항공
##97
빙
##和
##스포
웃
##납
##섰
##켄
닥
##und
ā
##使
##텍
##탠
##넬
힐
콤
##륨
팝
쾌
##떠
##三
짜
덧
혁
##다가
곽
##없
##컵
##템
##연합
ü
##둑
##아니
##ech
##08
##철도
##비스
150
前
##che
##日
튀
い
횡
쫓
1935
°
##줄
큐
小
##베이스
##村
##뤄
##高
鄭
웅
##끔
##사무
띠
털
##α
##門
##깨
元
##り
##31
##켈
##her
##펙
##렛
##光
韓
##ole
춤
벼
톰
틀
훨
##ele
##皇
²
##政
메이지
찍
##相
##世
##南
##배우
##04
쓸
##보이
##곽
냐
##렘
덮
##늬
캔
##회의
##38
##町
106
##브라
趙
上
～
##최
##之
텐
##興
프로그래
##산업
`
1932
##뱅
1900
##경찰
##ο
##찌
늦
쥐
릴
넥
흉
##論
늑
1931
##먹
##왜
##iet
샘
꼭
##經
훗
##예술
║
120
##서쪽
핑
묵
##后
##멜
##춰
렀
##て
##32
##륭
##로마
##힐
##아키
싫
##上
長
낼
앵
五
뜨
##리그
，
##長
ó
돔
##과학
즈
벡
白
##07
꾼
##界
張
##회장
##野
##짐
##ド
##記
##듭
##ち
팽
í
##탐
℃
##ler
崔
And
##仁
##,
##대부
##01
##팀
##羅
一
녀
##유럽
##둘
쟁
神
##부터
##宮
##연구
##도서
ä
쳐
劉
##タ
平
##ines
##iam
明
##지방
##я
☆
##가리아
##뉜
##녁
훌
좁
##플레이
##漢
묶
켈
##05
し
##마을
##출판
##路
##ς
##昌
뮌
힙
핫
##が
##삭
##아이
##09
##rat
##レ
か
##주민
##겔
##셈
##즐
##06
##縣
##史
옵
퀸
##水
##셰
텔레
##룸
##祖
##셉
##000
##눈
##낙
##넘
##쇠
##善
##ht
##社
##族
##02
##太
멘
##쁜
##ア
##シ
##都
뱀
##바로
##깔
―
1907
풋
ö
##툰
##ي
퀴
덩
돕
랑
깃
##г
넷
##ロ
띄
##理
武
##웰
밥
##武
##녔
##師
##官
##石
##信
팩
섞
##평가
101
죠
랩
##ы
똑
##こ
##化
##ジ
山
##ther
##臣
##멍
##따
##잎
##龍
105
##묵
##팩
겹
正
##이사
石
##딕
##스페
##者
##드라마
##ь
##숨
月
##뮬
항공사
##性
꼽
##궐
짝
##짝
des
1908
##神
핸
##릇
##낌
##den
쥬
##心
##헬
##河
##컫
꺾
松
1906
셔
##民
굳
永
後
##士
께
##カ
##ger
##아르
##有
##マ
##흡
롱
##林
##싼
##럿
1905
##派
不
나이트
##み
##cer
##ر
##ν
##깝
앉
첼
##集
##gen
##넨
##팡
##팬
겉
##rof
〜
##즌
##つ
바이러
탱
##기업
##時
##닷
##ral
는다는
##햄
##女
##十
1904
빚
##종합
あ
##생활
108
밴
##́
##代
닫
##뤼
250
##속도
뚜
##토리아
락
柳
全
독일어
del
##っ
##国
##겸
힌
##쿄
이사회
年
110
##見
##첨
##ret
四
##ч
@
##二
##ن
##룰
##方
##じ
곱
##노동
##定
##治
##ι
##넌
洪
꼴
톱
##華
世
##だ
##江
##б
첩
탓
##お
쏘
##잠
##堂
##敎
##立
成
103
##획
##03
##驛
곰
##라마
##킴
닮
##위원회
##교통
뼈
튜
と
海
##業
##根
굿
##さ
##뇨
國
に
##京
㎡
##ρ
125
##ょ
1500
##킷
퀘
##永
##밥
쿄
朝
쌀
Ind
##司
캡
##맞
봐
##주도
뱅
럭
水
##下
1909
##ras
##谷
法
멈
##하루
は
128
##으
이탈
빵
##팽
##께
##佛
쿨
올림
道
さ
##죠
##知
굵
펑
뷰
##II
쿼
##井
##리즈
##ャ
##된
##年
##첸
##郎
##聖
有
끈
닉
##馬
퓨
淸
##キ
꺼
##無
섹
##비전
##ade
##콥
##윙
틈
##將
##ィ
갱
##木
仁
光
훼
##전기
걷
ア
##정보
き
127
148
혹
阿
긍
뻗
135
##셋
•
##美
##눌
3000
잊
##西
칩
お
##낼
130
##rol
##첼
##に
졸
##찾
FI
##게임
웰
##톡
##樂
##陵
黃
브라이
##忠
##も
み
##寧
##낭
##춤
##맷
람
##通
ا
##야구
##物
##麗
##쾌
##짱
##졸
킥
젠
138
##hen
##red
##쌍
##名
##꼬
##보통
탤
##시장
##뼈
##기술
챌
宋
##北
##合
た
##鎭
낱
##len
##rad
##ient
##守
##星
†
##م
##사랑
##口
##学
##통신
136
쟈
##グ
##카드
##線
##둠
な
##사단
##濟
갓
##라이어
##iation
떨
펀
##꺼
##ナ
덜
$
公
##시스트
딱
二
##ム
109
##경기
##시간
##吉
떼
##や
5000
古
##鮮
믹
##롯
104
##벳
##ied
吳
딴
펄
##ille
##重
##的
##데이트
##앵
윗
徐
##민족
117
##지원
##色
十
##基
램
밸
##達
Che
##눅
##智
##身
##극장
126
##.
##و
江
##그리
##慶
멋
Stor
##朝
##rag
こ
##콕
##쉽
##ael
##分
툴
삿
##tal
##eph
##뜻
115
##사회
##다른
##з
빗
##건설
##렁
는다고
##룽
六
##탱
##テ
河
##說
##語
##音
##값
##옷
##감독
맵
젤
##間
##ュ
龍
곁
##다시
##렷
##は
##英
이어서
■
##츄
107
햄
##命
##듈
##科
챔
心
##콧
卷
漢
##릎
##不
##わ
##och
쉐
##τ
○
##툼
人
푼
뿔
##끈
林
##溪
##利
##엣
킨
##金
der
##텀
##λ
聖
è
##源
##랴
##캔
굉
##春
폼
##벼
り
建
##궤
##バ
##tom
##識
쯤
##위치
##泰
##館
횟
##펴
##iver
##動
##ニ
##新
愛
##쿼
忠
##중국
##월드
##버스터
##뉴스
##フ
##ues
##د
申
##나타
##花
․
굽
##통령
##세기
地
칙
##秀
##п
##전문학교
##:
##톰
##順
##선거
##경제
##ウ
ま
##tar
##津
##空
##벡
##대전
윙
엉
##잇
司
慶
##인도
##퀘
1901
㎞
##コ
##쥬
##대신
##ster
##在
##ろ
##オ
줘
흙
##남부
##륵
딜
얘
##親
뚫
##式
##픔
##힘
##チ
##雲
##ule
##겁
八
##uer
116
田
##tat
##흑
自
##센터
##ブ
##ray
##교장
##應
1897
##作
##긋
닿
험
들어서
##공화국
탕
##있
唐
##熙
꾀
##け
##月
##志
##닫
##制
##동쪽
##uel
##藤
Ale
129
##錫
##区
##문학자
##홉
##章
119
下
##iat
##ifor
룩
##동물
##빗
옴
##議
美
##х
140
##빨
##度
##시리즈
##で
톨
##よ
##국제공항
펴
##橋
##思
##同
1902
##슘
##뀐
##ズ
##쁘
##壽
義
##想
木
##슐
줬
1903
##연구소
##iac
##典
百
##꿔
114
쏟
孝
##펄
##良
##場
샹
##tan
걱
##텝
##承
행정부
##iro
대부
##別
##gel
##ε
엽
찌
##관계
##殿
##す
흩
##콰
##衛
##侯
生
##바이트
##像
##덩
孫
깔
九
닭
펌
㎝
##영화
權
##인민
##郞
##體
124
##ш
##五
##같
##功
##園
##孝
##憲
##古
##圖
텔
##福
롬
꽤
##字
##빵
德
ス
헐
本
##작가
見
##주인
##韓
##일본
##세계
##달리스트
350
##보기
##밤
##딸
댐
##뱀
껍
##셸
118
都
##부분
和
##敬
##딜
덤
##れ
##흔
샬
냄
##위원
##밭
옐
##松
다이어
햇
##지도
伊
젖
##ダ
훔
113
##랩
馬
##덱
##雄
##流
##ゃ
템
##賢
102
##rar
##自
닐
行
맏
##꿈
花
家
붓
맑
を
藤
方
얇
##妃
났
##禮
##八
##연기념
##돌아
が
짱
貞
##시키
##植
##껴
##浦
##会
朱
##愛
##나오
지나가
##땅
##夏
연기자
##令
##개발
㈜
く
##ias
##왈
렉
##傳
##用
휩
##觀
##四
##꾼
##itor
##cher
​
##레스타
##景
宣
##놈
전자기
##直
##흘
許
##기간
##節
##달리
子
슐
##것
沈
##ches
##ب
##區
##ミ
뤼
##位
同
셈
##펀
##잘
##돔
善
靑
##레스트
##맛
##대사
2016
##歌
##퉁
##쩌
##uen
##初
##監
##닭
왓
京
썬
123
##엠
眞
랴
룰
##權
##쯔
##덟
##プ
##結
##貞
##대구
陳
##處
ひ
##烈
얀
##言
##尙
##옌
왈
吉
##국제
##泉
##뚝
빔
≪
內
##낀
≫
##力
잦
##여객
##弘
現
##彦
실시간
##康
레이스
솜
슌
##tac
##찮
##デ
##사상
##쑤
##來
##곰
휠
##η
밟
##문자
턱
姜
220
봤
##eder
え
##保
延
##ョ
##축구
##六
짙
##俊
##後
##省
##기념
컸
##兵
－
##지만
С
##alle
##띠
##딪
う
##ガ
ラ
第
##起
城
##com
##dent
##사고
##ば
##κ
##큰
##σ
廣
##县
##風
開
##공항
ç
##the
##榮
앱
##넥
눌
青
##メ
톈
##錄
##cel
##았
##슭
갯
##品
넬
君
##야기
マ
##꿀
##촨
##電
##음악
##解
팜
##iar
楊
##odel
##紀
定
##넓
갇
閔
딘
##前
끓
뉘
##パ
##運
梁
겁
##줌
림
##이전
##뿔
##勝
룸
##모델
佐
カ
相
##rel
曹
##멀
##サ
名
솟
##如
앓
##實
通
##뚜
女
##목적
##術
##꼽
周
##지방법
軍
맘
羅
##샘
##눔
붐
뭐
##지정
##ander
##容
##台
##覺
##س
띤
옳
康
##形
##도로
知
##보내
##萬
外
玉
낚
ñ
##툴
240
##oto
쇄
##끗
##員
##玉
##눠
##시대
##랏
마지
##受
##湖
##出
##ages
셨
à
←
##九
シ
左
##せ
밭
##비스트
##、
##녹
##得
쿤
##藏
##判
다이스
##흠
112
320
##갖
##정치
##other
##성우
나이지
−
셸
景
##エ
##斷
##孫
##鍾
##遠
##周
##환경
##펫
##ister
210
##工
##進
##ather
##chen
##ц
##造
で
##oder
##果
ı
##交
##씀
돋
ち
佛
福
##觸
時
##察
앗
웬
##ges
낫
##ration
##뭇
##윗
##ェ
제작사
##ato
<
##県
順
뭉
##句
##峰
##修
##內
닦
##쓸
##曲
夏
##車
##あ
##뷔
##의사
시스
信
星
ú
줌
色
##부르
뻔
##서울
##턱
##uter
千
##ノ
##類
##이미
春
##ة
##ゅ
七
##넣
##ident
##됨
##성공
##ά
괄
옌
##團
##딱
##ced
##崎
É
##ί
##쿤
##너지
201
所
##ides
컷
샐
##ctor
##局
##같이
최대한
キ
##め
##庄
##儀
##cen
す
興
##土
떡
##老
콰
##亭
##白
##多
К
宗
咸
##惱
イ
##본부
##ت
原
##한국
슛
##塔
ハ
##建
##웍
##튬
反
★
サ
##주로
##取
얽
風
깜
##라는
##퐁
皇
##意
##빅
空
##小
##護
쾰
##황제
##푼
##동시
##FI
##υ
フ
よ
##연방
##協
엿
##戰
##器
出
##務
①
Ⅱ
##독립
##次
틸
##ど
##앉
##뚱
れ
##혁명
##廣
##洙
加
##가족
##μ
オ
놈
##鳳
##elle
##澤
##能
##뛰
##뒤
##BN
##기관
##펑
##ider
205
##常
豊
ゆ
##단체
##전문
##波
##ケ
##目
##들어
##쵸
##깐
魏
##С
##밋
##ぐ
##일으
190
##uest
##種
##モ
##핍
킴
##iner
##་
멍
일부분
##致
##宋
##ビ
や
主
바이트
##agem
##統
씌
##자유
故
##교수
깎
릭
##久
##住
##情
##메이트
##도시
##조사
##차량
##ester
Are
役
玄
##頭
##tas
##К
316
##益
理
?
1200
α
##隆
##寶
보이스
닷
##岡
##侍
##딧
##居
엮
늙
##볍
##튀
##全
##і
諸
御
嘉
##沙
非
る
も
つ
앰
##-
！
##ό
##内
##떡
122
삐
##ror
##샨
ℓ
宮
##쟈
##그래
팡
##也
쥰
꿀
##썼
##報
얹
禮
甲
##계열
赤
##範
촛
230
##י
##球
②
##adem
##百
##港
##晉
##手
А
##어머니
##倉
땃
##정신
##曹
##ives
##프랑
樂
4000
샷
##ж
##iller
##室
벵
끄
敎
沙
##뻐
##眞
##ه
돗
##잭
М
##top
##號
恋
土
##香
턴
##淸
â
エ
##탭
댓
##텔레스
121
對
##哲
벚
思
209
##伯
##為
＜
2020
多
##斗
初
昭
##는데
##ず
##尉
##宣
007
##뤘
英
##喜
##걀
##隊
##발전
##ツ
##念
##惠
싣
괜
##機
##臺
섀
##귄
＞
##毘
##浩
竹
싼
##수도
##ی
##載
昌
##提
타이어
흠
リ
分
204
헛
Б
##故
修
##쩔
野
##이상
##안전
丁
##쉐
##ボ
퐁
コ
ind
##淳
##수록
##번호
##멕
##氣
##足
##윅
##이스트
##А
##煥
##佐
육군사
##팟
##店
틴
##克
##깃
맴
##數
##า
##外
므
찔
마다가
##入
##ร
##緣
富
萬
##淑
В
重
け
任
##어서
##柱
少
##하나
203
##500
П
##男
##境
##桥
헥
ī
##ito
##貴
華
##큘
데이트
맷
랄
##ァ
##굿
わ
##우스트
쳤
с
##戦
##由
##신라
##꼈
蔡
##友
쉴
뷔
컴퓨
我
／
##렝
##정의
△
##룻
딕
##屋
##岩
207
##葉
##淵
208
몫
##유지
##育
##팍
##웬
##母
뾰
##밴
##레이어
##鎮
##또
##작용
##圭
##房
야마다
Inde
##を
##ね
š
##是
Ther
206
私
##athe
##ひ
ミ
는다면
##齋
땄
真
235
##댐
盧
발전기
##条
##卿
##坪
ł
##공식
##귤
##魏
民
ん
##낄
##那
經
##쁨
異
##藩
얕
##γ
##副
셜
##謙
##始
##iden
##樹
##輔
##넛
001
##奎
##훤
書
##듐
혀
쯔
詩
숀
갚
バ
##역사
##자체
##껏
##薩
##엑
##我
늪
##角
##캣
㎜
바이어
##千
##磨
兵
##ى
そ
##tos
하이드
##甲
##ו
##ح
##ded
inde
##御
东
첸
社
##阿
##支
##七
엇
##몸
##차이나
##邑
##調
광주시
##恩
呂
尙
##갱
雲
룬
##勳
##件
右
て
##벅
判
##顯
131
##商
샀
##洋
홉
##π
##奉
225
##cent
##煩
겔
##ぎ
ふ
ジ
##鉉
ら
意
##允
##署
っ
##가운
##므
##究
##鄕
##火
##셴
##iles
##tag
##삐
##翼
##뒀
字
##전체
ド
##隨
##toc
##인구
##炳
今
퉁
秋
##虎
##츰
찢
池
##oton
223
##尹
튼
샴
##des
##ネ
##慧
郭
##클럽
##試
源
弘
##냅
##昭
##今
팰
歌
ク
##賀
##期
##)
몹
##真
##ω
##ぶ
政
靈
##북쪽
##ع
寶
陽
##希
智
##δ
Р
守
##uto
2018
親
遼
##불교
##亨
310
##管
完
«
##eles
뱃
##냄
##욘
##섹
캉
##ston
##횡
마이어
老
學
##hes
史
##otor
##ご
火
ß
##차이
##킥
##嚴
쑨
##先
501
##任
##諸
##草
##異
事
】
##남쪽
##舞
##뜸
##布
132
쵸
##del
##博
##맵
【
##젯
##舍
##이루
##祭
##翁
202
承
州
##切
쿡
じ
秦
欲
##구역
##St
##贊
##늦
##샹
市
曺
215
##엉
性
##관광
211
##캉
如
챙
낯
##tation
##律
受
238
핼
##聞
##다이스
##産
##댓
쑤
##기독교
##（
舊
2017
##ハ
奉
##iag
##팝
det
##乘
##弼
##央
##麻
##雨
作
##參
##봄
##랬
代
##전국
##흙
##第
##쭉
##В
副
国
##以
##뿌
##豊
굶
##기원
##盛
##릅
301
##祐
섰
ロ
##꿨
씻
##aen
##셨
##求
##꿉
夢
メ
常
##장관
##멧
##이동
##因
流
だ
門
##여성
##セ
##量
##껍
##依
香
##궈
ã
##곶
##域
214
保
č
別
##쫓
近
##숍
##갓
##廳
##眠
##巖
##거나
郡
1400
##黨
##碑
苦
##玄
226
##秋
身
##면서
쪼
##密
##格
##그러
##뇽
꿰
##자치
##arter
Under
##靖
베이스타
##系
##然
립
實
##象
合
##鎬
동시대
Г
뮐
##gent
##odes
##주석
п
蘇
р
先
Т
觀
댈
##관리
##開
##表
dec
##캄
川
메이드
##П
в
惡
##現
崇
승강
킷
##샵
僕
##尾
221
##介
##훼
401
宇
黄
##爲
싹
꽂
禪
官
##純
ū
惠
##詩
##戸
##餘
麻
##沢
‧
##摩
쾨
チ
룡
231
뜬
##敏
다면서
直
##따라
##개인
##聲
戰
##閣
##獻
##可
清
ê
晉
##맘
##get
##튠
##ा
せ
′
##조지
##슝
袁
##arden
##이나
##rade
##짖
##祥
곶
م
##uet
##데이터
##꼴
##漏
##洪
##營
캐릭
##경영
##tol
챈
最
##캅
츄
딥
펭
戦
룽
##綱
##М
И
因
##면적
##인천
##李
##페이지
##均
뢰
썩
##發
벳
##나이트
##裕
##ほ
##欲
##iron
##긍
##곧
辛
關
##備
##望
##έ
212
##條
島
##군사
##가수
##지하
##떼
о
넌
##부대
##믈
レ
##겟
##船
結
##泳
##시민
##衣
##붓
##ワ
岩
##्
##秉
##池
##洲
콕
##仲
##防
##そ
##版
괘
##座
##뭄
##캠
##燮
##層
낡
貪
##復
##ベ
##尊
森
##aller
##ピ
##誠
乙
死
217
가운
윔
##시기
##劇
##奈
##向
캣
夜
##剛
##蘊
##若
##助
##인터
쏜
탭
##aer
##督
##‎
##資
##齊
뚝
##ق
##滅
井
##솜
괌
毛
##냉
##秦
»
解
β
##국립
##教
##樞
##봐
##極
깡
썰
##옴
③
##리스타
##챠
##少
##陀
멧
ş
##사이트
##珍
##要
##懿
쿵
핏
깁
奇
##羽
팻
タ
‎
陸
2500
普
##諦
##菩
勝
н
隨
##瑞
##寅
##宇
##爾
랠
鳳
##岳
##阳
##지구
立
恭
泰
##ゆ
内
##디지
##시험
##밸
##從
車
##嬪
良
##越
─
top
##샬
##鉄
##ader
##鶴
027
ト
魚
##衡
챠
##pher
##む
##홈
##끝
##괘
##加
##淨
μ
集
톡
##仙
##ソ
##э
##旨
Н
##컴퓨터
##領
##衆
##윽
基
##iem
##덮
##恭
맬
##Б
##..
216
##嘉
뽀
##iec
##반대
##댄
##健
쑹
##靑
##廷
##牧
##앞
##iers
##굉
##굽
뭔
密
##흉
##ი
밍
##췄
##ج
##·
##祿
228
##롄
##邊
邪
##돼
未
淑
##ή
##특별
##夜
##庵
##피언
##퀸
##丘
##干
##녜
켜
벅
썸
##ithe
##활약
##凉
黑
改
デ
牛
##禪
##ა
兪
##phe
1300
##전쟁
##延
ă
뚱
鐵
ノ
何
銀
##速
009
227
##र
乾
##떨어
##離
草
め
ś
##際
##鐵
##嶺
댁
典
##問
##連
##핏
##ר
男
鎭
##공연
Ara
##共
##印
툰
##則
199
參
ウ
##菜
##約
具
##tab
##丸
##障
ガ
顯
##공간
##자연
궐
뿜
엣
嚴
æ
縣
##鏡
##น
丹
##핸
始
領
##清
##話
##塘
遠
工
##梁
##計
##²
##叉
##ephen
##ف
##關
땀
##魔
##鳥
##執
к
進
能
##bers
##둡
끔
±
##亮
祭
モ
##바이스
##각주
##左
##惑
##iad
##댕
##ゴ
##穆
д
半
##바이러
##苦
##恒
311
캅
齊
##ether
##300
참여자
裵
へ
龙
##allen
##竹
##甫
##뮌
뺏
甘
音
Д
燕
##坊
##닿
##靈
303
##빔
ô
贈
侍
ther
##燕
士
##姬
##畵
錦
1100
008
ほ
魔
##기타
##鄉
##ギ
陰
##사업
##蘭
##靜
テ
볶
━
##우주
304
##ز
利
den
232
##總
##戒
펫
敬
##놉
##썬
言
寧
久
218
##坐
プ
##麟
##死
##쨩
콧
ø
##후보
##췌
ナ
扶
飛
##뫼
圓
純
##istop
##ヤ
##욤
ë
##ders
213
벙
짚
臨
##輪
##持
##肅
孔
##ύ
##ك
##比
##ざ
224
##ش
팟
慧
##200
##ю
##모습
##潤
ブ
##茂
パ
ب
##亂
##邦
##庫
씬
##放
##珠
잼
共
##inen
##逸
府
梅
特
##演
##팜
##캇
電
物
##ento
##400
##好
##龙
##뭉
禹
##邱
릿
##우수
시스터
##禁
405
탔
텅
##행위
##質
##ա
##選
229
닝
ル
و
##ager
##타이어
##具
##考
꼼
傳
ć
##ires
##제도
##留
##峴
##메이드
##보호
##素
305
가수상
##養
##譜
##父
次
##펌
##於
##列
ㄱ
##agen
전문학교
313
##曆
##이르
##처럼
##莊
##잣
럼
##쌀
##釋
##云
仙
々
瞋
##来
##Н
403
##祠
펩
ダ
想
탬
##非
##右
紅
##현대
##兒
##狀
198
首
##rer
##職
##未
##農
##遺
##繫
и
##utom
##사람
##껑
卞
다이나
325
博
둠
##富
##ポ
##站
##略
帝
##疏
409
化
印
##擧
훙
章
##ilen
404
##眼
뫼
鈴
엥
306
##啓
##證
젓
##otog
##프랑스
219
##팎
##泥
##至
##쿰
##藝
##퀼
黒
프리스
##技
##轉
孟
236
##群
##쏘
싯
##otos
##び
##厚
眼
##렙
溫
##址
##伊
##勒
잖
等
##토리오
##徳
##夢
達
##둬
##坂
##문제
##齡
若
ə
Stop
##칫
##캡
##策
##ザ
##맡
吏
桂
##岐
##服
쏠
果
觸
##oche
##사진
##振
##變
##夷
濟
根
##elen
##정도
아이유
##뽀
##特
ý
足
퀵
10000
Ston
##于
##僧
짠
€
##ined
Cher
##丹
##型
렙
똥
##震
##ォ
入
엎
##陰
##楽
株
♪
∙
應
##蓮
##客
胡
dem
##隱
雪
增
##警
##뜰
메이어
手
겟
##對
##θ
##射
##葛
О
##뱃
愼
##뜬
м
♂
##習
##編
랍
프로그
##崇
慈
∞
##자료
##廟
##Т
細
湖
뤄
##숲
우수상
貴
냥
밋
識
##準
##츨
##森
回
##지나
##溫
002
羽
熊
ㄹ
業
##此
##돋
##싯
##點
##멋
˚
퀄
##km
##지휘
##사실
309
ー
##삿
버스터
##実
렘
ˈ
##首
##祚
##号
##戶
##完
．
##芳
##즙
使
ō
魯
##害
훅
##兼
현대사
307
會
號
瑞
뜯
交
바이스
##ペ
##ふ
003
##宅
요시키
超
륜
얄
##ighter
##벗
##唐
越
##inem
##sto
1027
##塚
##ф
302
グ
ㅇ
ヒ
##操
뮈
밧
령
連
獻
居
##상대
##辰
桜
##ules
##마지
##방식
##뇰
##蔵
##东
##땃
関
壽
##惡
ž
雜
ð
##메이션
##atop
##퓨
##쩍
뜰
##姓
##陸
힉
##nder
##및
406
##쨌
##送
##委
402
衛
312
##inet
##마다
##奇
##末
##耶
##빼
臺
덱
요시아키
##버지
##종교
317
##ط
찻
緣
得
##cto
論
##물리
##飛
##쓴
##뮈
##브라이
##貪
##ـ
向
體
徳
엡
뛴
慕
##국가
##回
407
##倫
봅
å
쥘
取
##銀
##О
##않
##젼
茶
##樓
父
假
益
深
통일부
雨
治
##宰
308
牧
##헐
넉
렛
샨
谷
##도쿄
##昇
##젓
商
雙
丙
##勇
##輝
##낮
##罪
##遊
##鼎
##而
Δ
儒
1018
##열차
##視
##솟
##訓
鶴
戒
ㄴ
##aden
##시설
##製
##넴
329
監
晋
##ede
##찔
##影
##魚
##べ
##旅
烏
比
##食
##碩
315
虎
村
母
쁘
於
##인기
##敦
##幸
″
##eller
##reder
##勢
##틈
##役
좡
떴
##汝
##윌
##張
먀
뺀
記
##100
##썹
##雅
##뎅
##翊
獨
舞
##버전
##ё
セ
肅
洞
##壇
精
##聯
##季
##設
##乙
323
앳
됩
##cet
##지명
##魯
##鑑
##ㆍ
從
팍
？
##aes
##끌
##்
･
Anders
##ゲ
##阪
##気
248
紀
巨
레이지
##壤
킵
##簿
##何
##叔
##깅
追
桓
##똑
仲
##詞
##休
##毛
ゴ
돛
岡
1506
##斯
##ม
##惟
쉼
Л
015
т
웜
ニ
鳥
##11408
##디자
马
##되
##硏
레이나
##彌
洛
##시스템
執
##組
##ה
##繼
##匡
至
켐
表
##부산
г
万
疑
멤
##조정
##端
##湾
##cht
##ged
##탬
##ぼ
Ⅰ
以
##盟
##胤
##述
б
퓌
〕
伯
##겹
##Д
##딴
##難
라이스
双
憲
321
##똥
莊
##꼭
##瀬
촘
##ོ
〔
##그리스
##殺
##精
쉰
콥
ビ
팥
放
寺
刑
##渡
314
갸
葛
##醫
##墓
##tand
##登
##ל
##旗
##밖
##olen
##刀
읊
땐
##寬
딩
띈
##pers
##吾
氣
口
好
妙
##민주의
쉘
邉
318
##关
샛
戶
##일제
요시마
##納
레이어
##싹
##갤
빽
部
##독일
##伽
둑
渡
렐
0208
##帶
横
滅
##under
##작곡
##威
##뎀
##庭
Α
語
淨
##尼
##簡
τ
龜
##徒
##軒
##洛
##續
資
邊
##밴드
##補
##申
##堡
ど
##摠
##郷
④
慢
대학교수
##桂
##限
##촐
##ར
ㄷ
靜
##指
謂
##aton
##기자
##丞
##갯
쐐
桃
##iven
##삼성
##げ
鄕
하이트
##誌
젝
鹿
紫
##어린
##왓
##댑
ポ
編
##tav
##头
##喆
귤
兩
酒
恩
##顔
##ת
##深
##籍
##岸
##株
##뮴
틱
Ster
##雪
##Р
##滿
##屯
杜
釜
群
꿇
農
328
##뀔
##婆
샵
##近
##龜
Ö
한국민족
마이스
##其
校
曲
##蓋
##題
##א
##刺
##伝
##อ
##휠
듄
情
##올림픽
##아래
##앨
##禧
##톈
408
##才
##姫
028
##ง
Х
##룹
遺
##慈
師
睦
ě
##拳
##亞
幸
ヶ
##圓
調
耳
##殷
##浪
ع
靖
ن
덥
Aren
##與
##拉
##づ
##门
單
護
奈
##易
##体
##เ
極
##活
##兴
##ก
##欽
##ე
얌
坂
뺨
##己
志
發
션
津
##선수
아이러
327
##宙
##舜
콴
##И
統
檢
长
姓
##aded
##宿
##勞
욱
##제공
##灣
##뿜
##浜
##좀
ㅅ
里
角
波
板
##oles
##inel
##愼
차이나
뛸
復
功
##isto
##病
浦
旅
캥
蕭
ğ
##級
##볕
322
##骨
動
ワ
502
##童
##盡
##含
뻘
ㅣ
##談
##φ
是
｜
##텔레
##엥
##ヨ
509
##댁
##Г
005
##沟
꽁
π
董
可
栗
塔
##止
004
##鬼
506
##苗
夫
##。
Π
住
己
##板
319
##照
##ย
ユ
잣
ｍ
##丁
##維
##蒙
##迦
##紹
##ང
숏
У
##넉
##Л
폈
젬
鬼
##tad
##弟
##ヴ
##옵
渤
＊
밈
##러시아
##tam
##강원
##☆
##ั
台
宜
種
땡
Stoc
##칩
웍
핍
##へ
쏴
캬
形
于
##oden
##idel
쑥
##인터넷
##인간
##기획
##乃
##普
##엌
驛
系
##행정
3500
##佑
##置
##講
##尔
뵈
望
♥
쩐
##酒
##옙
##坡
##ิ
俱
##사이어
##劍
蜀
##115
##忍
##潭
巴
##ades
2019
##으로
##俗
뇨
機
##공동
##将
ご
씹
轉
蓮
##半
##願
##웹
а
變
在
##영어
##頼
324
##冠
##峯
##윳
友
隆
僧
묀
1504
##늠
##毅
##ヒ
##獄
##부대신
006
욘
陶
##방향
##훙
##規
##感
팅
庶
離
##In
메이트
##솝
雅
##높이
##恵
##얏
웸
起
꽉
宝
娘
##gers
##當
##僕
##朗
##营
議
固
##革
##즉
297
斷
##χ
##퍽
翼
ㅂ
326
##翰
س
즙
む
鉄
祖
造
##상태
##履
##慢
織
##adel
##에너지
2022
##幹
科
횃
倭
tour
##퓌
##槃
省
1001
서로마
##뎌
##坝
튕
坡
優
멩
멱
楚
梵
##説
##佳
##跡
位
##aem
##寨
##輸
##华
엷
菩
⇒
##織
##풋
##빽
##丙
##譯
遊
넵
##라디오
##存
##宝
##듯
##環
##儒
쇤
広
##멩
##禎
##料
##染
##脫
##落
絶
早
ṭ
##비행
##熱
將
頭
칵
쭉
ピ
##썽
##딤
片
命
目
##hter
2100
##몄
##핌
##壁
##俱
조사단
##场
505
##짚
廉
█
##eto
##堅
##봤
γ
此
##처리
##積
ギ
廢
；
##영국
##מ
##封
##財
tor
##著
##呂
熱
ヤ
堂
癡
##aders
##헴
##藥
뉴스타
##趙
##岭
過
##蘇
##鼓
##導
Κ
壬
뽕
##tow
##마음
##須
##番
##盤
##ホ
##団
##散
##臨
##便
##経
持
ホ
##賞
연대표
з
散
｢
泉
榮
##오스트
##프리스
##aed
##昧
##휼
##婁
橋
ず
｣
聲
ボ
留
##濬
浮
##iler
##role
##잼
##ี
管
ケ
##tot
정보기관
우주인
##ъ
##広
##녘
##授
##牛
##赫
##퀀
앎
げ
î
Đ
##플레이어
##마이트
##gem
##001
##광주
##鴻
ぶ
ε
威
訓
□
챕
##월드컵
##벵
##爭
##刑
##ב
##及
##査
浅
處
彼
한국민주
##공격
##彝
##篇
秘
##데이션
ton
##밌
##決
##騎
##紙
##도록
##따르
##펭
507
##評
##멈
##豆
026
封
쌈
张
Á
##지지
##슌
##쥔
##鐘
##率
주의회
δ
寛
1204
##米
##映
##낫
##ि
옅
支
養
­
驪
##晩
##枝
##楼
##模
##專
##奏
##ն
##戱
町
皮
##宏
##施
504
ē
##....
##熟
σ
ㅁ
說
食
末
1024
##柳
##נ
##徽
##差
##味
##注
失
再
気
薛
鼻
舌
##ceton
##후지
508
##旭
##画
´
茂
希
綾
布
##대한
503
##他
潘
폄
總
禁
긁
數
##uther
##태양
##β
##쯤
##急
##融
蔣
制
ろ
ㅈ
ì
##鎔
##빡
낀
깍
珍
##utor
##吏
##刊
##춧
##륀
##禹
Σ
推
染
逆
ṃ
##候
##階
##რ
喜
船
登
感
敦
믈
##홈페이지
##午
##課
##了
涙
警
滿
##增
##引
у
終
僉
##澄
##/
##马
素
懷
ę
##박사
Ches
##촬
##屬
##왁
넋
라이어
##唯
³
ㅎ
秀
숯
冬
##ぞ
##눗
##伐
##탤
##밧
端
뻐
節
び
##하이드
##潮
##!
##奴
##늑
碧
½
式
##Ch
딤
캇
똘
##othe
##기자리
##园
##廉
나이스
##程
##훔
헵
堀
Я
襄
2200
##晶
##様
##ր
檀
＆
짤
琴
孤
ń
由
µ
##杉
##失
##銅
놔
갠
街
念
㎒
ː
##도로스
##올림
##沼
##符
##賊
矢
Ф
煩
##総
##昊
##أ
##刻
##去
##孟
경기자
큼
ل
##영향
##퓰
##닙
##磁
##曰
뜸
ソ
仮
Ⅲ
차이나타
##보여
##튿
##랗
##밟
##ท
##돗
##消
運
슨
鮮
掌
##優
間
講
궈
米
賢
捨
깐
##이후
##徵
##頂
##쉰
麗
##undes
##ecom
##露
##緖
베이루
깼
췌
氏
懿
##ande
##ώ
##晴
마이트
##텟
##縛
##팸
唯
列
퀼
##tart
##기능
뱌
淳
##邪
##尋
좇
ツ
ṣ
봇
##으며
##梨
##係
##쌔
##妙
##ว
##َ
##ล
会
팁
妃
##沈
##뚫
##培
##航
##桓
穆
防
ベ
د
##다양
##떨
뭄
##過
##梅
##텁
##嗣
##胡
氷
##貨
##升
##욜
杨
##geles
##uent
##必
##챈
##諫
tou
##鹿
梨
象
##마이어
##鬪
##稷
ㅡ
菊
ò
忍
##研
##У
##잖
홑
淮
##행동
##소비
##Α
##卓
##辺
##就
tow
##뜩
##享
##न
豫
퓰
云
##통합
##형식
##獨
데이지
##푹
##꼼
##耳
##賓
##銘
依
令
境
Chen
##수상
1501
##줘
##筆
##告
010
##맙
##堤
##盧
学
웁
##eler
##이야기
##構
消
釋
##결혼
##懷
##걱
##뱌
##段
##ส
##紋
##岗
귄
ゲ
汝
謝
##통일
##兄
##芝
##ј
##琴
致
ï
뽐
程
落
哀
##伏
##鳴
##ी
##庙
銅
勇
쟝
味
##기록
##그림
##소설
##기준
##辭
##汗
摩
隋
##dem
##섞
##脈
##癡
잿
넙
##illen
##ired
애니메이
##般
##讓
##苑
푹
왠
셴
悲
뮬
微
▲
씀
햐
1509
##듦
##契
일어서
##已
騎
巫
＝
##tap
##라스트
##낵
##征
##ぜ
##彩
##ะ
##纏
##З
##त
ザ
红
쎄
那
##atom
##aet
3200
##垣
##案
##ぽ
##妻
##뀜
丘
雷
房
##帥
##ד
##衍
決
툼
杉
##億
찜
季
類
辰
##모양
##步
##묻
##固
##땡
伏
選
殷
Μ
Č
에너지원
##発
##示
##ש
##宜
##쭤
号
련
ù
藥
ř
儀
З
춥
##gest
##炯
##캬
##媛
눕
院
指
##珪
##붐
##唱
##蹟
葉
Ü
##幕
숄
虛
来
映
찹
段
##타이지
##症
##Κ
##婦
##ต
##া
##캘
尊
θ
##차지
##歷
蔚
##odec
##싱글
1009
##寫
##赤
##뎃
##愍
余
ج
宿
考
##꺽
##巴
##|
х
왁
度
ね
##로스터
##敵
##ص
##خ
##材
025
##墳
أ
薩
##베이션
##솥
##覽
##〜
兼
##phen
0000
##項
＋
湯
影
##21027
##esta
##亥
##薰
014
##щ
##雜
##稅
箕
헷
飯
庚
##then
##눕
##超
##改
##破
텟
抱
尾
##底
##撰
##彼
##礙
랙
笑
征
哲
場
##50208
2400
##얗
##꽁
##束
##僉
##稱
##燈
Ε
歸
Š
賜
彌
乃
##현대사
##정책
##駿
##ユ
##乐
##巳
##葬
껴
♡
##illes
tom
##睿
쥔
욧
ㅋ
씽
1408
then
##郵
##暦
##默
変
켠
κ
##경상
##例
애니메
##ゼ
##숫
⑤
組
迷
須
墓
ف
##최고
##貫
##卯
##茶
##標
##่
##ლ
##ุ
헹
破
圖
λ
畵
1105
##각각
##볜
##켐
##序
劇
冠
用
羊
##ived
##iton
##일어
레이트
##展
##쉘
##浚
##鏞
ت
鏡
딛
戸
##andel
##爵
##関
##奭
Е
丸
↑
睿
켤
昇
##듣
##黃
##讀
##먀
##檢
##終
꿩
蒲
補
財
숱
Thes
1004
##지역
##빴
##冬
##除
##班
##म
##賴
뎀
랏
律
##'
##舟
##萊
##쭈
##朴
##牌
##벙
拓
賈
覆
2030
2300
##문헌
##좡
##反
##稿
##컹
荒
력
教
ば
殿
誠
創
ṇ
ㅊ
꽝
1402
1308
##再
##舌
##蟲
##炎
##ო
##謂
φ
醫
幻
仇
##inent
##echt
##연대
##丈
##配
##笠
##勤
##虛
##്
##ྫ
殺
毅
##iren
##tae
다는데
##愚
##์
##倍
##眾
깬
力
屬
他
曾
ư
攝
##룀
##采
##寿
##엎
뱉
##라스터
##역시
##鍊
##紫
##雀
##歸
029
##ს
##ด
##ո
텃
##리아니
1401
011
##退
##볶
##พ
べ
％
荊
易
移
吾
##stor
##cem
1250
1031
##정규
##血
##翔
##娘
##챙
##้
著
蘭
當
##غ
##랸
##ぬ
##팥
㎏
덫
##Π
##録
##曜
##쑥
016
##콴
奥
藝
##thes
##uton
##생산
##傑
##算
##뷸
##텡
##朱
##曇
侯
ン
舍
鳴
##ided
##주장
##딛
Aro
##裝
##烏
##탉
弓
諡
洋
雄
1122
##走
##삽
##貢
##陣
##殊
##祀
##찐
願
幽
##eper
##趣
##悟
##ゾ
##裁
ش
亞
范
ה
짊
튤
Ч
尋
##anders
##중심
1010
##强
##紅
##燦
##ө
倉
路
助
施
↓
蓋
證
兴
##晋
##細
학교장
##땜
注
긋
砂
界
##썩
##畿
##還
##嫁
##匠
##訪
##勿
##뽕
賀
彭
##ctop
1002
##坤
##륄
##皮
##샌
##ल
л
Γ
妖
숍
面
##씽
##万
##遇
提
괭
柴
藩
볏
1409
##尚
##降
##ु
##밈
##陳
Ш
戊
ネ
專
職
##뵈
ㅏ
墨
救
肖
球
服
##냑
##穂
##弓
##Ч
强
텀
ヴ
줍
姬
◦
##보이스
##tog
##息
##巡
##青
##첵
##쿵
##흰
桐
報
呼
ơ
##우리아
##ued
##停
##幡
##썰
各
橫
又
荀
냇
降
¬
##iele
##정보통신
##대회
##芸
경기관
##်
##各
##บ
甄
鍾
雍
背
ぐ
흄
鷄
##사용
##Ar
##庸
##羊
##菴
##羲
##璋
##剌
##崖
覺
ㅌ
漁
遍
##리아키
##대구역
tot
##党
##寂
##彬
##arde
대한국민
##운영
thes
##깡
사이러
##哈
##亜
##攝
##援
##態
樹
派
簡
揚
寒
##이유
1350
##현재
##꽝
##歲
##濃
##傅
##牙
##Е
##ி
갬
橘
線
##햇
##낱
##微
##毒
##탸
Β
健
㎥
熙
¡
햅
##텔레비전
##探
##油
##庁
##촘
##着
##塵
##券
##ས
툭
止
녕
찐
뺄
積
##ellen
##笑
##！
##恋
##ヌ
##ช
##껫
웡
話
打
亂
뒀
虹
▪
##istol
##킵
##帖
##앰
##满
##铺
盛
껌
ヘ
冷
斗
恒
啓
쏙
##韻
##哉
프리즈
##謨
##य
##ئ
##亦
柏
聞
##다이지
##det
##형태
##ぱ
##쎄
##只
##酉
##跋
駐
翰
牙
헴
泗
斯
臣
##秘
##矢
##퀄
##蜜
##ү
쿰
餘
潮
蒙
附
即
ą
稲
1503
##転
##詳
##뎬
##븀
##揚
##辨
##背
##禄
##涅
更
走
õ
鷹
輕
錢
寂
##擊
##儉
##ן
##凰
##悅
##ห
##犯
##最
演
츤
彦
◆
ㅍ
짬
沖
ょ
®
##erst
1127
##숴
이나가
048
##줏
##뚤
##悲
衆
묄
筑
鄧
迎
契
族
놋
兒
##uler
##대표
##노래
##인정
##接
##뜯
##뎐
包
ぎ
來
夕
옻
##atos
##야마다
독일제국
036
##満
##答
##ξ
##鄭
求
碑
鎌
后
芳
##tak
##국회
육군대학
1011
1507
##早
##迪
##툭
##ض
##艦
##挺
勤
헉
넝
1126
##구간
##멤버
##줍
부대신
##魂
##炫
##ぃ
約
嶺
引
##217
##済
##瞋
솥
黎
卒
隱
##수상태
##부대부
##사건
1101
##쩡
##給
고대사
##價
##慮
折
譯
裕
£
癸
##eden
##塾
##砲
##क
射
蒼
ゅ
彩
童
岳
##401
##서로
##다음
1019
050
##賜
##）
##倭
##æ
繼
瀬
暴
姚
##남자
##선언
##슈퍼
1213
017
##晟
##얌
ق
展
猫
##tod
##築
##溝
##撫
休
藏
犬
잰
藍
難
##estor
##으면
##哀
##審
##ե
##襄
##疑
##ნ
##ھ
##꽂
찼
尚
ペ
≤
##ocom
##가진
##챤
##궂
##蕃
##遂
035
##滩
Å
俗
셧
漆
댕
##ע
##撃
##胞
##Х
##멤
##ག
##覆
短
桑
奏
İ
쿈
##uev
1407
##換
##쌌
##业
##擇
##幀
##皆
##聚
##琳
ム
ي
暗
戴
句
펙
2025
##軌
##밑
##輿
##ک
##阜
##े
##暴
##抄
##霊
要
浪
航
磨
者
##itol
##悌
##遍
선수상
부대표
##戌
댔
脫
뭘
備
惱
##rator
##單
##젬
##윕
##砂
##ם
##緯
##숀
겜
魂
園
尼
갭
骨
淡
##ethe
1405
##뱉
##禍
##齒
##Ш
##萱
##ի
##註
佳
版
浜
꺽
㎾
##베이트
##마이스
마이스페
3100
##활동
##화국
##絵
##怪
##豪
##嶽
##観
##請
協
晴
帶
ṛ
##otom
##건축
##미국
##婚
020
##襲
013
##吹
##巨
##牟
##व
##尺
##Ф
肉
쫄
環
ح
촐
얍
##彰
##頌
##獸
##即
켓
ر
綠
占
국제도시
##이론
지지도
##兩
##슛
##網
##宁
##붉
##树
伝
産
ţ
怪
露
##ieder
##판매
##綠
교회사
##孔
##独
##ט
步
펨
롄
營
製
牟
豆
答
梧
将
1150
의회의원
1320
##횬
024
##権
##荷
##줬
##ვ
##曉
##丰
室
邑
告
##tay
023
##亡
##打
##供
한국가
##乾
##썸
##灘
##席
盤
Λ
序
욜
俺
續
##409
1502
1225
##경우
##馨
##씌
##掌
其
忘
亀
龐
為
숟
問
阮
已
##nded
1404
1014
##曾
##遞
##앴
버스트
##熹
##द
긱
셉
剛
뎁
徽
計
##406
1211
##Σ
##璃
##災
##桃
##뿐
##図
씰
祝
짖
奴
卓
區
##ireles
Underst
##ivel
##鵬
##險
##応
##ர
##苏
ο
寫
実
广
섣
##카이트
1201
1050
##雙
##驗
##ค
##箕
##兆
##玖
##瞻
##桐
##突
##包
##쌈
##廻
##ّ
巡
革
嗣
赫
享
##entor
##ither
1109
프리스트
1005
##耕
##肉
##仕
##琦
##膺
메이스
##酸
##渓
馮
厚
屋
陈
昆
ф
対
##이탈리아
##ulen
##단계
1505
##争
##깍
##斤
##遷
##衙
乱
刊
油
喪
恵
維
快
刘
##ndel
##이름
##쉴
##贈
##ِ
##ח
##更
##似
듬
歷
贊
훤
##edes
##銃
##פ
##予
##ָ
##豫
##鈴
##믐
##»
##郁
##旺
##丑
##恚
筆
才
］
還
円
ŭ
㎑
鼓
깅
凤
##비스타
##애니
1012
##攻
018
##筵
##埠
輪
晩
誰
呪
負
悪
格
뺑
爾
齋
Ó
旧
睡
瑜
##hton
1301
040
##쳇
##当
##付
##ம
ッ
姫
品
槐
損
윷
漏
Ž
##otop
##역대
##瑛
##&
##넜
##涼
##楊
##堯
##숑
##渾
召
夷
聯
芝
紹
退
壯
##iders
##iade
2021
1328
##육군
##晃
##禦
##瓚
이사무
##雷
##ป
##飯
힝
技
ż
哈
勅
俊
##402
1107
##燁
##待
##賣
##咲
베이지
##្
##舉
準
必
놨
珠
đ
顔
Ś
1508
##씩
##憶
##忽
##뉠
##占
##陟
##湯
##霞
##ק
纏
خ
掉
待
複
振
菅
伺
##elles
1210
##자신
국제공
038
##賦
##თ
##梵
다이지
##庚
##앱
欽
審
接
א
兄
貢
瓦
≈
［
勳
##eton
##캐릭터
##우리스
##회의원
경상대학교
1097
##조직
##栄
##鐸
##巻
##ּ
##認
##쏭
##स
##譚
얏
Э
器
텡
넛
扈
##선정
1197
##언어
##작품
##맣
##吳
##杓
##浮
##옆
##收
##瑶
닳
１
Ç
∈
罗
##서비스
##으면서
##만화
##陶
##จ
##渠
##卷
##温
##黎
##涉
##強
##낚
彰
吹
與
克
鹽
黨
я
涅
柱
1207
2024
1125
1189
1016
##됭
##弥
##歩
##沖
##錢
##갠
##短
##ா
##ު
핌
乳
岐
뢴
炎
201008
##tou
애니메이트
1130
1406
1215
##伎
대구역
##뢴
##函
##祗
##ْ
##凡
##탯
##犬
##ུ
琉
祈
霧
旌
衣
1020
##ゥ
##響
##額
##充
##悳
##揆
##प
##糧
##ћ
##耀
植
及
ŋ
凡
꼰
ɪ
嫉
##celer
##徹
##끓
##덧
##辛
##າ
ㅗ
載
룀
静
檜
솅
混
铁
班
##atol
##tang
##꼰
##핫
##샛
스타이
##錦
##젖
##企
##높
##샷
##ә
##遜
##ە
ω
튠
쭈
收
応
##oler
##atog
1029
##똘
##伸
##竜
##費
##达
##쿡
##游
##յ
##க
##旋
##қ
詞
מ
潭
零
ő
핥
쟌
逸
##esto
그리고리
1028
1030
##피해
1206
##謀
##澈
##伴
##往
##慕
##圈
淵
Θ
唱
념
朔
麟
ν
넨
휜
排
而
##038
##105
##228
Ales
##珉
##假
樊
昔
卜
乌
ĉ
„
##arto
2023
1008
##뽑
##뻔
##売
##附
##耆
##絶
##죤
⑥
嫡
涼
樞
側
輔
試
1224
##군대
##柴
##幾
##ُ
##捨
푀
勞
参
陵
血
差
##aec
##불리
1017
0001
##点
##쟝
##폈
##移
##飡
##窟
##髮
鐘
罪
杏
ぼ
客
邵
敵
坪
ك
튈
耽
楞
##estam
##404
1187
1003
##작업
##絲
##莫
##엿
##甸
##펩
##ї
##壯
##꿍
Und
##꿋
##菌
##늉
##：
堅
狂
習
般
##사이유
##루스터
##로스트
##법률
1220
##굼
##Ε
##勉
##눴
##祉
##铁
##땐
##챔
##片
##什
莫
푈
闇
퀀
突
Ц
Ю
1307
2050
##廊
##訴
##孤
##訶
##許
##"
##穀
##힝
##氷
##郊
##揮
館
뗀
廟
硏
冀
华
200506
##124
1015
##拓
##텨
##追
##Μ
##뷴
##児
##냇
##黑
##უ
##ད
##ု
폿
庭
爲
幕
條
胎
ぬ
愚
##cedes
1205
1325
1040
##Al
##텅
##轍
##朋
##逆
##瓊
##濱
##召
##寒
##謹
##瑜
##偉
##墨
害
容
駅
紙
顧
慳
##perst
##버스트
1218
##뎠
##线
##軽
##継
019
##碧
歩
誘
귓
番
퍽
裴
팹
##unde
육군대학교
##107
##여기
##비교
##鼻
##왑
##좋
##諍
##嶋
##倒
##呼
劍
澄
被
Φ
례
皆
ế
泥
除
投
縛
200508
1216
1007
##拜
##脚
##滋
##暎
##険
##快
##گ
##猛
##粹
##좁
##샴
##옐
幼
２
ヨ
笠
刺
量
뤽
齒
1021
##趾
##郭
##偵
##峻
##頓
##冊
##緒
##閔
##宴
憂
밉
凉
期
┃
##aged
##로서
1219
1240
##旦
##劑
##樣
##傷
032
##;
##ு
##墩
벰
質
≠
힛
럴
##iston
1230
##柔
##栗
##훌
문학자
##練
##私
##ذ
##쥰
##又
##檀
##戴
##រ
活
刀
獅
蘆
旗
荷
굼
땜
™
陜
ḥ
強
##atow
##chth
200509
200507
##駒
##彈
##כ
##睦
##棒
##ַ
022
##筒
##湜
##／
##綬
##稽
유지원
##效
##諭
##ւ
##ަ
配
η
的
壁
偏
毒
陣
##iners
201407
##라스크
##101
1310
1190
##楚
##ס
남자신
tod
##僖
##湘
##折
##垢
##风
##兮
肥
押
允
閻
챗
韋
Ä
設
温
젭
1131
1022
030
##맺
##끽
##遼
##깁
##測
##遵
##辦
##뤽
##卑
##竟
豐
請
逢
咲
像
œ
病
ɛ
旭
斎
婆
惛
##리아르
##탔
##括
##্
##敍
##軾
##悔
##喪
012
##찜
FIS
ズ
舟
貫
뎃
빡
楠
Ж
윅
돤
##othes
##nde
1106
1232
##결정
##ظ
##팰
##瑾
##衝
##丕
##ぁ
##黒
##웁
##皓
##黄
##몫
##峙
##ग
##崗
씁
視
続
帰
輝
叔
ه
ㅜ
冥
ạ
¹
屯
伽
沃
卑
##tole
##육군사
##297
1305
##대상
##추가
이사진
부르크
##恪
##ء
##峡
##갛
##ं
##療
##懸
뵐
づ
û
Ø
ệ
▶
##cter
##toch
##바이어
##316
1403
##이용
##쁠
##귈
##ぷ
##敷
##夕
##亀
##違
##冕
##舊
##炭
##整
##웜
##མ
##愧
Ⅳ
標
港
탠
Τ
満
쩌
﻿
虞
##008
##309
1138
##헌법
##일반
##棋
##仰
프리아
##叢
##র
##隣
##弗
##訟
097
##纂
##討
##塞
솽
恐
亦
냅
ė
鳩
톳
赵
##enton
##007
2028
Stok
##가장
##시즌
투수상
##隼
##‍
##絃
하나라
##慚
י
則
豪
洗
젯
溪
屈
妄
##arton
##106
1135
##음반
1214
1236
##仇
현대전
##瓦
##虞
##兰
##祜
切
仕
뭍
招
ざ
왐
뭇
떤
##uthen
##108
##推
##寛
##ヘ
##汀
##競
##抗
연방법
##暉
##壞
##圩
닻
座
増
껄
疏
泣
冊
嵐
礪
祥
按
苏
201108
##로마이
##048
##중화
##의하
##연기
1196
##ζ
##救
##》
tol
##裏
##Δ
##械
##乳
##峪
е
ж
秒
総
燃
苻
探
予
低
炭
竜
ĝ
庾
銘
##iento
20000
1202
##盜
tok
##飾
##忘
##粉
##投
##舎
##겅
##闘
##བ
##ា
ч
쥴
젱
賞
뗏
茅
眠
沢
喬
▷
##베이어
##동시장
##柄
##ぴ
021
베이트
##漫
IIS
##聃
##მ
##寄
##갸
땔
猿
妻
戀
階
Ο
ゼ
攻
پ
堤
腹
ψ
##icom
##ueg
##작전
##敞
##顕
##脩
##謝
##紗
정보통
##땀
##埈
##鈞
##뉨
##璧
##پ
##污
Ω
⑦
ב
燒
Ş
∧
浙
갉
ů
‡
巻
##나이스
##502
1025
##과정
##앨범
##칵
##璟
##績
##喬
##폿
##ִ
##沃
##駕
##胜
##쾨
##댈
##負
##祝
##ེ
팸
亜
蔭
쪄
瑠
讀
郎
˝
##itom
201007
##카이스
##407
##菊
도시간
##斐
##圃
##悼
##ศ
##덥
##杖
##த
##ۇ
##泊
Χ
諫
渋
錄
惑
擇
歲
干
駿
納
##idem
##itos
200407
##시스터
##우승
2026
1103
##승리
##의미
##실제
##년대
1013
##哥
##奥
##憂
tog
##忌
##隷
##帽
##創
##탓
##瑩
##閑
##対
##ি
##ན
伸
磁
쳉
構
ㅔ
ǎ
猪
霊
⅓
略
إ
룹
临
邕
麤
##iator
##andes
mathe
##028
2027
##고대
1315
1318
1123
1198
##방법
##斌
##営
##桜
여자신
##索
##ְ
##ो
##甁
##发
##厂
ρ
毘
磐
楽
≒
拘
霍
묽
浩
吐
鴻
核
震
刻
뜀
##rato
201107
##제작
1006
1199
Then
##逢
##覇
##潟
##姑
##医
##鷹
레이미
##车
##坑
##戎
##빤
##劫
##迷
하이스
蛇
週
篠
競
Ι
괵
坊
릉
##anded
##stom
##002
1327
1303
1203
##방영
##고려
##전통
##츈
##帳
##滉
##閭
##爆
브라마
##謠
대회장
##쳅
##買
##怡
##聰
##돕
##农
傅
ㅓ
烈
둬
閑
霞
þ
塩
◈
201207
201208
201206
##제공격
##정도서
##로스페
##프리아
사회사업
##仔
##乞
##銓
##桑
##稙
031
##冥
##舒
##綜
##軸
##熊
##璽
##ི
훠
柔
僞
遂
ộ
꿋
薄
寄
##tov
2040
1297
1226
##계획
현대전자
##幻
##播
##責
##昱
##穴
##ज
##菱
##彫
##竿
Ν
綱
午
迦
χ
슝
均
擬
辭
勿
胤
201009
200408
##바이드
##그리아
1313
정부대전
##작사
1209
##능력
##乱
##裂
요시아
##溶
Sto
##床
##劃
##互
##몹
##卽
사이어
##核
##雍
##詮
##輕
##း
칫
랫
斉
芦
슴
敍
湘
ả
駒
伴
##tard
##Stor
##104
15000
##gew
1322
##효과
##찼
##ג
##巾
##狼
##戚
##壓
##Я
##爀
##兢
##畑
##깬
##覧
##淮
##遣
##แ
##鉢
##冲
آ
息
舒
与
摠
ک
絵
잤
콸
륄
菜
￣
宰
邦
ɔ
或
従
烽
##408
1323
1217
1302
##An
##到
##繁
반대표
##疾
##寇
##数
##免
##刹
##垂
##縄
##據
##輯
##曺
##蛇
##ာ
##ბ
##尻
歴
歐
吴
整
項
ц
砲
忿
箭
201106
200406
1036
1316
1231
1120
##曄
##値
##寵
##韶
##广
##怠
한국민
##Ю
##倻
##畫
아이어
##･
瞳
瀋
辻
蓬
冒
研
模
垂
э
符
爆
##eston
##uell
##odem
##etop
201109
201307
1221
1194
1032
##규정
##凱
##眉
##晦
##貿
##琪
##綾
##狩
##琮
##損
##葵
##胄
##肇
##肖
##迫
##脣
##叱
##ိ
##ལ
##屠
寿
阪
粉
떳
恨
諦
着
쉔
뷜
撫
之
箱
訥
耶
供
務
障
##anden
##tok
##라이르
1227
1186
##분리
##妄
##賁
##껌
##札
##ไ
##电
##챘
##꼿
誌
存
凌
樓
沿
個
函
탯
違
勢
♭
了
##math
201006
##017
1314
1229
##깽
개인기
##礼
##咸
##โ
##患
##崔
##股
##눙
##놨
##훅
##票
##珥
##訣
尉
넴
짰
늠
灌
杞
惟
욥
独
権
厭
繫
##철도시설
201306
##하이트
##122
50000
##지도서
##시아키
##친구
0026
##弁
##藍
##肥
##皐
타이스
##装
시대상
완전체
##랠
##恥
##遮
##剎
誤
限
謎
翁
租
쬐
郞
経
丰
鞠
奧
땋
##echer
##estan
##acom
##011
##dec
1136
1212
1304
##이러
의사회
##叡
##債
##訥
##냘
##쩐
##漁
##퓸
##ث
##霖
요시스
##ன
灣
抗
照
究
ヲ
察
쇳
丞
鄴
播
स
즌
ố
乐
##기독교장
200505
##405
##117
##설치
1208
dent
1312
##명칭
국민주의
##腹
##庶
##俠
##託
##薇
##写
##笛
##ন
##堰
##崙
##鎖
##쩨
##与
##ู
斬
亭
頃
峰
忽
看
認
滝
註
訴
貝
##eche
##ctos
200504
##216
1108
1329
##Λ
##斎
##畏
##適
##割
##璜
##仮
##疇
##机
##幣
##掛
##臧
##吐
##煌
##貝
##沆
##ட
##ல
##円
##웡
潤
萩
楓
邢
꽹
댜
샥
ш
桥
##506
##114
##베이루
1324
서울특별
##杰
##텼
##إ
##얹
##鑛
##朔
##沒
##窩
##鈔
##~
##뻑
##벚
##暹
현대해
##ธ
寬
庄
局
便
첵
舜
題
衡
幾
♀
速
借
翟
跳
200409
##stoc
201209
##자리아
30000
1309
1038
1311
사이사이
1238
##Ι
##馥
##帯
##剣
##曼
##旻
##潔
##璿
조사실
##ह
##岑
##岛
##乗
##盆
##藻
##팁
##ް
ζ
声
鞍
汪
‰
臥
Ἀ
稱
ㄲ
Ｍ
然
急
ň
ʃ
諱
ồ
穴
┣
##ivet
##322
##328
##315
1193
1023
dele
##誕
##綏
##爐
##隅
##怖
##栖
##妹
##璘
##얘
##尸
##ນ
##嵌
ㅐ
◎
§
깰
緑
圭
츳
危
裸
束
懈
発
옙
##etor
##1000
##adet
##317
##127
1128
1235
##지배
1026
후지나
##冶
##償
##뻤
##ң
##邸
##泓
##梓
##溥
##幢
##င
##樑
##ວ
##?
賦
唄
沼
苗
鴨
姉
去
当
渭
쫑
阳
##unders
##arder
##루스트
##205
##일부
1321
##捕
##你
##瑀
##壺
##痛
##頤
##幌
##堀
##覚
##မ
##庾
##溟
##쿱
減
卽
칡
敏
횔
写
ᆞ
悔
##alles
##itop
##나가리
##109
1326
##椿
##뮐
##棟
여자연
##鋼
##玲
##濁
##矩
##쾡
##鎰
##쥴
##迎
##勃
##攸
##斬
##洗
야마이
##柏
##ި
##杏
##串
##潛
##ำ
##დ
##ܐ
也
謙
ậ
傷
翔
隊
剣
奎
凶
衿
쩡
索
稅
й
蘊
##entos
201304
201305
##토리스
##050
##요구
1035
1306
미국제
##Θ
##彧
##戀
##댜
##ข
##莉
##敗
##看
##循
##տ
필요시
##图
##岔
##彭
##孜
##巷
##慰
ز
型
綿
観
述
評
給
軌
彫
⑧
욤
祠
ị
點
뺐
尖
뗄
鎮
∀
欣
##0000
##305
1195
1048
##건물
히로스
##딥
##斉
##岱
##巢
##陂
##畜
##庆
동시기
##嵩
##‌
##翠
##կ
##疆
##繡
##垈
##暮
##昶
##ў
##义
猛
잴
ש
뎅
潁
椎
只
塘
Ζ
企
÷
算
詔
셍
倒
仰
輸
쫒
紗
辟
坐
✻
##edem
201408
201308
##006
1102
##출연
##유일
5050
##모두
##Τ
##槍
##獲
##琬
##焉
##햐
##Ν
##裔
##楨
##被
##밝
##孚
##箭
##읜
##姜
##ப
##験
##婢
##ྲ
##鹽
##麤
醉
腰
徒
郵
ἀ
뵙
獄
쳄
彈
停
杭
摂
付
芹
ㅆ
뵘
禑
##우스터
##학자료
##학교장
##116
##501
1223
대전문화
##矣
##頃
##析
##参
##乎
##峽
##弦
##詔
##ս
##燾
##荒
##狗
대구성
##Ц
澤
㏊
３
툇
怒
每
畿
拜
委
솁
狼
빕
茨
栄
頓
ส
##arthe
201504
201309
##스타이
##020
##509
##강화
##실시
##寮
##唄
##嶼
##昕
여기자
##넸
이나오
##梧
##汚
##叟
##架
##礎
##凤
##閤
##讚
##坦
底
ʻ
掛
勸
兗
雁
鋼
誓
宏
렝
맙
耆
潛
耕
琅
º
糸
驅
韻
送
猶
쎈
頌
ŝ
髙
201205
201409
##325
##250
##128
1132
##橫
##液
##ז
##莘
##甘
##श
##ტ
##拔
##堪
卿
乞
体
擧
弥
綏
團
凝
鑄
拉
諏
術
뻣
遣
잽
溝
孙
##uelle
##berst
##레스터
##MBC
##선택
1228
##Un
##卦
##쭝
도시민
##ֹ
##겊
##ぇ
##暗
##儁
##ῖ
##琛
##Э
##杯
##뻬
##ြ
弁
札
廬
謹
丈
卵
梶
履
介
伍
陝
鄒
ʲ
�
焦
몐
慚
˙
憍
恚
##nderst
##irel
##리스포
##비아니
##메이르
##308
##헛
##続
##変
##歡
##צ
##荘
##惇
##愁
타이미
##押
##霧
##専
##찻
##詵
##誼
##莽
##蒲
##租
##འ
##军
전문학
##챡
杖
店
촨
沛
岸
覇
様
覚
韩
亡
퍄
尺
멎
쩨
펍
軛
##eded
##스페인
##026
##일본부
2048
Arag
1319
1129
##彪
##힛
##辯
히로마
##妓
##詠
##际
##篤
##徐
##窮
##鄒
##膜
##扶
##蓉
##챌
##袋
##뻣
##欣
##漸
##漆
##콸
##퉈
##灌
##娑
Ā
祐
匡
芙
酸
◇
醴
滄
寅
誕
歳
镇
म
斥
켁
採
畠
＿
螺
201406
##136
##126
##110
##라스키
##102
##로스타
##221
##대학생
##327
##324
##데이스
0048
##ぺ
##状
##卨
ded
##殖
##经
##招
그리그
사회사
##ब
##猶
##罗
##余
##虫
##娥
##厭
##进
##醮
弱
젋
硬
ぱ
≥
ァ
悠
討
끗
渾
胸
렁
稷
裁
ゃ
免
无
呉
賤
宁
閩

##agell
##대학교육
1148
1124
##띤
##禾
##罰
##瑋
##뵤
##綺
##卜
##断
##Ж
##ய
##排
##確
##耉
##玛
汗
葬
僖
斜
ص
汉
狗
残
犯
ㅑ
卍
激
뼛
Í
懸
ș
祿
禾
級
默
Ł
둡
##andem
##018
##005
##레스포
##350
##214
##당시
##Β
##넝
다이사
##Ο
##芽
##糖
##祺
##팠
##훗
##閥
##牒
##畠
##巧
##稲
아이사
##ण
##瓘
##膳
##腸
##벰
##ត
架
弟
닢
黔
灰
竇
眉
꽈
쳇
亮
曆
Ⅴ
ầ
禿
##istof
##nders
##irol
##195
14001
##189
##아닌
1248
##투수
##진행
##？
##捷
##獣
##恂
##济
##窓
##蜀
##奮
##踏
##却
기자리
##疫
##깜
##琶
##짠
##탰
##ཁ
翊
弾
⊆
嬪
導
莲
透
示
妹
똠
㎛
数
諂
##edet
##cers
201005
##토리즈
##016
20036
##졸업
##이탈
##출시
##扇
##榜
##旼
##騰
##团
자리스
##视
##淡
##濂
##鱗
##چ
##맴
##奧
##莖
##猿
##வ
##盈
##셩
##ා
##椒
##＝
데이르
櫻
賓
눔
ㅕ
芸
授
乘
買
ㅠ
웩
쌩
吸
∠
톄
达
堯
撰
緒
团
＼
观
##ighton
##stop
##라스타
##119
##우스타
##318
##326
20038
1104
Stol
경상대학
##쑹
##壹
##ष
##針
##且
##红
##狭
##祇
##圍
##漠
##燧
##邇
##边
滋
裏
鼎
렬
鷲
雑
充
♦
ɑ
縱
뵤
趣
伐
##inec
201105
201104
##306
##504
##기관리
##uep
##뿍
##껄
##訳
##奪
##獅
##拾
##濤
시작전
##汶
##ณ
##份
##앳
##ध
##Γ
##閱
##埔
##俣
##隸
##팻
##喇
##或
響
⊋
笹
滑
찡
섯
＠
熟
規
但
繁
प
棋
幢
磯
嘘
枝
两
畜
럿
ს
愧
##atoc
##507
##메이스
##210
##207
##224
##203
1140
##다고
1121
1317
##캐릭
##踊
아이미
##爪
##猷
##长
##ര
##쎌
경제국
##混
##ေ
##猫
##ხ
確
幹
孛
빻
読
両
เ
層
ㅉ
疾
郑
紺
##ueller
##tour
##부대학교
201204
##부르트
##The
##148
##uem
2032
##다는
##계약
Aran
##距
##连
##曙
##协
##～
조지명
##룔
##术
##胎
##脂
##磐
##넹
독일제
##釜
##借
##톳
##逵
##헥
##갚
##홋
##穡
##გ
##豹
##澮
##渚
##滨
焼
謀
른
ط
궂
悼
穀
踊
쐈
濊
徹
壇
拳
篆
畑
⅔
ぜ
灵
誑

##rele
##320
##118
##103
Stom
##발매
##臘
##媒
##쪼
##쏠
##需
##嬰
##踐
##远
##য
##粒
##纘
##헝
##屏
##咎
##젭
##묄
畢
置
賣
ắ
ờ
ễ
휨
礼
毗
築
ɾ
뿅
₂
蝶
弔
##dele
100000
##226
##310
##201
##리아이
##니아키
##129
##015
우리카드
##横
##엡
##兌
##呪
##恨
##僚
##ി
##灰
##怒
##焼
##諱
##涵
##董
##聽
##韋
##็
##ະ
##ެ
##嗔
旋
届
ィ
育
宙
盆
避
往
쏭
捕
拔
壞
胜
201405
##ikm
##선거리
##314
##존재
##蹄
##旬
##否
##薄
##曦
##괭
##燒
##մ
##預
##寔
##瀑
##並
##按
##琰
남자연
##劉
##ດ
뿡
홧
愍
婦
獸
貨
翠
郷
牡
閉
眾
熾
遷
偶
兜
朗
뻥
汤
关
##oded
##agel
##307
##321
##150
##타이르
##236
Alen
##杜
##秩
전기자
##펍
##泗
##赦
##깎
##ল
##艾
##늪
##狄
##勲
##側
##峨
##ू
##塩
##輩
##틍
##澗
##ង
##劣
##ት
##馆
##軛
뻬
例
網
∩
殉
崎
찧
軸
ぷ
榎
ㄸ
됭
甑
盡
郁
煙
返
ʊ
ħ
क
ṅ
鮑
##tator
##artol
##reto
##edel
##stow
##125
##025
##227
##209
##208
##204
##지지구
##소속
타이론
##鳩
##遙
##静
##嘴
##묜
##悉
##僑
##旿
##듸
##닮
##嵐
##軫
##竺
##禰
##磯
타이지
##減
##ภ
##ट
##幽
##浣
##蔘
##开
##ក
슷
淀
椿
漫
軟
讓
適
盈
旺
篤
À
짭
餓
义
雖
车
##odent
##atov
##utos
201004
##보기관
12000
##206
##상대사
##120
##403
20011
20028
##변화
##주변
##개교
##Φ
##声
##卒
##廢
##냔
##楷
##떳
##稚
##둣
##瑢
##爽
##珩
##添
조사회
##蹴
##愷
##憐
##엾
##繇
##퀵
##昔
##顺
##甚
부대사
##慎
##慄
##셤
##勛
##邕
##蒼
##湌
##腺
##侗
隠
즘
ェ
蠶
葵
獐
枕
ュ
毎
Î
遙
曉
沮
賴
蜂
낌
न
ㅃ
ந
讚
祁
⋅
##cton
##121
##135
##304
##주시민
##전투
1188
0100
##챗
##瑟
##涯
##洵
##辞
##喩
##浴
##湛
##ษ
국제도
타이나
##箱
##諡
##瑗
##闕
##腔
한국제
##玹
##騒
##個
##鸞
##鋒
##擔
##髪
##碍
##岬
##恐
##誦
##န
##ម
##ނ
悟
徵
쭌
훑
귈
ț
耿
擊
督
姑
혓
狄
银
卯
就
酉
兰
##istot
##5000
##otoc
##014
##okm
##218
##텔레이
##010
##503
40307
2035
##출신
##비판
##衰
##轄
##衷
##遁
##琉
##悠
##멱
##彙
##顥
##複
##沿
##ヅ
##볐
##晏
##ম
##儼
##덫
##煜
##髓
##壬
##녓
##ื
##顏
##豐
##洽
##堆
垢
푄
瀛
湛
춰
볕
Æ
殘
ớ
弼
席
빤
閼
兆
껀
絆
梓
옘
偰
稠
庙
##estos
##상대전
##240
##Che
##329
20029
20035
##개시
##曽
##閉
##弾
##珏
대한국
##芬
지나다
##盘
##綿
##鴨
##鑴
##ᠠ
##宫
보이트
##卵
##়
##洹
##柯
주도로
##핥
##厘
麒
쨩
榊
룻
Ｓ
⑨
額
怨
駕
褒
換
甕
県
섐
놉
뱁
頂
聚
깻
崩
災
操
ḍ
頼
##getow
200405
##009
##225
0300
##蝶
##뿡
도시키
##銖
##动
##Ἀ
##닦
##棚
##汉
##咨
##楠
라는데
##ड
##肩
##愈
##聡
##筋
##캥
##斜
##ཆ
##扎
##贤
공사업
鑛
ל
ャ
祇
含
ぞ
敗
鉢
衝
웻
ㅛ
署
歡
沔
ס
遥
飮
隣
隅
羌
开
屛
##aget
##사이사이
##phes
##etos
##505
##508
##022
##030
##나이어
##경제국
##004
Stou
##부문
##컴퓨
##΄
사회장
##栢
##찡
##萌
##돛
##셍
##歳
##頊
##ῆ
##漑
##冀
##籠
##վ
##ை
##բ
##攷
##途
##刃
##ර
##්
##ງ
##ັ
##앓
##ស
##މ
##亚
##库
到
譜
汽
녜
慎
쩔
冉
柿
ぴ
텝
ǫ
培
壺
薬
쭤
¼
琵
站
訖
##공항공사
201506
##다이트
##항공사
##레이루
##pht
##渭
##ὐ
##諒
하이어
##昻
##勅
##双
##鷄
##縱
##低
프리그
##ত
##昆
##悪
##ہ
##寸
##恕
##〉
##楓
##琯
##聘
##ғ
##띵
##但
고대신
##鲁
##똣
##窑
##畲
詠
稚
訳
틔
傍
料
奮
冶
慰
預
策
냠
丑
巖
萌
ת
祗
肝
І
謁
隴
悉
홰
农
##국제공항공사
##iacom
##istoc
##iret
##iech
##진출판
##uec
##215
##012
##tof
##다이나
##301
3001
0220
##玟
가지나
##鍵
##槻
##槿
##瀅
##珣
##컥
##鈺
##僞
##偶
##햏
##꾹
##ქ
##槪
##蝕
##腐
##賤
##卡
##暻
##鲜
##腦
##짤
마이미
##ກ
##羌
##罕
##є
##ྱ
##ܘ
##ܝ
##鱼
##楞
費
ח
幷
섶
耐
塑
銃
≡
พ
瞬
㉮
##1231
##시마이
##113
##187
##211
##186
##의회장
##사망
##비슷
tous
##참가
##週
##겜
##冒
##틋
##麒
##煙
##붑
##蔡
##ῦ
##忱
##沮
##危
##ে
##冷
##炅
##紳
##虹
##逝
##ே
사회의
##놋
##幼
##替
##畝
##뒬
##ပ
##杌
Η
転
逃
כ
暁
踏
裝
璿
窮
侵
꾹
＂
紋
Þ
ज
濃
깝
斑
쉿
輿
尤
ㅖ
戚
串
##estar
##athes
##utoc
200404
##003
##위하
##다면
##寃
##拍
##遲
##씸
##擦
##返
현대상
##옛
##濡
##挙
##従
##棨
##篆
##款
##属
##结
##妾
##भ
##毬
##녠
##荣
寸
淫
昨
埼
믄
∪
緋
떫
煬
阜
塚
托
蝦
碩
甫
辯
瓜
嬰
燈
壱
劣
鬱
윕
栞
ㅒ
ề
铜
亥
##ieden
##itoch
##ofor
##229
##190
##013
##로스포
25000
##130
20017
##운행
##형성
2112
##尤
##联
##脇
tos
##諺
##掾
##暢
##歴
##帆
##検
##旌
##卫
##먄
##虐
아이나
##垠
##瓜
##푀
##셌
##稻
##蔭
##翅
##隈
##囊
##茅
##顧
##袖
##檎
##屛
##얽
##윰
##萨
부대부
##တ
##ރ
##遥
##务
綜
児
脱
⑩
狀
晦
戱
駱
꼿
毌
녘
兎
倍
峨
倫
曇
課
̃
샅
蔵
鄂
拾
ὁ
廷
##estal
##istos
##사고등학교
##레이유
20016
##오늘
Aram
##생각
##狂
##飮
야마지
##ാ
##傕
##奢
##儿
##墟
##濕
##璇
라이나
##넵
##鞭
##刷
##廓
##敖
##懋
##読
##醐
##逐
##ோ
버스타
##槽
##ῶ
##ҳ
##玩
##კ
##့
##ි
##巫
##范
##滸
##შ
##腕
##ប
##ާ
##伦
##詹
##洼
햣
ぽ
薔
柚
栢
튄
邱
ź
絲
濮
畏
検
旦
챵
ק
膠
쑈
쏨
┳
貧
濁
汾
脇
叶
洲
竝
價
傘
Ú
臧
勐
◯
锦
▒
##국제도시
##ctoc
##사카이
##021
##라이미
##Are
##197
20027
2029
##지금
0006
0400
2150
##륌
##辟
##勘
##飼
##适
##塊
##胥
중국제
##麓
##驤
##穎
##諧
##托
##圳
##맸
##滝
##櫓
##晳
##粲
##抱
##恤
비행정
##窯
##讖
##偈
##迴
##张
驚
億
逍
鷺
釣
荻
床
範
‚
篇
錫
候
楡
貸
ʿ
Ż
匱
뀌
ɡ
秩
अ
쌤
鍋
獲
伎
㉯
##arded
##188
##138
##다이사
##311
##323
##메이어
##기자기
##수행
도시아키
2350
##꿩
##況
##梯
##輛
##씰
##盗
##杵
##霽
##瑁
아르크
##躍
##侃
##ന
##棄
##倶
##쭐
##숏
##奐
##욧
##틂
##嘎
##侵
##昉
##苞
##狐
##仏
##맬
##奬
조선언
##쮸
##綸
##乌
##慳
##驿
##设
腐
غ
４
渚
ר
懐
ĩ
紂
‐
פ
扎
漸
晏
忌
責
묠
营
紳
籍
宛
휼
案
ע
測
溟
玲
勉
宴
甁
☞
ㅿ
许
憎
##uele
##303
##토리카
toler
##193
##학교수
0007
프리스타
Aler
2101
##대하
##驥
##ֵ
##鬱
##囚
##딫
##両
##訂
##ু
##肯
##慾
##츤
##燃
##暇
텔레스
##歆
##虜
데이미
##裳
##乂
영국제
##兎
##諶
##낏
##抜
##薬
##棺
##ச
##숄
##녤
##袞
기타이
##珂
##뢸
##ซ
##़
##雖
##犍
##ን
##环
##窝
##隍
曙
럽
某
ㅚ
郝
讃
ד
ئ
깽
∨
圍
爱
＇
挑
⊇
⊂
沒
Ξ
쿱
坤
뻑
ㅢ
鲁
党
冯
##ivent
##플레이상
##1004
11000
##238
##메이지
##313
##319
##이스포
##남도서
##구성
Arac
0003
Aron
##凌
##켕
##偃
##妖
##粧
##杨
##Χ
##璉
##দ
##ব
##崑
##敢
##壘
##蠻
##瑪
##吟
##雁
##瀛
##衫
##昏
##柵
##ք
##젱
##臼
##솁
##浄
##綽
##棠
##잽
##顛
##ܵ
##畢
메이사
棄
采
槿
朋
꿔
亨
Қ
蕃
麥
ё
晝
蟲
樋
怡
棟
ι
奕
蒸
辨
泊
堪
퉈
311000
##tall
##요시마
2036
##에게
##공개
0125
##뒷
##邈
##汜
##讐
##퇘
##虔
##繪
##ׁ
##灝
##汽
##淙
##穗
##裡
##拱
##漱
##鎌
대전통
##杞
##誉
##갭
##ക
##塗
##瑠
##趺
베이어
##泌
##沁
##迅
##슥
##誥
##ር
##ລ
##观
##棲
##ព
##户
##削
##伺
Ρ
団
堺
炤
菱
벱
อ
割
淺
柯
衙
弗
겅
曰
슘
崑
팠
粟
婚
綺
냔
埋
詳
佟
##ardel
##1007
##1028
##1124
decom
##213
##카이나
##024
##196
##312
##027
##235
##루스타
##평가지
2038
##관할
0016
##결국
출전자
##댔
##怨
##瑚
##激
하나오
##顗
##醒
##避
##們
##厲
##肢
##錯
##ヲ
##艇
##倂
##냠
##맑
##阁
##च
##絡
##艶
##淺
##黜
##弊
##蠶
##碣
##詰
##纪
##澍
##ண
##솽
##誣
문제작
##夔
##抵
##鑄
##ရ
조정치
##迹
##泽
##批
##盖
##热
Ａ
禧
ו
蜜
扁
筋
跋
凍
粗
査
肇
旣
챘
仍
픈
좨
‥
証
汶
憤
濱
敷
ų
Ⅵ
ぁ
罷
訪
薫
멥
艾
扉
눅
尸
窯
륙
连
ظ
渠
▣
##ratos
##1125
##ephe
##이사이
Andes
4004
##노선
2307
##표준
##귐
##尖
미국민
##ὶ
##椎
##逑
##栽
##薫
##瑤
##吒
다이후
##毗
##褒
##灯
##祈
##禽
##烽
##ϊ
##跏
##න
##ු
##婬
##誓
##崩
##ฟ
##奘
##淚
##ន
##ຊ
##ມ
##懺
##无
##掉
傾
濕
画
厳
脚
ũ
꾐
廻
盖
È
噴
拱
漣
ג
棺
岭
Ա
勘
მ
升
땝
准
呈
澳
联
批
巳
喝
헙
喀
拍
枫
##ardes
##브라이어
##otok
201505
##시아닌
##220
##223
대한민국민
##국내
0004
0308
##인해
##傘
안전문
##兀
##幅
타이르
##宵
##Ρ
##،
##吸
##瀨
##擬
##语
##饔
##繕
##뺨
##웽
##踰
##沂
##լ
##臟
##箚
##★
##醜
##ள
##暾
##厦
##զ
##厥
##힙
##샥
##癸
동시간
##睡
표현대
유지방
##閃
##叶
##ເ
##描
##准
메이미
달리아
##ܪ
##އ
##喻
添
槍
ǐ
گ
쾅
壓
率
譚
賊
雛
禍
烟
宅
☉
瑛
互
矯
Ｅ
ゾ
섕
庫
湾
⇔
硝
暦
描
帖
汎
顚
贾
쯩
繕
ⓒ
譬
㉰
##raded
##oches
##3208
##utop
##1009
##1202
##ieto
##1102
##고대사
##123
##019
20025
##대해
베이사이
##많이
##태어
##목록
##툉
##闢
##増
##谿
##큔
##貌
##瑄
##堈
##槨
##臂
##덞
##湍
##誘
##姉
##殘
##拯
##혐
##徑
##霜
##쥘
##譽
##윔
이상태
##њ
##辻
##零
##璡
##က
##戊
##隔
##퍄
##陞
##磎
##켑
##凝
름
ㅟ
筒
〇
闘
웽
沂
띨
빳
鑑
灯
ы
נ
嫌
沸
┗
脈
催
乗
漂
鎖
ग
ⓐ
鬪
循
빰
Â
雫
쐬
卡
켕
盘
##rader
##리오스트
##gell
##etow
##1018
##idet
##1011
##1020
##212
##202
##문학교
##040
##리카드
##라마이
##루스키
20007
2031
##侶
##闇
##筠
##緑
##糸
##捜
##枕
##莞
##樽
##沽
##彛
##奕
##弱
##較
##琇
##ந
##蹈
##繩
##偏
##賈
##攘
##俔
##ុ
##ົ
##奠
##嫉
賭
逼
낄
낟
ㆁ
練
Ά
図
霜
띌
薪
游
厲
屍
滨
Ō
俳
否
絃
Ñ
솀
勲
뗐
援
顕
嵯
ĥ
└
漳
妓
禎
ʼ
把
罰
渴
ḷ
嬴
ა
व
曽
薊
뎬
盐
庆
谢
##istole
##ochen
##athen
##eches
##estow
##1229
##gele
##안전기술
##1214
##1215
##1021
##다이어
##248
##194
##연결
##표현
##隠
데이나
##淫
##箋
##橘
##透
##袍
##勣
##邯
멤버스
데이스
##韜
##珦
##貸
##ক
##舶
##ถ
##煕
레이션
##蔚
##믄
##汁
지방법
중국민
##ສ
##澳
##沫
##黙
##凶
##蕩
##ญ
##誾
##ອ
##ත
##ම
##旽
##垭
##佬
##悍
쌌
Ｎ
腦
臼
倡
鍊
牽
祀
胃
陪
慣
ব
撥
鸡
焚
奚
牌
倂
匈
幡
棲
ʁ
椒
ấ
楷
庸
팃
퀜
飜
廖
ह
亚
ก
塵
乔
##istom
##1228
##1109
##1013
##029
##프리즈
##023
##전문학
20014
##화국민
##장치
Ares
2117
##焰
##篠
##戲
##뷘
##퀜
##驪
##斥
##錮
##潽
##込
##鷲
아이르
##菓
##墻
##薦
##ց
지역대
##雕
##炤
##匣
##謁
##諾
##鰲
##鞍
이사이
##쑈
구조사
##处
##奚
##浅
##ል
##ზ
##љ
##ދ
##蓍
##陈
√
０
裨
챤
狩
閤
脂
雉
浿
債
ゐ
坦
漕
痛
偉
ث
聽
籠
ɨ
菁
爐
ɐ
⊊
ɣ
ĵ
傲
좆
顺
韶
##ieler
##iades
##1024
##irer
##1027
##1106
##0123
##1129
##stok
##irof
##1005
##1226
##112
##131
##199
##231
20026
##적용
5001
0011
##상당
0204
##旣
##坎
##戈
##쌘
##آ
##荊
##凍
##殼
##矯
##麿
하이지
##ֶ
##秤
##絅
##产
##埼
황제국
##屈
##禱
##淄
##採
##頻
##萄
##’
##魁
##ᠨ
##银
##証
##鹵
##쫄
나라이
##琢
##誡
##్
##禛
##痴
##麥
##杭
##璣
##呈
##瑭
##专
##ფ
##ὸ
##ใ
##仓
##莲
欠
５
軽
匠
ョ
ㆆ
似
▼
뒹
캑
惇
│
भ
抑
Ј
鰲
Ө
滕
嵩
㎍
த
陞
醇
繪
狹
屠
ヽ
寨
努
꺄
縮
継
́
樟
∇
ʔ
濡
遮
融
롼
皐
衰
环
і
隸
戌
⦁
##ocher
##rades
##iato
##1006
##1103
##1127
##1216
201404
##1208
##타이스
##akm
14000
##140
##cec
00025
10194
20024
##승격
0002
##유명
##爺
##ψ
##訊
##稜
##姸
##謡
##쳉
진출전
##巣
##폄
##誨
##왐
##辱
과학교
##藎
##閏
##ἰ
##翎
##潼
##샐
##謬
##顶
##献
##켠
##섀
##竝
##暑
##楫
##ղ
##拘
##抽
##릐
##綴
##勗
##죌
##縮
##歐
##煖
제작가
##ທ
##པ
##蜂
##ྒ
##띄
##牡
##槐
##涧
緊
盲
紡
荘
괸
宦
峻
렴
溶
窓
腸
萊
員
र
缺
큄
鉅
断
妾
♣
桶
ņ
ம
抽
겡
昕
邓
휫
艮
ọ
￦
ŏ
茜
魅
惜
დ
齐
鱼
##itous
##aetop
##1204
##2238
##1206
##0104
##etol
##1104
##1128
##1017
##1016
##1001
##1107
##1209
##버스타
20015
##036
##군대학
##219
##자연합
##302
##등장
##결과
3003
##구조
##충청
##개최
0304
0124
##醉
##禅
국민주
##ല
##×
##撤
##ራ
광주인
##뼉
##廠
##晷
##ী
##癌
국회의
##爱
##꾀
하나가
##盒
##藜
##猪
##瀷
##擾
##塼
##샅
##쫑
##গ
##娜
##짇
##툐
##♥
##榴
##庇
##頸
##哩
##ங
##詡
##促
##侑
##彊
##嶠
##泡
##ំ
##繞
聰
夾
郊
麦
ォ
控
芒
寵
溥
弄
瓊
庇
效
扇
ứ
껐
穢
汚
葦
Й
巧
邯
奄
材
듭
聡
寓
芮
钟
ब
蠻
퀑
Щ
Ĉ
榆
##sther
##eders
##1031
##1227
##1203
##otov
##sthe
##0105
##1010
##1023
##1026
201311
##1012
##1207
##1123
##1212
##1201
##가리스
##032
##초기
##세력
##완전
전국민주
0005
##貧
##蕙
##沛
##邏
##稔
##廈
##晸
##书
##溜
##蟹
##സ
##嬉
##疎
##邵
##詢
##麵
##碎
##몔
##Ά
##誤
##紛
##禕
##昂
##奸
##办
역사이
##顒
##餅
##팃
##^
##뎁
##痘
##쌓
##찹
##藁
##툠
##処
바이탈
##뱐
##腫
##漬
##珞
##队
##忭
##긱
##*
##聶
##涇
ㅘ
胥
략
櫛
复
針
娑
亘
装
ς
累
俄
盟
ἐ
砥
ө
譙
刹
収
Հ
♠
㎎
専
諺
枯
藻
Ⅶ
₩
勒
途
祕
￥
斡
槪
鈕
000000000004
##agers
##adele
##ctom
##2307
##atou
##프로그래
##1223
201211
##1025
##1014
##학교육
##097
##카이미
##항공항
##승강장
##이나이
2122
2250
##생애
##보다
0024
2130
##樵
##짢
##驅
##獵
##舅
##緩
##瓣
##쎈
##某
대학생
##晨
##轅
##潢
##갗
##娛
##헷
하이르
##緝
##雉
##搏
##沔
##垕
##剋
##壊
##ძ
##產
##煦
##땠
##粟
##并
##叙
##玆
##ผ
##匹
##쉼
##晙
##璠
##锋
##怜
##ތ
##쏙
##廛
##煬
##돤
##愾
##炉
##鋥
Ｏ
渦
叫
媒
硯
鉛
係
捧
点
敖
쭐
粘
벧
莞
虚
寡
弧
倶
퓐
띵
込
द
ʒ
ச
욀
卧
湊
浄
雀
澗
鍵
遁
笛
쁠
ㅸ
堆
ˠ
婢
숩
鹤
襲
諍
##esthe
##agest
##chter
##irom
321000
##utol
##1122
##1213
##1221
##0109
200311
##우스포
##geg
20018
브라이어
##교황
##폐지
##뷜
##仝
##峠
대전기
##鍋
##쉥
##憙
한국내
##报
##晥
##昞
##斑
##譲
##衢
##蛙
##贇
##뛴
##դ
##渉
##冑
##ழ
##籬
##収
##仗
##牢
##驚
##帛
##劒
##熏
##枚
##惺
##큅
##祁
##塡
##弐
##ය
##哭
##ິ
##嘗
이사고
##霸
##胸
##暠
##譔
##້
##仡
##煒
##ލ
##祕
##罷
##貊
##蔑
##悰
##鄂
##­
闕
刈
奸
凸
廳
遞
걔
Ἑ
∥
秉
ゑ
箏
錯
蹴
肩
樺
愉
짦
մ
醍
삯
悦
Ｆ
戈
尿
萨
鍛
济
惺
ぢ
撒
毬
棗
諭
楸
諾
怀
駙
鵲
狮

鱗
ม
##32307
##rede
##1019
##1029
##1015
##1211
##1121
##지나오
##230
##루스크
21000
##라이지
##규모
위원회장
5007
외부대신
2205
3010
##棍
출전국
##蛮
##礁
##麦
##匪
##暁
##节
##銑
##գ
##妤
##盾
##쾅
##吻
##汲
##쟌
##枰
##ത
##恢
##郃
##醬
##ぅ
##깊
##鷗
##汪
나라마
##屍
##鼠
조사이
##戡
##儆
##潑
##歎
##尽
타이후
##賽
##堉
##ක
##얍
##戟
##龕
##傣
##စ
##贍
##皋
##濩
##勸
##倬
##່
##ބ
##់
##瓷
##暄
##觉
##쌰
##劬
怖
삵
넒
陆
ی
獣
瑤
削
꿍
쌕
樣
Ḥ
查
辽
Ｃ
苔
裂
头
婁
苞
枚
芽
ữ
暖
醮
岑
屏
钱
陇
蒋
恃
##estat
##여자기독교
##iadem
##aetos
##IStor
##0217
##0106
Stolen
##0210
##1126
##정보기술
##atod
##1101
##1220
00020
Unde
4001
##특수
0009
2311
0236
##포함
2201
##상황
##雇
##级
##紘
##圏
##販
##餐
##餠
##뻘
작가진
경상대
##쉔
##輅
##侮
##硬
##쌕
##菟
##滑
##ً
자유지
##թ
##뮨
##熾
##ヂ
##疹
##톄
##邁
##称
##ڭ
##ခ
##覲
##꾜
##뿅
본부대
마이사
##ా
연대학
##ㅡ
##纳
##थ
##犁
##팹
##쌩
##拒
##埰
##渔
##擎
##諲
##把
##ܬ
##翕
##墅
##贡
##坳
바이드
勃
揷
梟
盜
晶
涿
閣
軒
쌉
杆
拙
飾
爵
큘
擴
弩
삘
ļ
죤
庵
並
삔
碁
汴
戎
壹
遵
热
糖
憑
┓
巽
殊
頁
豚
แ
蕩
荣
抄
邾
撃
莘
隼
峡
##arthen
##enthes
##agent
##고대학교
##프로그램
##1205
##1108
##1224
##1008
##1120
##이스타
0010
0012
Stow
0013
##ヶ
##쿳
##滴
##邳
##叫
##畔
##筑
##퉜
##澔
##昰
조정부
##磾
##賚
##莱
##蝦
강원래
##弩
##湧
##兪
##婉
##翻
##愉
##좨
##ռ
##縁
##螺
##酷
##黔
##廬
##馹
##옘
##既
##礪
##묶
##ཀ
##♡
##훨
##躬
##쌤
##战
##师
##倧
##폽
##檜
##斡
##淇
##鞨
##廂
##歯
##貳
##壕
##ञ
##ܢ
##顎
##个
##间
##떤
##璨
##姙
##蘆
##鸡
##僳
##忿
鼠
똔
条
쉥
뼘
©
ヱ
⑪
圃
笏
瀑
찮
薨
麴
疎
稻
硫
胚
液
穩
붇
훵
涉
蟹
쌔
冲
卫
錬
ப
禦
讖
栃
浸
鎬
苑
穂
⁄
銓
롸
単
詐
談
狐
柵
ю
悅
兀
棘
汀
哭
க
畫
볍
窺
蓝
##erston
##ethen
##iecht
##etour
##reton
##enthe
##retor
##artog
##ocht
##ueto
##aele
##0108
##aech
##0116
##1002
##ctol
##1218
##1130
##군대부
##시아이
##035
##멤버스
##출전
##중요
4003
Arom
##瞳
##띔
##♪
##＆
##々
##檍
##总
##憬
##꽈
##鈍
행정보
##坛
##套
##됸
##롼
##ട
##궜
##ற
##ฐ
##輦
##랖
##燭
##掖
일본부
##壎
##稠
##鄙
##떴
##运
##댠
##纖
##몐
##呑
##塑
##Ξ
##煞
##လ
##頲
##熺
##柒
##佶
##榆
##帰
##됴
##ީ
##鹤
##烟
##鬘
##頔
##辣
##为
##计
∂
윽
佑
棚
醜
欧
曼
囚
쨍
鯉
υ
譲
雒
稟
ỹ
繡
¿
邸
柊
쌘
几
奠
症
텄
श
ủ
迫
눙
〃
飲
ぺ
盗
氐
仏
潞
稀
㎖
遲
듈
荆
腎
叛
誣
쮸
犀
帯
堡
Ү
抜
熹
岗
##ieders
##애니메이션
##epers
##artor
##utof
##otod
##0216
##otow
##1030
##1219
##하이어
10100
Ander
##라스포
##학년
##기반
기독교회
0014
하이스트
0022
##Η
##釗
##킁
##赛
##쳄
##濠
##姐
##勵
##ം
##翟
##牲
##攀
##펨
##겋
##欄
##拂
##稼
##빳
##控
##볏
##秊
##জ
##緞
##伋
##滯
##愿
##鉱
##켤
##靴
##畯
##슷
##Ζ
##儲
##扈
##箴
##姦
##퓔
##텄
##鯨
##巌
##駐
##累
##땄
지구조
##濯
##옻
##渙
##훠
##캴
##햅
##ျ
##伍
##钟
##Ӏ
##볘
##鰓
##鸣
##ྩ
##佩
##謐
##畈
##뚠
##傈
絞
ｅ
ⅱ
勾
禰
宍
珊
چ
㎦
鈍
該
汐
羯
懶
绥
Ἰ
寇
闊
絹
雞
莒
凹
ヌ
㎤
腆
巣
稽
豹
距
逐
芬
揖
厦
∴
禅
켰
爪
厄
賑
詹
楼
瑪
ǔ
Ё
剝
隔
븐
满
₃
攀
##estation
##undel
1000000
##ivest
##1022
##0128
##iede
##1003
##3189
##0407
##0328
##0205
##1230
200211
##132
##And
##다이후
20008
##리그래
2230
##외부
0329
3007
0306
0015
0303
3011
3021
##분류
##യ
##쨋
##姪
##闊
##膽
##筍
##糾
##爛
##弧
정도시
##俳
##戯
##閼
##硯
##簫
##錐
보이어
##酬
##궃
##腰
##髦
##鋪
##訢
##琚
##琊
##騨
##굄
##ి
##雑
##섶
##赴
##딨
##鑒
##繹
##儺
##স
##寢
##ै
##髻
##綰
##ບ
##瑨
##滄
##哨
##稹
##圣
##厳
##삯
##鄲
##闡
##뱁
##Ա
##ई
##ຕ
##ຫ
##ܡ
##잰
##ұ
tof
##撥
##坨
##募
##죈
##惛
恥
戻
닙
쟀
塗
迅
Ψ
膳
旬
蛍
츨
戯
袖
閃
遯
懲
奔
跡
雇
솎
燐
妥
Ｒ
幌
虫
Մ
ㅄ
毋
潼
哨
숴
ʰ
楮
ξ
喉
龔
艦
儉
͡
㉠
숌
吕
需
坎
渔
枣
什
찝
婕
圣
斤
峴
龕
縁
釉
沾

¦
##istofor
00000000
20150328
##ratov
##3000
##0223
anders
##0118
200109
##고대학
##시마을
40000
##교회사
24000
22000
2123
서로서로
3005
##주요
0025
##뉴욕
##駄
##欺
##옇
##ֲ
##孩
##乏
##駆
##쩜
##炊
##枓
##賛
##淀
##煎
로마이
##ም
##殤
##絹
##縫
##շ
##軟
##厓
##သ
##涓
##剪
##沅
##瑱
##숩
##പ
##臥
##傭
##塢
##摘
##缺
##斂
##悦
##壮
##ည
##ව
##璥
작사상
##欧
##ூ
##澣
##汰
##셱
##穹
##憑
##齐
##稀
##졔
뉴스페
##埴
##弄
##ជ
##ă
##ප
##吃
##হ
##芑
##봅
##桶
##礽
##憎
##跳
##뽁
##疃
胞
鍼
솝
閏
צ
竟
晃
⑫
ㅙ
췄
帳
洙
抵
榛
Ｐ
맟
ű
涪
駆
釧
螢
楯
வ
竪
뷸
瑯
曷
щ
벋
玖
돝
煉
貊
凱
腺
并
㉡
ㅝ
ό
腕
寝
峯
岬
郢
俠
库
꽥
赴
藪
瑕
굄
궉
됴
އ
鵠
犢
＃
芭
푯
贺
㉱
岔
礙
##ratoc
##ISBN
##4000
##0501
##2214
##itot
##0508
##idec
##1225
##ctod
201011
##0120
##1210
200108
##232
##나라이
##베이드
텔레비전국
##타이유
아이사이
##에서
0213
2409
##경력
##편성
##설립
Chth
##승강
##労
##恬
##藪
##浸
##肪
##网
##珖
##蛋
##ോ
##騫
##শ
##綝
##统
##惜
##簾
##滞
##മ
##旧
##հ
##硫
##漪
##琠
##պ
##幷
##鄰
##寓
##戩
##穢
##记
##戍
##郢
##讃
##ర
##悶
##脳
##艺
##釉
##樫
##仍
##뽈
##裟
##अ
##灼
##鷺
##潘
##曠
##ྷ
##ც
##ྐ
##釣
##ҧ
##ስ
##췬
##슉
##别
##憩
##泂
##諴
##璞
##錘
##빰
##墜
도로스
拝
圈
킁
윰
窪
Ｄ
塊
誇
韮
섄
匪
긷
Ἐ
浚
髪
큉
汕
옭
肺
葡
蝕
匂
嘎
掃
렵
区
売
叢
毓
薦
朞
鵜
銭
น
갹
披
搜
묏
ㅞ
濠
뭡
뒬
风
鄱
饒
扬
줴
既
젼
걍
抛
ქ
你
穿
ʌ
纳
ợ
羈
挾
赛
##tander
##ceto
##etoc
##0126
##상대학교
##0102
##0316
##브라마
50050
13000
##니아이
19997
20004
3008
3050
0123
##진출
##위해
3150
##담당
Aral
2210
0008
5027
##撮
##贸
##殉
회의원
##猴
##蔓
##傍
##櫶
##ു
##毁
##씻
##耐
텔레이
##喉
##劭
##옮
##檣
##筌
##衞
##…
##꿎
##ې
시스타
##渕
##垓
##蓄
##催
##窪
##ெ
##痕
##嫌
##珹
##薙
##湊
##堣
##萇
##茜
##쇤
##朶
##籤
##ؤ
##巽
##ພ
##葡
##膏
##鴦
##貯
##措
##診
##斧
##།
##閩
##瓔
프로마
##ያ
##时
##ਾ
##裵
##뵐
##釐
##覓
##茉
##鉤
##汇
##贵
##塬
텁
糞
왝
Ｔ
泳
狭
춉
㎠
ร
泮
渼
僭
艶
斛
썽
륀
价
弦
曳
Ⅹ
ť
晁
य
暮
컹
洮
箴
僻
ช
輯
휙
困
惣
聴
鵝
朕
Ô
泛
揆
큔
ˌ
訶
윳
撤
ь
状
墳
泡
磻
븡
且
ɕ
釐
塼
煌
찟
竺
柘
维
괼
##ierst
##artou
##gento
##unded
##의회의원
##대한국민
##0502
##1508
##itov
##0317
##0504
##1217
##0326
##0313
##0306
##0302
##1105
##FIS
##상대학
20009
##지정보
##시스타
21210
##전국민
20006
2240
##또한
0212
3030
항공사진
2312
3012
##전라
##狹
##靚
##띨
##嵯
##咀
##넙
##撲
##쬐
##传
마이나
##徙
##奔
##갬
##쳔
##琨
##芦
##뒹
##숯
##െ
##嶷
##穰
##每
##ீ
##寡
##奫
##俸
##慘
##ۋ
##傲
##瑎
후지하
##灃
##努
##꽉
##ো
##霄
##樺
##税
##恊
##뇩
##暐
다이유
##冰
##阮
##漣
##搜
##洸
##倣
##곁
##饌
##芹
##墮
##ີ
##罡
##宓
##吼
##孼
##搖
##梗
##骸
##墉
##尿
##摯
##鞠
##យ
과학생
##찟
##ކ
일반대
##资
##ទ
##ោ
##恰
##宾
##ཚ
##ና
##뽄
##먁
##樸
##磻
##坞
##呵
##闸
##厢
##离
##仪
##漂
##쾃
우주요
籐
廈
狙
淚
墮
茉
Ս
殤
糾
窒
魁
儺
濬
¥
鮎
뱡
壊
塞
憧
Ə
蘿
甜
赦
Ｂ
ʾ
ذ
箚
ա
垣
奪
櫓
逝
楔
吟
蕾
랬
퓔
媛
¢
棒
ỳ
昴
澁
澎
淝
늬
Έ
僑
粤
ɒ
酈
ġ
｀
瞿
च
扮
飢
凪
№
蛟
旱
湧
潜
න
抚
叡
稗
낢
军
响
蓼
ử
曦
飞
坝
嬀
뇽
嗚
›
##esthes
##31000
##12011
##othen
##otol
##0117
##utog
##0119
##uers
200309
##odet
##0103
##0314
100210
##0327
##gev
ander
##나타이
##031
##이어서
00010
는다면서
0316
현대한국
0307
0250
2131
##직접
0105
0201
##의해
##처음
조사회장
0017
##欠
##ף
##淹
##繚
##喝
##嵒
##雞
##될
##珙
##റ
##瀾
##乭
##ং
대회의
##웻
상황제
##懽
##푈
##竭
##룅
##箇
##諜
##楗
##砦
##没
##ံ
##耗
##슙
##舘
##膚
하루스
##棉
##鏛
##憤
도시아
##̣
##涌
##캑
##헙
##蓬
##拏
바이지
##护
##概
##ွ
##披
##垸
##ҷ
##劾
##ા
##疵
유지나
##殻
##ђ
##厄
##ປ
##ູ
베이론
##ෝ
##禔
##틉
##羣
##逈
##极
##陁
시대사
##ۈ
##珽
##왱
##佾
##섕
##琵
##겍
##腾
##毫
##芒
##긔
##孺
##鈕
佩
綴
随
粒
処
ⅰ
暎
悌
迪
স
糠
딧
쿳
寢
껑
뷘
昏
矩
陛
傀
↘
脩
嶋
値
삥
苩
嵋
諧
缶
姿
郤
羞
叱
爭
ल
菓
罠
ά
誦
凛
돠
佃
蔘
臘
焉
雌
夭
墩
Ｖ
賛
汁
ụ
ܐ
边
夹
宽
措
誅
這
痴
谭
忱
蚌
喆
燾
‹
밂

═
20150304
##entol
##13230
##radec
200000
##0503
110000
##대한민국
##adec
##etom
##0127
##0113
##과학교육
##0186
##0320
##0405
##0228
##0202
##0206
##0406
##0310
##ndem
##0509
##0307
##0125
##연구간
##198
아이사이트
##사이동
indec
20005
##제외
0313
2097
0305
3015
2114
전자기타
2203
현대하이
경기관광
0200
0231
##酌
활동시
##兜
##汎
##쉈
##驍
##該
##뉼
##絳
##屹
##വ
##恆
##끙
자기반
##প
##柑
##琓
안전국
##凯
##佺
##椅
##娟
##놔
##厨
대전자
##ौ
##傾
##ᠣ
##渤
##碗
##盲
##瀆
##პ
지도서
##坰
남부터
##咄
##ੀ
##嵋
##․
##甜
##喚
##価
##ট
##筮
##慣
##雋
##姚
베이르
##顚
##晓
##畷
##ិ
##ී
##昀
##េ
##ី
##ែ
##维
##烱
##괼
##紐
##礩
##짼
##縡
##蕉
##伟
##慤
##뭘
##懐
##查
##闍
##荔
##狮
##倚
##誑
##憍
鞭
鋸
絢
６
햘
鞏
握
岱
傑
椅
痲
퀠
ค
▽
줏
芥
携
畝
끙
瓢
據
頒
ә
籌
გ
끽
擔
门
刃
琳
嘆
挽
替
ז
鳶
ἄ
电
偽
狛
埴
貿
恆
垓
浣
滎
ǒ
脊
̯
奭
壮
濯
鯨
қ
ừ
蒯
焰
怯
嫁
Є
ɤ
蓀
Υ
Ĝ
Ē
箋
ү
勧
ܕ
薰
脣
稼
জ
泸
潟
偸
拖
棠
涵
褚
＾
冴
贵
▀
瑶
酌
蟠
풰
##toler
##uesta
##artos
##unden
##ratop
##rofor
##rolen
##시마다이
##사회사업
##0124
##다이야기
##uede
##0324
##uthe
##0209
##0112
##0215
##0403
##0213
##이사회
##달리아
##카이지
##타이후
##전자기
##기자연
23000
00001
##바이르
20019
25031
2501
2327
0195
2107
0036
0050
2211
3220
4038
메이스트
0301
##碁
##ぢ
##읗
##毓
##璹
##ฯ
##귬
##沇
##闻
##墀
##櫻
##宛
##宥
##擥
##ץ
##짬
##棧
##儡
가리카
환경상
##釈
##遐
##튤
##縉
##薔
##á
##櫃
##詣
예정부
##ܠ
##臚
##耽
##焦
##賃
##뛸
##ు
##汐
##窒
##皝
##鞅
##携
##ख
##蠟
##肺
##牆
##គ
##វ
##頡
##脱
##샾
##秒
##堵
##潗
##筝
##얭
##馮
##ㅣ
##樟
##壙
##ὰ
##扉
##圀
##ໄ
##约
##丽
##燥
##ޮ
##ᠶ
##ខ
##ះ
##苾
##勁
##则
##줴
##圻
##쓱
##冈
##ብ
##盃
##茲
시설치
##廃
##历
##錡
##괵
##翮
##匯
##頗
돌아이
##І
조지나
##헵
##썖
##涛
##潜
##툽
##紡
##羯
##酵
##ယ
##澯
##吝
ή
掘
粵
훕
杵
鶯
淄
窩
玩
ヰ
‏
募
壤
雩
℉
Ῥ
궬
卦
渉
珙
楢
媤
곪
域
揭
貂
裳
ﺎ
螭
蔓
ƒ
搖
脳
ე
휀
咽
Ŝ
அ
貯
옯
柄
კ
눗
ゥ
衍
瞻
켑
ห
冨
劫
倪
ㄻ
梯
劒
ự
蚊
喇
苧
Ә
ℤ
訟
忉
ъ
ṁ
俌
頤
额
恰
聂
쳔
豈
擾
棉
纛
ㅱ
荔
Ἡ
甚
窑
ˣ
##tarter
##utodes
##arthes
##uellen
20010101
##istog
##estas
##atour
##atole
##radem
##raden
##estad
##aetod
##otou
##agec
##0226
##otot
##0323
##0404
##0214
##0227
##0309
Indes
Indem
##주인구
##베이지
##사회장
##주도서
2108
Ande
0323
3211
Arar
2404
2118
국제공동
0110
0018
3250
2129
0148
2212
##못했
0040
대한국제
3002
3017
4040
##谊
##俶
##棣
##締
##煉
##瘡
##賠
##琡
##懲
##勖
##枋
##閒
##澂
##珊
##蕤
##刈
아이론
##갰
##溢
구역사
##ᠡ
##ᠰ
##褚
##惣
##뭐
지하루
##խ
##銭
##湫
##羹
##皎
##竇
##伷
##□
##醍
##瀞
##噴
##旱
##籌
##깻
이동안
속도로
##捧
##ල
##泣
다이상
##瘟
##ὴ
마다시
##ರ
##ভ
##羨
##꽥
작전국
##အ
##亶
##杆
##荇
##妣
##懌
##娼
##庠
##晧
##覃
##ዮ
##ਰ
##ވ
##礫
##璐
##锦
##ហ
##ਲ
##棵
##箐
##ཐ
##ҡ
##．
##壻
##胆
##埋
##閈
##汤
##웩
##矿
##誰
##缽
訂
爛
귁
溢
９
胆
沪
蠟
潔
琿
ј
穎
姦
嬢
歪
벛
緯
￢
ÿ
ი
彬
煎
똬
Ы
裡
帽
炸
鮫
ե
禽
際
姻
剩
妲
ว
Ð
驃
瀧
ゎ
ბ
匹
纂
凰
愁
⊙
忻
륭
朽
働
沁
贖
逮
筏
햏
塾
巾
灼
आ
亳
灘
殖
椽
靺
儲
欒
苅
汲
涌
떵
暫
桔
췬
菌
岷
遇
孺
찿
彊
仔
佺
蛙
‬
对
휭
殯
陀
萱
卢
ⓑ
懺
큥
佾
硅
濫
馳
顓
뤘
虔
蕉
嗔

##estart
20100316
##entot
##toche
##경제공동
##0207
##0409
서울특별시장
##지역사회
##cele
##0131
##ageg
##toto
##Inde
##0107
##0203
##군대학교
##0308
##0312
##0110
##0122
##0130
##0201
##0220
##경기도
##과학교
##레이사
##라마을
##니아니
##사이전
3040
2504
5002
0101
2104
3009
2105
0108
로마이어
2102
3216
##발생
3004
0113
##펏
##幇
##촙
##碼
##ゝ
##彥
##鶯
최초기
##瞬
##姿
##蔽
##撒
##藷
##嬌
##밞
##ባ
##睟
##汾
##뺀
##ὺ
##鉛
##倡
##唎
##腑
##텃
##굵
##宕
##﨑
##ܒ
##棘
##濫
##妊
##忒
##]
##ゑ
##魄
##ღ
##掘
소속하
##뺑
메이르
##堧
##蛛
##毖
##凪
##偁
##騷
##巒
##陪
##ٹ
기관계
##퀠
##낯
##莎
##飞
##뺌
##矛
##ཡ
##拠
##欢
##妮
##ီ
##ူ
##剧
##鞋
##芮
##叭
##晚
##权
##爔
##ર
##犀
##閻
##ដ
##ě
##ყ
##ຈ
##瀚
광주민
##ӧ
##룝
##臏
##暖
##贄
##듧
##駝
##迭
##恮
##洑
##笏
##踪
##邢
##蒸
##过
##涙
##潡
##灵
##垟
##昷
帆
꿨
Ｕ
쥠
騒
廃
促
筍
恪
듦
摘
旨
抹
몆
昼
ｔ
煮
Ｉ
裙
翡
綸
帥
賽
矿
輻
暢
셌
頸
飽
苫
낵
ヅ
┏
鴉
鎔
돐
玆
뎌
챰
ў
済
貳
崖
矛
ľ
ស
娼
쫀
撲
笙
ท
隧
♯
县
沐
耘
抒
婉
玛
捷
坑
遜
緩
ම
අ
莎
浴
ẋ
ằ
医
廊
榜
濾
셩
羲
疆
奢
恬
资
严
謗

##gester
##ithes
##00000
##hther
319000
##이사이트
##epht
##2000
##0115
##환경기술
##0322
##0325
##nden
##stou
000000
##0507
##utot
##etov
##0319
##0221
##0129
##cthe
##0321
00004
##사회사
##의회의
32000
##IIS
현대하이스
##루스페
11027
##영국민
##업무
국회의사
5004
2115
4012
2235
4050
4008
2124
5009
0027
##의한
Aras
2128
3101
5003
2314
3109
2109
##연혁
0107
##屑
##鴉
##ゞ
##槎
##멓
과정도
##ബ
##뵙
##簧
##諮
##吧
##紇
보다이
##齎
##옳
##柬
##饒
##莒
##叛
##늙
##鍛
##賑
##Ы
##喰
##逃
##ொ
##捐
한국회
##鶏
##廆
##肝
##遅
##燐
생산업
하나타
##効
##狸
전자신
자연합
여자기
##妬
##쨈
##粱
##룟
##ේ
##ླ
##偽
##絕
연대회
##旃
이나라
##ྟ
##ល
##絢
##职
##잌
##楙
##佰
##糠
##ጵ
메이나
##ฉ
##ฬ
##薪
##«
##ܼ
##ޅ
##墙
##곬
##ۆ
##ᠭ
##黯
##栻
##猗
##薛
##湄
##盞
##縕
##Υ
##璫
##珌
##瑬
##裨
##拙
##貽
##徴
##ΐ
##頎
##陋
##薈
##謄
##丼
##陆
##孰
##譬
##腆
##妨
##锅
##膝
##烇
蓄
ㄳ
傭
憶
Ｇ
７
ｒ
称
ⅲ
醒
蕙
摺
眩
件
勵
矮
溺
挿
辦
经
ぇ
몌
¨
发
↗
숑
毁
歯
担
膜
≅
囊
盂
ヵ
垈
댑
꽌
塙
珪
釘
澪
榴
梢
膝
轟
絳
걀
宸
拒
낑
託
륵
̪
診
ⁿ
蘄
峽
礎
Ἱ
塡
뚤
嶽
炉
ἡ
撞
迂
ㄵ
챨
褓
彗
觜
洑
旻
鞘
蜃
擁
儚
进
თ
態
Ｌ
丕
Ć
糜
ҳ
詮
糧
拿
꿘
މ
疫
桦
耀
纖
佘
愷
綬
뽈
葫
踰
ɬ
括
炊
舎
寮
鎧
岚
蘂
票
몯
树
锡
庞
绿
贡
鸭
阎
搆

##ndersto
##ientos
##aeder
##andet
##iaden
##istov
##라고등학교
120000
##stos
##0329
##로마이트
##0028
##itok
##마이스타
##tath
##itog
##0303
##0224
##바로스
##고대회
##베이전
##레이나
##프리그
##로스크
고등학교장
##프로그
##마다시
##gep
##gec
14028
##남부터
2199
0318
2316
2113
3006
5029
0504
2190
3103
##개요
0023
##해당
Aret
0219
0224
2106
0209
텔레스포
제작품
##偸
##魅
##鬚
##腳
##掃
##ള
##菅
##瓶
##药
차이트
##懼
##쌋
##헹
바이나
##醞
##让
##沘
자연대
##弋
##耘
##菲
##嫄
##姆
##굣
##鬐
군사상
##沌
##嘯
##겡
하나이
##芷
##陛
##畓
##鍝
##힉
##軻
##謔
하이루
##फ
##桀
##녈
##銳
##紬
##竣
##=
##邉
##话
##宸
##咬
##깟
##疊
##苔
##塋
##稟
##媚
##砬
바로스
##楡
의사단
##燉
##喀
##끎
바이사
##粛
##暫
학교수
##Ω
##俟
##哆
##姻
##兔
##惲
##悝
##諝
대전체
##佤
##錚
##茹
##众
##槌
##丝
##灸
##沸
##荼
##肌
##蟾
##∞
##应
##ཤ
##ላ
##珀
##್
##潁
차이스
##覡
##ึ
##ฎ
##畇
##滬
##꿘
현대학
##蕭
철도로
##藺
육군대
##泄
##耨
##烘
##烋
##醇
##梭
##뇬
##瑊
##胖
##翩
바이루
##짧
제작용
##润
##漳
##划
##ṭ
髮
曖
蚩
８
渥
姪
팼
财
稜
亢
倚
뵌
涇
娛
尻
烙
ט
പ
Œ
陷
璟
ặ
営
∽
呑
刁
橙
Ό
꼈
ẩ
賃
圜
ぅ
騰
蛤
Ⅷ
บ
燭
簽
菑
ප
肯
翻
鄯
紐
鄆
¶
煤
ㄺ
廿
澶
巢
疊
兌
橿
緖
弐
琼
紛
꿴
ｙ
叙
椵
鈞
Ъ
茄
▩
鍮
쩍
顎
⑴
⑵
ﾞ
त
ދ
碓
眷
霽
⇄
唇
饶
咄
瑟
猜
斐
恕
祚
왬
顛
陕
ย
ĭ
춍
躍
涂
沟
护
苍
⃞
##celes
##iatod
##edent
##istow
##sthes
##0136
##dech
##리스타이
##stof
##etou
##Stop
##3007
##0208
##tato
##etot
##itow
##ndes
##2114
##0305
##0402
##atot
200011
##도시아
00003
11506
##가리카
##지하루
##전기념
00016
Stoch
deton
##FII
##미국민
00100
00000
35000
0109
3114
2401
2215
##그녀
2218
2186
0202
2231
0505
2325
0021
0205
3201
##靂
미국내
##握
##涑
##渦
##残
##淞
##夭
##琅
##ണ
##侠
##拝
##貶
##姒
##ᾶ
지역사
##瀣
##豎
##炮
게임명
toc
##솀
##揭
##ജ
##싶
##氐
##卞
##坵
##膠
##ᡠ
##ᡝ
##뱡
##瑙
##葱
##뻥
##棹
##謖
##豚
##砥
##聿
##芙
##萩
##챵
##這
##媽
##咽
##亘
##ހ
##抑
##뤠
##飲
##塏
##珝
##ӣ
##뗄
##誅
##哮
##Қ
##뼘
##ද
##粮
##슁
##俎
##实
##萍
##峒
##읏
##倩
##蕗
유일본
##毎
##尕
##贝
##랼
##芚
##琥
##첫
##辉
경기원
##壑
##厝
##泮
##ཞ
##ठ
##쫀
##ች
##蕆
##瘍
추가운
tov
##餓
##ຮ
##ຂ
##ྣ
주의원
##豈
##ގ
##ូ
##헀
##沱
##ҙ
##囲
##낍
##嬴
과정부
조선수
##埜
##袁
##娶
##틑
##纓
##藐
##澹
##浹
##寯
##廡
국회장
##杲
##诺
##胚
##嶸
##髄
##簪
##气
##轨
##岾
##訖
##賂
##陇
##ဝ
##窺
##禑
##ㅓ
신라고
##尧
##淖
##吴
##赵
##冢
##胴
##퍌
Ί
戲
Ｋ
Ｗ
繋
ɯ
⑬
捜
Ｘ
ﾟ
뚧
‌
Ὀ
堰
獵
滇
兢
叅
宵
閨
ἔ
礫
ო
叉
聊
አ
撮
뮨
緬
沓
咨
炯
斧
覲
⟪
⟫
臍
ぃ
荏
莆
瀆
怜
獒
僚
巌
録
濂
碎
罕
┐
揺
袈
ḏ
郴
匣
圉
噂
삑
贍
稔
鴛
ㄿ
ㄶ
ㅀ
昂
ể
蟾
穰
熔
졔
辞
ｌ
輓
Ь
貶
胶
諴
溜
罵
埠
ŵ
晨
ކ
闔
漠
হ
ٱ
禱
簫
泽
朶
嫩
鉗
銳
綵
∃
澧
Ⅸ
粹
賻
効
泌
皿
琮
璽
园
秭
珹
凯
协
尧
纸
仓
涧
汇
陡
鞞
##estand
20100315
##ethes
##uelen
##derst
##chtow
##adent
##iatow
##redec
##일부르크
##0005
##3238
##itou
##aede
##etog
##iror
##edec
##0204
##0315
Andel
##공항공
00024
00006
##이지원
##가운데
Undec
##카이후
##타이사
##역대학
##수도서
##중국제
0106
2507
3503
0035
Stot
2310
0103
노선거리
2125
2217
2202
2207
0126
2110
0116
##종류
2308
2140
##발견
대학교회
##시절
2103
2326
2238
##참고
##통해
0506
0102
0211
0197
##체제
제공사진
0221
##荻
##働
##鑌
##泾
현대신
##勾
##뎨
##贖
##沐
##财
##做
##밉
##楯
##큇
##ך
##択
##쳬
##ँ
로마지
##糜
##啞
##叩
##ㅏ
##왼
##졍
##瑰
##껸
##翹
##霍
##橿
##笙
##霆
##糞
##琫
##娃
##蟬
##扁
##煐
##뾰
##ゐ
##砕
##쨔
##逞
##낳
##వ
##錬
##鰭
##흗
##馳
##漕
##黍
자연방
##ਿ
##縦
##捺
##瀉
지지하
조사업
##බ
##큠
##ฮ
##芻
##佗
##ृ
##抹
##炒
##淏
##雎
##귿
##컽
##ྨ
##唇
##沉
##傀
##ড
##复
##絿
##箏
##袗
##粋
##쌉
##낑
##飜
##带
##岦
##ደ
##쾰
##霓
##唆
##皿
##ለ
##ܫ
##ܗ
##ᡳ
##ណ
##俯
##帙
##ㄨ
##ᠩ
##剖
##―
##棱
##嘆
##怯
##熠
##厅
##쳥
##竩
##俄
##葦
##畳
##餉
##좐
##謎
##甕
##椽
##阴
##ಾ
##撈
##旁
##饶
##諰
##廨
##Ἰ
##荆
##垛
##羞
##һ
##ҕ
##푁
상태양
哥
臟
ẓ
Ī
뢸
헀
ｉ
瀨
挙
总
逗
긔
夙
彛
乖
偃
鉤
冕
摹
έ
飼
頻
乎
昧
擦
券
莱
駟
ไ
จ
靴
餠
暑
陟
炒
乭
帛
攘
쫙
彡
瓠
ء
इ
Ř
厩
薙
쫌
Ĥ
湟
痕
̍
맸
娥
聾
煖
跆
縄
欄
柑
덖
犧
吽
拂
촙
炮
莉
ㄾ
ㄼ
靡
Ў
訛
ổ
諷
熏
献
쾍
滯
睢
ｓ
箒
鞆
ས
黜
欺
ክ
ㅭ
琔
骸
臭
⑶
ස
བ
ኢ
ㄽ
丽
遐
另
竿
诸
昀
挺
쟤
憐
苇
檄
櫟
胴
閭
忙
淞
遭
楕
颯
ɹ
폽
幅
归
頹
侾
塤
剪
蟻
巍
燮
埔
悍
毕
骆
ｰ
闍
单
鹅

##uenther
##underst
##otothen
##cedent
##undet
##sthen
##oders
##atode
##aeton
##경상대학교
##entod
##iedel
##estac
000018
##etod
##0505
##0506
##0121
000008
##0311
##0401
##ndec
##0318
##taen
##utok
##0212
##차이트
##FCh
##교회의
00015
##레이르
##달리스
##지하이
##종교통
##카이르
##KBS
20022
0324
3501
##기본
2188
2503
3102
2248
3038
0104
##시작
이사회장
4048
0327
0500
2120
3112
2219
0507
##도입
0320
3116
플레이상
5005
##명령
0038
3022
광주시민
3127
정보기술
시민주의
0199
0020
##거의
2297
Arad
국회사무
경기도시
Arat
0223
전자연구
##緻
##擁
##춥
##钢
##읖
##梢
##壩
##蠍
##ێ
##焄
##憘
##濮
##寐
운동시
##摸
##夾
##皞
##临
##ይ
##雛
##牘
##璆
##恃
##脑
##饼
바이론
##担
##և
##Ө
##驢
##隗
##摂
##솅
##銜
##菡
##ծ
##襟
대사회
##鏑
##咫
##é
##冏
##뗀
##」
##雯
##釵
##亢
##歹
국회사
##惶
##议
##謇
##쁩
자리아
대전문
##豉
##穉
IIn
##拐
##禿
##搬
##Ｖ
##ළ
##ං
##陷
##廚
##裸
##瑈
##Й
##擴
##ຸ
##ຍ
##曷
##읒
##困
##啟
##穩
##玧
##扬
##꺄
##甑
##录
##啜
##磬
##歇
거나이
##佈
##们
##ཕ
##ማ
##踶
##ੰ
##ੁ
##凸
##筬
##ግ
##愊
##隧
##셧
##ฤ
##晛
##两
##頑
남부산
##朵
##陌
##仑
##栅
##搢
##晊
##ˊ
##쑨
공동안
##榥
##墾
##苴
##፡
##錕
##ነ
##ህ
##鵄
##潝
##擢
##眷
##炡
##玗
##荀
##掠
##埏
##佇
##沓
##截
##邃
##忻
##숱
##吞
##质
##菖
##逖
##홧
마이러
##鬥
##爻
##蕾
##遶
##馱
##鐔
##犢
##潾
##枯
##閘
##麯
##慌
##륍
박사랑
##妈
##雩
##뻗
##漿
##监
##ҥ
##抃
##摹
##飄
##隋
##彎
##蘿
##怛
##妥
##灶
##刘
##炬
##譓
##妒
불리아
##컁
##혠
세계약
繩
杻
購
ⅳ
淋
书
吠
渓
⑭
繭
죗
禄
嘯
誥
芋
밞
뭣
땟
쪘
姙
哪
遡
į
樵
ｇ
刷
،
蠣
祔
¾
≧
机
患
慘
閥
槇
姨
飄
즛
莽
ᠰ
析
獬
紇
渟
隷
ʂ
촤
販
毫
Ã
黙
Ｊ
阻
淇
憬
靭
샾
紘
嬉
頑
劃
碇
掖
閱
禳
蒔
რ
壻
ａ
酷
虐
迭
樑
ป
Ե
ศ
ფ
ძ
简
ध
琥
煥
퐈
歃
闡
샙
枋
皂
ⅹ
滴
柞
紬
驕
颱
刪
긑
剖
砕
險
狎
喰
鴆
₄
弋
脾
恂
謫
憘
ต
樽
剎
蒿
虢
ኤ
猴
偈
碗
砖
运
龚
辉
剑
酋
污
瓔
俘
瞢
囧
##understo
##erstor
##agerst
##uelles
##redent
##geston
##ivell
##ietor
##otour
0000005
##22306
##ineto
##1503
##atht
##4023
##3003
##1195
##0301
##esth
##카이스포
##브라이르
##4013
##대학교수
##0114
##1240
##atok
##0408
##부대학
##시아니
##나이나
10500
Stole
##이나가
데이사이트
##남도시
##제국민
00009
##비아르
12150
##인정보
##비스포
##주의하
##불리아
하이스페
2508
3019
3219
대전국립
2403
2126
지지방식
3013
3048
국제도로
5030
3121
##데뷔
0207
3506
3130
5048
2127
2329
공항공사
##계속
Stov
3108
0404
##최대
5017
0115
제국민
##崧
역대하
##튈
##탼
##萼
##眩
##蚣
##瞰
##ฆ
##簒
##玏
##稶
##롸
##－
##ণ
##璝
##肱
##儷
##펐
##쳰
프리카
##홰
##죵
##欖
##逌
##騭
므로서
##茗
##ൂ
##揷
##ষ
##ヱ
##堕
##癖
##袴
##旛
##苅
##捲
##篁
##쉿
##ぉ
##塁
##啄
##飢
##퇼
##慨
##๊
당시대
##矮
##它
##佃
##닳
##ှ
##漹
##[
##챕
##േ
##餌
##玠
우리아
##읕
##អ
##臻
이나이
##ು
##伶
##洱
##昼
바이유
##წ
##蟠
##绿
##”
##꼍
##瑕
##ཉ
##衿
##晝
##ਜ
##蠱
##寀
##恁
##僿
##髥
##ຄ
##ໍ
##ື
제공사
##ැ
##塤
##ܲ
##埃
##័
##㬇
##ᠪ
##蒔
##ྤ
##ረ
##臭
##紺
##硅
##嗚
##匙
##麚
##訔
##鵠
##罐
##뉵
##詁
##묾
##偕
##絪
##洁
##凞
##溍
##怀
##靺
##ద
##额
##쒀
특수도
##佚
##宦
##娣
##哇
##繆
##軀
##妍
##疽
##–
##澧
##组
##曳
##韩
##貓
##敾
##径
##梦
##య
##​
##霙
##围
아이후
##诚
##갹
##滌
##Հ
##釘
##삶
##犧
##匝
##솬
##숌
##嘛
##砐
##袒
##뚬
##칡
##锡
##ᠢ
##栏
##졋
##垌
##逼
##諂
##囧
##稧
붸
霹
ｖ
皖
襟
滬
翌
捺
맻
퇼
ẽ
ㆄ
騷
퀌
戾
繆
甥
扼
앏
Ἔ
Ἄ
〒
ĳ
暉
辣
鬚
閒
慾
謄
氵
亻
个
畓
麋
ģ
孚
牢
Ｙ
訃
ভ
ܒ
氾
醋
곯
鶏
繰
蜘
奬
偕
㎿
쳥
爽
吃
袴
㎘
အ
ව
爬
袋
鵬
徙
堕
謠
蹇
ゝ
瀟
銚
鰍
캰
穗
桀
โ
枢
ｘ
貓
杯
＄
碾
筵
禔
볘
緝
ক
겄
靳
咬
橡
Ђ
Ŭ
Ê
腫
捉
蔽
馨
ǰ
巩
闞
ސ
뽁
ㆅ
乡
帕
탸
Ư
挹
ག
媽
誡
蕪
큇
蹋
剃
歎
潙
佔
鞫
⁢
閘
剡
膣
冰
붑
俯
蝟
湫
顾
腾
鬥
誉
娄
贛
ϕ
絕
諒
牂
膽
隘
婬
覓
佗
韦
沱
舵
皋
滩
鸣
户
泾
峪
纪
闸
时
闫
庐

Ǧ
纔
㸂

0200000000
##inemathe
##perstor
20150505
##210301
##andent
20050107
20131130
##estab
##raton
##amath
##radet
##0001
##0188
##itof
##기독교회
##그리스트
000007
##2007
##3008
000006
##4001
##aers
##0218
##0304
##taet
200503
##로마을
##시대상
19000
##나이지
00018
##이스페
##아이사
##자리스
##정보호
##부대로
##우주의
##여자신
00005
00032
##데이루
##도시장
##Ara
##북도서
3035
##내용
3016
마이스타
4013
3203
0407
2406
2306
##변경
2328
##원래
0138
2196
5011
2323
2148
##예정
2194
0501
##함께
3214
3210
0112
3120
##열린
0203
0206
2236
##鑰
##併
정도로
##疲
##汕
데이루
##棗
##码
##＊
##鋭
##鵲
##檬
##频
##躁
##戾
##肆
##隕
광주의
##閎
##侈
##껀
##晤
##栓
##艱
##尒
##跪
##蕪
##瞼
##췰
이전기
##飽
##ջ
##褘
##燿
##淩
##渴
마이지
##瀰
##媧
##胃
##愔
##拼
##验
운영국
##冉
##祢
##Ό
##ం
##మ
##క
##ల
##諄
##ঙ
##쏜
##壌
##孃
##瀧
##俑
##瓛
##í
##阻
##잿
세계열
##荃
역사실
##륑
##ထ
##뜀
##靡
##龐
##蛟
미국립
##氓
##娠
##斛
##鄧
##备
##ჭ
##觴
##囂
##壱
##歓
##嫡
##ી
##熲
##熤
##惹
조정규
##ฒ
##硝
##癒
##枠
##糕
##咒
##嚳
##脹
##ග
##Ј
##ܕ
##ޔ
##肜
##喫
##ধ
##濊
##璵
##曘
##块
##积
##垦
##똔
##懇
##ó
##嬀
##裴
##俁
##竑
##昺
상대전
##俅
##竪
##榔
##棐
##触
##砭
##櫛
##筏
##闥
##絆
##箔
##鋌
##册
##鍈
##随
##鉅
##苓
##웟
##琿
제작업
##燻
##欌
##摧
##擘
##僐
##炙
##惕
소속도
##茨
##몌
##騏
##屿
##ჯ
##糊
##隙
##现
##泫
##隻
##캰
##茸
##拭
##乖
##ἴ
지나이
##逮
전기타
##逕
##猜
##呉
거나라
##穫
##瑅
##说
##婷
##钦
##빕
##큥
##Ἄ
##岘
##刚
##盂
##矶
##舖
##諿
현대구
##倆
截
쇨
笞
鯖
瑅
鏑
〓
흭
懋
爺
漱
⊕
ď
ぉ
掩
㎟
牒
Ÿ
‑
謨
邀
㏈
梦
웟
뤠
璜
曜
Ș
醬
妨
դ
հ
կ
լ
嗜
肃
潰
ۋ
ſ
圧
萧
푤
ĕ
菟
麁
贄
恣
ტ
惻
আ
瑢
翎
屹
蛮
穉
Ĵ
ὅ
ɫ
疲
苛
幣
엶
薑
肢
乫
脅
Һ
鐸
ғ
㎚
顆
争
砧
̌
엊
炬
侑
酬
ᅟ
隈
妊
쿽
贝
♬
宕
邳
恢
ｏ
丼
녠
喩
釀
諮
塹
̈
爰
儆
鴌
բ
羋
毀
股
摯
棕
劾
炳
ශ
ල
喻
फ
ए
쳰
ˇ
ম
゜
ᠮ
岫
ċ
쳅
མ
瘦
믕
‛
珝
昱
灝
Ź
ẵ
苒
眭
沅
宥
憨
聳
璥
ㅹ
밪
痘
埃
┬
㉲
粧
鉱
钓
檻
₆
偦
꺅
徑
썻
狸
ة
鋤

ὤ
澡
ȟ
菖
历
习
咎
茫
窝
奋
晓
篾
簇
围
掠
Õ

왑
뉙


倨
⟨
⟩


츕
##ivestoc
20101106
##otoche
20150402
##사이사이상
##andec
##iedem
##uerst
##echen
##기독교통일
##tolen
##라이나이트
##uesto
##edele
##iedet
##uetor
2003297
##2197
##2005
##Ston
##3203
##ivem
##2006
##ctot
##3005
##stol
000204
000005
##uech
000027
##tode
##1984
##3009
##5016
##utou
##0219
210000
##0225
##정보여자
##0211
##바이유
##국제공
##카이어
##하이동
##정도시
##종교장
##독일어
##하이스
##리그리
##챔피언
##조사고
10227
##야마지
##자연대
10001
Sthen
10035
10307
##자기념
##보기획
##통일부
5025
3140
0406
2506
3117
0319
3020
2305
3025
0189
3024
메이지도
0019
3124
5019
2136
2320
##소련
3014
2317
2116
대전국제
0309
3226
2324
2209
0130
0401
2187
0136
환경영향
Aror
3230
3208
2232
2206
0216
3195
##徨
##鞫
##麺
##샙
나이어
타이루
##ֱ
##澥
##澐
##褧
##튄
##种
##껭
##빚
##磵
##穿
군사이
이전투
##侖
##ᠯ
##픕
##荫
##憫
##鞏
##嗜
##駁
##蟄
##鉞
성공격
##艸
##鵡
마이동
##餮
##္
지구간
##頫
##솨
##醯
##渶
##醋
##휜
##捄
##뭍
##ჩ
국가장
##脊
##葳
##殆
##న
현대부
##চ
##渟
완전자
마다이
##饉
##篈
##鵑
##Έ
##剩
##昪
##詐
##蠡
##檃
##齢
배우리
##蛍
##烙
##ແ
##紂
##兇
##ཧ
##僻
##瓌
##赳
##諷
##驕
##ཙ
##蔿
##罔
##풂
##鵝
##遗
시스트
##鍠
##匿
##对
##矴
##橚
##鏐
##ગ
##嘏
##刪
##践
##楺
##梡
##拡
##酋
##晫
##蕓
##爷
##뒴
##—
나이르
##褐
##塀
##蛉
##ໃ
##װ
##ሪ
##आ
##괸
##肚
##ܚ
##ސ
##읃
##耿
##薆
##놘
##辖
##㫥
##检
##鉀
##买
##ᠤ
##ᠲ
##Щ
##嶲
##拖
차이르
##쯩
##Ψ
##鍼
##碏
##潚
##쪄
##貼
##걷
##窖
##焜
##塹
##젹
##蒜
##肹
안전기
##褶
##耈
##袈
##嫂
##愃
##蓂
##볓
##㙉
##겉
##淋
##潰
##綃
##渻
##侹
##屎
##楣
##잊
##啡
##鸿
##辽
##碕
##廐
##鈿
##賡
##顆
##瑺
##顙
##伉
나이사
##璩
##厩
##쥠
##绒
##杼
##牽
##蒂
##裀
##ಿ
전자리
##ҭ
##楸
##곗
##榕
##樗
##霏
##払
##毀
##隘
##鉗
##捉
##从
##駰
##员
##禶
##弖
##岫
데이어
##瞿
##녑
기자연
##鎧
##崛
##쿌
##뼛
##삘
##迥
##昍
##葺
##铜
##ㅇ
##岚
##劳
아이루
##轮
##须
하이미
##举
##륫
##씹
나가리
##篾
##뭔
##ሂ
##맄
却
飫
槃
캤
゛
檸
糟
ข
屢
誨
盞
羨
讒
씐
硼
豬
薇
馴
歙
锅
ở
ക
സ
竊
뀐
儁
Ѓ
뎨
蝸
앝
鸞
嗅
柒
Դ
泠
瓛
詰
疋
穡
裾
吊
鸚
湍
汜
슥
嘗
璃
軫
倩
￡
⊃
淘
姶
掾
砦
軻
쩜
釈
쓱
뽄
厨
枾
쟐
쨰
侮
碣
♩
厂
ʹ
菲
佰
ｕ
咆
峙
ỏ
夔
긺
腔
簾
饅
媚
渲
苟
没
攸
उ
컁
㎐
འ
Ἠ
繞
勁
諜
ҷ
蔑
ჩ
萇
迴
ජ
ல
இ
藕
₈
斂
璋
輜
ᇃ
橐
র
ʑ
奨
种
놘
｡
徭
◉
湄
ɲ
麹
儼
렷
俞
麝
ﺍ
깟
큽
巘
詢
뜷
娜
蕨
渝
⑷
餞
淩
騈
晚
賁
细
璆
琰
樗
嶠
邁
ர
氈
茸
Ĳ
븨
应
ḫ
⊿
袍
ლ
矗
枳
穹
Ť
为
酢
盾
拡
ܡ
擺
黛
覃
죔
̥

巷
邹
潢
ผ
Ď
琢
က
燧
劲
犍
檮
珖
⁻
匿
ṯ
膨
鍍
扃
倣
凜
蔿
藺
鵼
琛
彝
图
骑
鹹
켸
衤
摆
洒
码
滦
尔
远
藉
驿
积
觉
坛
启
跃
崛
沧
属
륫
颍
瑭
굘
ˤ
忄

Ě
鷰
∆
裀
ላ
愔


##odeler
##arther
20131207
20100317
##echter
##iecher
20130405
##tather
20131025
##ightos
20131212
20121109
20050325
20050311
20050218
20050114
0000007
##21991
##cento
##estop
##entou
##iatom
##undec
##toder
##2116
##항공사업
##경상대학
##0006
##2216
##2048
##2207
신라고등학교
##2507
200306
000001
Indent
##3016
##2504
000014
##0101
##2105
##5028
##2001
##3225
##3250
##3129
##2108
103197
##utov
##ivec
Unders
201403
001901
##5007
201003
201103
00026
##인기업
##카이유
##선수행
##화국제
##라스페
##uew
##다고리
##나라마
##역사이
##정부터
##주도로
10400
##하이나
##마이사
12500
남부대학교
##시스포
##의사회
10050
##지나가
##전자리
군사회의
결승리그
3113
0314
0317
3018
2408
##연속
나라이름
0210
현대사회
뉴스페인
##가능
3105
3215
2198
0402
0031
3104
0029
2402
3119
4006
중국민주
5020
Aray
3110
0193
2121
0218
4005
4009
3297
0226
0405
3126
자연대학
3217
2197
0028
다이나이
2193
0127
##붸
##扱
##綫
##簇
##嶢
##琲
##摺
##玢
##咤
##쾀
##戮
##曮
##嚼
##ῳ
##嶝
##肃
##樾
##盐
##岌
##떵
##삥
##饅
##痺
##끊
##挑
##攬
##ᠦ
##ᠷ
##숟
##滾
##짊
##詭
##쩬
##覈
##榘
정부대
##祏
##单
##猊
##쏴
##瀁
##襦
##घ
##୍
##瑳
##擲
##芥
##쟛
##桔
이동시
##喃
연대상
##బ
##뙤
##凹
##暈
##徠
##鈀
##邰
##邽
우주로
##떄
##殃
##楮
##笭
##腎
##馣
##腿
##깥
##①
##凛
##簽
##횐
##噌
##肘
##ങ
##噛
##উ
##喊
고대로
공사상
##@
##宪
##봬
##麼
##褓
##睺
##蝠
##杷
##聴
##蔥
자연속
##繍
##ట
##枾
##倜
##瞞
##鹰
##햘
##췐
##ဆ
##駛
##釴
##戏
##织
대사단
##圜
##檸
##샜
##ਬ
##굳
##苯
##览
##毆
##鉾
##莪
##ዝ
##棩
##ژ
##爰
##樊
##璔
##쪘
##ฑ
##渥
##熽
##ຳ
##ຽ
##纜
##붇
##懶
##鶻
##洮
##讯
##蔣
##昐
##ܟ
##ថ
##旰
##萃
##埗
##Є
##柘
##ሰ
##孙
##逍
##幟
##Ь
##쉭
##ׂ
##潞
##疋
##獎
##ਹ
##썻
##髏
##Ս
##泟
##諏
##俌
##釀
##咖
##靼
##澱
##沪
구조정
##唾
##혓
##氈
##쭌
##帑
##緘
##圉
##垍
##逅
##鏶
##朕
가리아
인도로
##饭
##烜
##胝
##諟
##ཏ
##诗
신라이
##ੋ
##闓
##选
##届
##耋
##믕
##祧
##显
##苧
##沾
##冴
##赐
##撝
##횟
##鴛
##ન
##મ
##ച
##焔
##켁
##溏
##遾
##濛
##贺
##圪
##碾
##腊
##驼
##ㅔ
##许
##跃
##釧
##輾
##蓀
##渝
##뵬
##튕
붜
퉤
黥
蚕
践
喚
央
燎
聶
償
㏄
殮
捻
膺
쒸
苓
槽
謳
ฆ
ล
嚮
肆
躁
薯
짹
盃
গ
쬘
튬
騶
궃
쨔
⁴
簒
麵
养
ض
ہ
녬
虻
Կ
Ţ
旁
垠
朧
껭
暻
箇
ϝ
ķ
欌
摸
蔥
Ք
ո
樫
虜
转
凄
舅
詭
ธ
狻
雕
猟
肌
乂
鏞
畸
ⓟ
丶
ﾚ
丿
朮
谿
篁
읺
枸
輩
蛋
틍
ད
桧
跪
戟
鉦
姐
┌
ซ
큅
藿
盱
吻
跨
调
錠
絡
প
셱
酵
Ἕ
甦
ὄ
ㅺ
赞
峠
欢
뉸
寃
廚
玳
茹
战
挫
隗
语
슙
療
贅
润
쇽
创
碌
戍
瑀
ἑ
龠
Ū
窟
緻
餅
哺
勺
є
შ
鸕
ສ
ແ
袞
쭝
啟
ஸ
መ
郿
ހ
뎐
梣
ㄓ
곬
옝
볠
緜
Ӏ
冗
죈
甸
皓
쒀
ባ
鷗
蛾
霸
唆
닯
隻
랸
끎
芍
稿
梳
瀚
郯
堵
錐
璵
韃
暇
პ
枡
湣
嵌
ⓓ
酪
況
诺
撑
榕
绵
㈔
髓
廓
鰐
缸
鋪
别
냑
湜
ภ
앴
蓉
拈
粕
⁺
鴟
卄
မ
涯
裎
劳
笵
Ǔ
뿍
ί
냘
ˊ
统
洼
搭
銍
ʝ
薮
ℝ
竈
兔
絪
则
务
腊
剥
吝
壶
铺
驼
砚
过
尕
错
溧
暨
罐
罽
漿
婺
偵
鉉
嬖
슉
Ò
鑿


羣
魴
迊


00000000000000000000000
##istoche
##erster
11001001
00000001
##iechen
20050204
20100507
20100226
##tother
##iather
10000000
20040227
20140502
20050408
20050401
20050318
20050304
20050225
20121130
20121026
20131120
20050121
##aeche
##ielen
##irole
##rathe
##ardem
##utour
##iaton
##atoch
##estae
##cetow
##artom
##delen
##00329
##reden
##10303
##redes
##aetoc
##relen
2013011
##1312
000025
##2124
100101
000197
000194
##프리스트
##0008
##2104
##1238
000004
##1507
##itoc
##0016
##운동시민
##시아버지
##2309
##1304
##3125
##다이스트
##시대학교
##작전기념
##5036
##ctog
##htow
##1401
##stod
200403
201203
200308
##인민족
##마이루
11040
##하이사
00029
대한민국내
##Ale
##사이나
##각주의
12207
##아이나
##아이유
##hto
##SBS
##성우리
##정보통
##사회의
00028
##히로마
##비스터
##비아이
##Ind
20186
##문자연
##주도시
##대사랑
22101
##대전쟁
##경기타
##사이르
##민국민
##자연구
다이나이트
2321
2502
광주민주
0312
0315
5028
4007
##발표
0302
2315
2309
##속하
3135
3122
0217
##매우
2138
하이사이
4030
4002
4027
0230
5022
스타이어
0135
2318
3504
3223
##성격
0240
##새로
3218
##독교
국제도서
ders
5040
2216
3196
4097
0326
0118
##琄
##謗
##솃
##叅
##粕
##縝
##閨
##韙
##鞘
##짹
##宽
##撓
##掩
##皥
정보기
##薯
##윷
라이사
##ὔ
##综
##晞
##墡
##苟
##햔
##肋
##痲
##먕
군사용
##揺
##ർ
##訛
##碟
##褥
##츌
##쇽
##朽
##ը
##븨
##瑃
##翽
##檗
##栞
##孽
##吊
##侁
##揃
##遹
##縷
##겻
##ই
##綵
##錠
##綎
##揖
##磊
##譞
##弉
##肄
##奶
##爸
##狷
교회의
##鴎
##鞴
##禋
##彗
##跛
이사실
##豁
##뵌
##蚩
##থ
##麴
##蘂
##嶪
##轂
##舰
##渷
##翦
##忉
##அ
##鋏
##삑
##褆
##鵰
##읓
##浙
##鯉
##ː
현대한
##ஸ
##桿
##樁
##豸
##ೆ
##ಗ
##灑
##옉
##옝
##闐
성우리
##秧
##៉
##첬
##玫
##拿
##蛭
##论
##芭
##忙
##崐
##縯
시민주
##ں
##柩
##ཅ
##跬
##જ
##గ
##篌
##仟
##饑
회사이
##Վ
##ៀ
##鋹
##倖
##据
##롓
##蓁
##斫
##ܥ
##ණ
##灐
##稛
##煨
##መ
##ܿ
##ށ
##ޑ
##蔬
##络
##问
##养
##魴
##ើ
##舫
##檔
##旴
##磡
##慇
##‏
##ə
##垒
##ཛ
##蠹
##铃
##抚
##很
##找
##緬
##እ
##።
##ګ
베이전
##켸
##չ
##躋
불교회
##荅
다이론
##춉
##섦
##冤
##呆
##歙
##洩
##晖
##襪
##楔
##枷
##粗
##煇
##虢
##陜
##拈
##橈
##杙
##价
##綧
##粥
##컸
##逗
##薺
##雫
차이어
##鋸
##玎
##購
##脯
##坟
##ޫ
##弔
##馪
##膨
##变
##疱
개발전
##墺
##ā
##佖
##怕
##听
##嬬
##裎
##蹊
##鞮
##鎚
타이유
##曁
##廿
##导
##Ἡ
##寥
전기관
의회장
전자체
##赞
##毋
##癲
나이때
##贞
##优
##继
##禩
##禟
##禵
##标
##袂
##裘
##ᑦ
##珅
##큄
##ሳ
##稍
##烧
##ᐨ
##頒
##坮
##삔
##酊
##ቢ
##ሕ
연구역
##웤
##卬
##㝡
##眄
##唜
##鵷
##乍
##鳧
##濞
##謩
##Ἐ
##险
##矜
##趕
##雾
##帮
##亩
##洒
##戛
##硐
##緋
##巍
##ཟ
##仄
##凜
##跆
##埝
##沥
##岙
##砌
##霌
##圆
##垱
##鼐
##篋
##쿙
교수상
##戇
##ㄥ
##鵜
##俵
##జ
##ֿ
의사실
##劦
##憒
##训
프로서
##缾
이전자
##扼
縦
蝴
뉵
戮
滁
槙
徴
콱
箔
誼
ּ
珈
壅
爻
ച
뒈
暲
衞
笮
聃
瞼
Ý
駝
Գ
㏃
츈
漬
Տ
ὑ
ﻴ
뺌
왱
鑪
熒
Ϝ
¸
Բ
տ
俟
懼
洌
恤
麺
̣
栱
辱
쟉
结
鼂
ｶ
ゞ
ﾅ
丨
ﾉ
綽
Ấ
粥
轎
দ
ⓝ
縫
璧
昊
籤
泄
ἰ
밎
幞
┴
揮
炙
褐
棍
횐
棣
崆
荃
떄
ᅠ
掟
嵆
ㅼ
労
錘
噶
爨
쳬
鄰
വ
錚
衢
咏
詣
喊
甬
羹
퇸
ｈ
Ｈ
歧
샜
鏻
Ғ
Ұ
捏
홅
慵
ґ
姒
箸
銑
Џ
ң
ზ
ვ
솨
閬
赣
ක
எ
ʕ
岊
ނ
蔬
ɟ
Ħ
説
Ő
暊
蛹
ㄧ
葭
ნ
饑
ᠪ
ᠵ
邛
ར
项
瀘
ẫ
瘡
ỉ
እ
የ
በ
┻
緈
愃
粛
殆
듁
₁
瓷
壙
⌈
奲
崧
触
鄙
址
怛
맣
槨
紆
⑸
橄
冢
顒
↙
髑
插
栽
喫
輦
褆
曝
踐
茗
♨
ㅥ
秣
悰
햋
စ
舉
鈔
蟬
ख
鸿
왹
芈
珉
侹
걲
从
瓮
暠
챱
ɜ
猥
沫
犁
鋒

钢
韭
靠
Ľ
펏
甌
师
芷
仪
锁
逊
枧
钦
淖
籒
淹
闵
鲍
丝
呷
栩
网
珞
鄉
귐
偷
눝
Ì
薺
璔
玒
璭
璖
軀
Ǎ
Ǐ
Ǒ
ǧ
舖
韞
៛
㥞
Ǩ
琇
㶨
⌜
⌟
003001010000000000
1000000000000
##agerstow
##edentor
##atother
100000000
##0500016
130000000
##리아이탈리아
##raders
20050324
20140109
20131228
20101012
20131218
##erstof
20110307
20100106
##인민공화국제
00000006
20100324
##istoch
##isthen
20101217
20101206
01001011
20131128
20110126
20031023
20121217
20050221
20040126
20130214
00301200
20130206
20131206
20131030
20110114
20050110
20050506
20110506
20110408
20110401
20110325
20110318
20110225
20110218
20110211
20110128
20121228
20121221
20121214
20121207
20121123
20121102
20121012
20121005
20120504
20120406
20120323
20120309
20120302
20120217
20120203
20120127
20120113
20120106
20130329
20130322
20130215
20130201
20130125
20130118
20130104
20130506
20050509
20050128
20121212
##chtol
##ratot
##stole
##32017
##cetos
##24018
##40000
##00005
##imath
##artow
##uedes
2003110
##atous
##aeles
##odele
##서울특별시
##ratol
##otole
2013022
2003122
##2405
##1048
##2128
##0003
##3127
##2135
##3224
##2109
##agep
##utod
##2304
##1995
##1232
##전자기술
##ndet
##3019
##3209
200206
##민주인민
##교회사회
##2408
##2107
##otof
##1236
##3128
##3104
##4048
##4038
##1136
##3032
##2103
##3228
##인기독교
199507
##4022
##3135
##라이사이
##tous
200307
##4027
##2509
##utow
##3206
200104
##지역대학
##stot
##0024
##stov
199509
##2129
##stog
##2029
##4017
##2217
전라고등학교
##1994
240210
212301
202206
##이나이나
##여자유
##야기타
31107
##조사실
00008
##나이론
##메이사
##불리스
50001
indet
##공연합
andes
##안전자
10300
##사고려
##도시스
##연기자
##바이지
##주의사
##나다이
10023
20012
##타이나
00007
##애니메
##역대표
##리그룹
11013
##발전기
##라이사
##마다가
22128
##야마이
##주의회
21020
베이나이트
4032
3502
5016
3509
2405
3115
0311
3032
3026
0328
2204
0235
3123
0408
3188
2195
##결승
2119
0119
2301
0297
3248
5024
5026
Stod
##위한
2302
2303
3023
3505
4028
0120
2208
3212
##분야
0503
4016
5006
0214
3187
##관련
위원회의
0321
##학급
toch
0121
국가지도
2214
민주인민
##鏜
##廙
##蜃
##睛
##聾
##銈
최고대
##轎
세기간
시작품
##햑
##蜈
##粤
##懈
##滚
##薨
##乔
##Ὠ
##卻
##瀏
##ዓ
##邀
##酱
##龄
##驾
##瘤
##츼
##ክ
##ൻ
##륏
대학급
##돠
##仞
##○
##鑫
##莢
##揀
##喙
##鋈
##ା
##忞
##ヽ
##尭
##衾
##狛
##咋
##뺄
##堊
##찝
##踞
##찧
##욺
##琜
##釆
##ފ
##渋
##奨
##ӯ
##胱
##頹
##吠
의사상
##剿
##ੱ
##瑯
##쨍
##冽
##嶙
##烓
##鯱
##蜘
##罵
##Լ
##淥
공개시
##笈
##寰
대전국
##瓢
##梟
##椰
##ദ
##ښ
지도로
##獐
##闔
##쇨
##緊
##彅
##嫩
위하이
##욀
##벱
##匈
##穣
##儞
##囃
##馭
##盼
전문자
##촛
##赉
##炸
##噲
##苛
##쪠
##崁
##퍈
##ኢ
##词
##ㄹ
베이유
##嵓
##奄
##ਮ
##嶔
##頠
##崴
나이론
##愕
##ጋ
##አ
##柟
##싣
##屆
##侅
##暲
##ῷ
##貰
##禺
##ഡ
##挿
##煮
##ຼ
##鑠
##ො
##鉐
##ܣ
##魃
##酪
##擒
##ឹ
##ច
##ធ
광주도
##暘
##ㄣ
##헉
##敘
##葭
##昴
##籃
##ӄ
이르크
##ዊ
##ድ
##ዋ
##ዳ
##臾
여성공
##괌
##셕
##徊
##倪
##淐
##邙
##岷
##焯
##ਨ
##ੇ
##檄
##튁
##졀
##䎘
##彘
##鹹
##柚
##蝉
##냣
전기업
##兗
##熜
##譏
##㦳
##賭
##撞
##黛
##謾
##栩
##堞
##槩
##磌
##ൊ
##玶
##욥
##輻
##陝
##鑾
##儇
##㻋
##寗
##迺
##歧
##势
##责
##잍
##阶
##嵬
##绍
##锁
##霔
##鑼
##湑
##−
##ഷ
##흄
##愭
##榟
##遘
##듄
##鏽
전자유
##帅
##麁
##떽
##讜
##樋
##颯
##儚
##犹
##珤
##啼
##擺
##瓏
##죳
##习
##酢
##菑
##枳
##珑
##ો
정부산
##蹤
##銷
상대부
##訃
##埁
##檐
##淃
##藕
##偷
##촹
여자리
##湿
##跌
##섣
안전자
##웸
##页
##澁
##谢
##詗
##濈
##饁
##湣
##璂
##愨
##鑿
##鰐
##枢
##祹
##衎
##滓
##滔
##愴
##瘋
##ڠ
국가수
##縠
##됐
##દ
##ે
##頴
현대회
##暨
##终
##뼜
##鍔
##裙
다이미
##룁
##Ή
##阔
##硕
##菇
##鬃
##靷
##鸟
##鹏
##纯
##珲
##烷
##宬
##憚
##坫
인구조
##阡
##练
##帕
##澜
##蚌
##畛
##挥
##怗
##몀
##枣
##埭
##荡
##嶴
##榨
##皂
##抛
##层
다이르
##鯤
전국민
##곈
##瑒
##鳶
##茫
##绸
사이사
##∙
환경기
조선정
남자기
##珇
##{
##묑
##ㄧ
##త
##檥
##类
##뚧
##竈
##Կ
##ಜ
##蛆
##ಲ
하이러
대구조
##쫒
##㝹
##椗
##
貼
宫
彷
弛
憫
മ
盪
翳
冤
苺
쏱
ᆝ
ᆢ
앟
눠
炫
〝
묫
땠
筽
权
珦
做
郕
Ğ
Ġ
蜻
Վ
Օ
褥
藜
Ķ
糊
弊
ս
Լ
꽐
Į
̂
̆
ᆫ
棧
挂
ड
늉
厖
墾
煕
澹
圆
艸
ﾊ
儿
聟
ŷ
̄
獎
捲
拯
ʋ
翅
椰
拭
鹵
膵
琶
膿
Ӧ
툿
လ
匏
嘔
켬
鮭
⑮
嫦
殭
ῥ
큭
乍
埤
荳
鄔
甯
鯱
飴
枇
ㅳ
ㅵ
啄
혔
갗
酔
泪
匙
妈
泓
獏
娶
껶
苹
兇
倖
엹
瞑
茎
Ң
镜
楗
悩
갼
慮
幺
沉
ћ
挨
唾
Ћ
ㆎ
ປ
悶
ລ
ພ
裟
ܩ
倧
ඔ
உ
ደ
њ
ⓛ
ܗ
ތ
玻
跑
য
让
蠡
뷁
漑
옰
哇
怕
뱟
朵
͈
ਪ
祘
鵄
ᡩ
궨
ხ
წ
伋
猇
珘
ˑ
胄
尭
Ę
簞
羚
㉢
鼇
隕
乽
陌
找
闪
径
冪
计
晒
姥
煽
刎
셤
褈
噛
輒
Ṣ
黽
쉭
鞋
┘
絨
廩
옜
Ù
｛
⊥
㎈
↖
├
ⓔ
ㆊ
ㆋ
獠
动
籟
贯
쥿
諶
焔
ƿ
躬
栲
ἱ
솬
瀝
騙
Ἴ
鮒
冼
腱
灞
Ă
ฉ
쾡
‖
頞
儋
륑
̞
চ
澈
册
鄢
驍
齧
ኣ
樸
萃
쀼
츰
̩
ᄙ
봬
ḳ
梭
洽
狒
厠
遏
椧
獺
阔
醱
ﾄ
潚
磚
褙
款
硖
陂
歇
补
碱
稍
侨
寻
帮
绒
栖
颜
闻
练
鳌
邻
实
쩰
筠
攪
丛
俵
离
荼
鄄
渣
琪
灤
ˋ



辜
珆
չ
剔
这
Ṽ
Ȟ
Ň
嗢

❍
얾
蚖
졜





‭
100000000000000000000
10000000000000000
##understor
##ratofor
##istoles
##1402209
##istocom
##estodel
##otother
##aetoder
##iatour
20101130
20120405
##iderst
20100105
20150204
##rather
20140129
20120508
20100216
20120125
##atodes
20101208
20130226
20101026
20140203
20140304
20110324
20120118
20130204
20120105
20130408
20031226
##atotom
20150127
20150209
20120117
##inetop
20140116
20120207
20120223
20121204
##ototod
20121128
20130219
20140320
20140313
20140207
20140114
20131224
20130305
20131002
20120131
20131004
20110316
20121126
20100308
20120104
20101224
20101210
20101126
20101029
20101022
20101008
20100409
20100402
20100312
20100219
20100205
20100115
20100108
20110304
20121019
20120316
20120224
20120120
20130503
20130315
20130308
20130301
20120103
20050504
20050503
20050502
20050406
20050404
20050329
20050328
20050323
20050322
20050321
20050317
20050316
20050315
20050314
20050310
20050309
20050308
20050307
20050302
20050228
20050224
20050223
20050217
20050216
20050215
20050214
20050211
20050203
20050127
20050126
20050125
20050124
20050120
20050119
20050118
20050117
20050112
20050106
20050105
20050104
20050103
20101231
20031219
20031205
20031121
20031107
20040507
20040402
20040319
20040305
20040213
20040206
20040130
20040116
20040109
20101230
20101216
20101209
20101202
20101104
20101028
20101021
20101014
20110107
20120210
20131227
20131220
20131129
20131108
20131101
20101122
20110302
20121213
20121129
20121122
20121024
20131226
20131211
20131127
20131121
20131107
20131106
20131031
20131024
20131023
20130509
20130508
20130501
20130404
20130403
20130328
20130327
20130321
20130320
20130314
20130307
20130228
20130227
20130221
20130213
20130131
20130124
20130123
20130117
20130116
20130110
20130109
20130103
20130102
20130220
0000006
##artov
##ueder
##ueton
##tocom
##ndele
##ieles
##ithen
##entom
##32007
##estap
0000014
##taden
##entop
##tarde
##지역대학생
##hthen
##03223
##idech
##talle
##ueper
##rethe
##itour
##gelen
##cetop
##iveto
##otoch
##tothe
2005022
2005011
##3118
##3106
##2506
##0002
##0004
##1200
##이나이트
##0017
##행위원회
##2206
000011
##1506
##2028
000009
##이드라마
500000
##3204
##0048
##0029
000208
250000
##항공연구
##4012
##3119
##4014
##5030
##0026
##프리아니
##0023
200106
##aeto
##1305
##3218
##0027
##2136
##2036
000010
##htor
000028
200208
##등학교장
##4015
##3205
##1904
##2021
##2106
Andech
##2035
##5010
000238
000207
##0025
000024
##2308
##0036
200105
##육군대학
##0030
##문학교육
150136
##3022
##2409
##3131
199505
##그리그
##나이르
##공사업
10003
00011
10011
21027
10030
##부대사
02214
##하이지
##역시장
##다이르
##마이유
00019
이탈리아니
##시대학
##연방법
##불교통
##보이어
##카이사
00014
##여자기
##메이루
##남도로
01324
##니아르
12232
##베이나
##데이사
##한국민
derst
##제작사
10004
##프로마
20001
##지방식
##구조선
##나이사
##시대사
23127
20013
11011
23015
##데이때
##상대부
##인도서
##이사고
##중국민
##제도서
사이야기
2505
3036
4025
0129
##참여
4021
ande
3197
5035
##또는
4020
3189
3136
4031
0030
##바깥
##으나
4019
5008
Stof
0509
0132
4018
반대통령
##만든
0227
0310
2313
4015
##혹은
3224
##이때
4011
0232
3213
5012
3207
0117
보이스트
2213
2319
0188
2407
의사회장
##관한
3132
3240
현대학교
##임명
라이스트
5014
3229
##砣
##줸
##鸭
##鮫
##鏘
우주의
##２
##＋
##椐
대전쟁
##읻
출시작
##ٔ
##悛
##ќ
##뎡
##ժ
##态
##핬
##쭙
##愆
##倦
장관리
##讎
##杂
##婕
##绥
##呀
##闌
##켯
##顫
##䫨
##럇
##罘
##җ
작전기
##ٍ
주장관
##ײ
##戻
##笔
##谈
##豢
##ഹ
##싫
##炆
##겠
영국내
##갼
##ڈ
##货
##恣
##畦
##鐫
##几
##馝
사이유
##匱
작전통
##ဘ
##닢
##츕
회사랑
##巿
##项
##甄
##㶨
##ର
##ﾚ
##咩
군사무
주의사
##쿽
주장치
##ీ
##ീ
##閲
##磼
##硈
##珸
##茱
##젔
##倹
##烝
##墍
##櫟
##悩
##１
##雌
##磷
##鐥
##>
##짰
##噶
##撻
##蟻
##좃
디지나
##臓
##剤
##휙
##ජ
##【
##邂
##媼
사이후
##ຖ
##肠
발전국
##ഗ
##খ
##璲
##샀
##哪
##丐
##艮
##孀
##跑
##豬
##鵾
##艷
##羈
##읔
##駉
##ಳ
##ೂ
##笥
##밎
##ྡ
##鬨
##詧
##氧
##ဗ
##틔
##ဲ
##鞬
##ヰ
##貺
##葆
##耔
사이전
##翌
##蠕
##颺
##锣
##壟
##聳
##駭
##轟
##遭
##쎅
##芩
##휀
##姥
##沄
##ቅ
##棡
##碻
##ಕ
##ਗ
##뵨
##僊
##晬
##ቦ
##ሻ
##ሮ
##㫾
##溱
##悏
##繰
##栒
##磏
##濆
##謫
##읽
연구조
##џ
##ฏ
##꽌
##搭
##螢
##ຜ
##埤
##ë
##ཇ
##ෙ
##ට
##ඩ
##በ
##勻
##笼
##ጣ
##उ
##ܸ
##ܩ
##겿
##ٰ
##쑬
##针
##巩
영국민
##쟐
##迈
##ួ
##ៃ
##ឃ
지지배
친구역
##媖
##姝
##Ә
##瀝
##碱
##ᠬ
##弑
##拶
##挹
##ቶ
##腋
##囯
##ᡤ
##殯
##š
##盪
##賾
##勰
##憺
##姈
##鏗
##銶
##鈐
##蘗
##㴐
##ਵ
##磋
대회사
민주인
공연대
##樘
##杬
##뻴
지나오
##膾
라이후
##甯
##螂
##咥
##夹
##ਣ
##剝
##ӕ
##ਆ
##駱
##碌
##烒
##輗
##橃
##亹
##綻
##瀗
##濾
##浻
##㤿
##惻
##珘
##濰
##珚
##ൈ
##筰
##瑔
##楈
##漵
##単
##偓
##廼
##牖
##颜
##薑
##翳
##츔
##虬
##쩰
##翡
##熈
##凋
##浿
회사상
##ჰ
이사건
도시스
##嬿
##燎
##响
##煊
소비아
##曬
##曝
##癩
##뺏
##廩
##弛
##꿧
##ः
##靄
##ㅋ
##젊
##膀
##隴
##鷦
##鷯
##歟
##婧
##ဟ
##勋
##调
##彜
##坭
##贯
##臙
##繋
##ʹ
##枫
##燼
##穏
##佟
부르트
##સ
##爬
##홑
##构
##깰
브라고
##겝
##셥
##꼐
##猥
##왬
##ဧ
##奖
##Ё
##榦
##愹
##얜
##紆
##橙
##簋
##茵
##姊
##寘
##뽐
##뢨
##鑞
##緡
이상대
##舗
##ҵ
##鑽
##偰
##ᐃ
##ᒃ
##渫
##舺
##碇
##囉
##“
##滘
##鑊
##螟
##ຣ
##ႆ
##韞
##闵
##ڤ
##滂
##庥
##锟
##વ
##玘
##蚡
이사업
##焞
##荳
##袤
##棕
##邛
##瀟
##軼
##瀿
##隄
##ㅗ
##۰
##浤
##伙
##蒿
##归
##补
##赖
##籙
##竱
##悤
##晢
##絮
##珮
##湲
##棖
##汴
##蕊
##劻
##笋
##雒
##塄
##峁
##塌
##扒
##么
##杈
##爚
##呷
##僮
##编
##敌
##塍
##邮
##澕
##苍
##吕
##숖
##鹅
##鸦
##춍
##垄
##俭
##栳
##；
##亲
##믿
##窿
##儋
##鉦
##渺
##畧
##昡
##+
##垅
##貂
##鏃
##崵
##犛
##䴥
##髷
##寏
##縻
##薊
##疄
##ㄚ
주로서
##‭
대부산
##쥣
##귑
##찢
##ં
##㝚
##绝
##Գ
##ᆞ
##瑼
##倎
나가수
##峸
##뎰
##ස
##詻
##嗟
##嗯
##衲
공항공
##艎
##皴
##拕
##眚
##푤
劈
拐
烹
誹
菰
励
쵼
癌
鐡
ฯ
屑
怠
擲
즁
彘
뭴
뙤
僮
畲
‿
柩
寥
歓
禊
蹄
訊
郇
碍
庁
渕
鴎
稹
禕
Ḑ
Ļ
ഡ
쯧
剿
痢
咳
尨
粱
ք
鴫
盎
㎗
鰭
楳
ﻟ
饕
ᄒ
ᇰ
牲
叩
甛
섥
鏤
ṳ
匝
邇
穏
頴
უ
⌀
弑
莖
ɦ
औ
諄
ᄌ
ᄀ
儂
ỷ
喧
뼝
◀
넢
玫
菫
澱
昪
蟄
띔
璘
ਸ
쎌
蕤
嚆
ʀ
죵
һ
န
畂
겼
炅
暘
蹈
咀
췐
裔
唵
斌
瘟
Û
ヾ
ㅽ
ㅾ
ヂ
椋
蔗
ㅲ
ㅴ
畳
顥
ရ
枹
郃
搾
蠕
敕
ẹ
舂
뷀
蜚
碭
擎
ｄ
鋥
죌
ﺣ
ℵ
ሰ
陋
錆
袂
흽
슾
崂
祉
乶
舘
ἕ
굻
冫
卨
毆
Љ
Ղ
겯
桁
梗
妬
頰
賂
粋
癩
Њ
矜
ຊ
ຮ
ຂ
遅
څ
뉼
鄜
蟒
亶
ග
බ
ஒ
ஆ
枉
姮
墉
ܪ
ܥ
贤
侗
顶
俶
ত
শ
Ֆ
គ
ភ
〆
韜
ܢ
暹
ㄅ
죨
놂
ਦ
툐
띰
‍
ᠥ
趺
짇
ታ
炘
ª
轄
茁
릐
艇
ⴰ
ﺩ
萝
鸟
쟘
鐺
涑
俸
鵺
웠
渇
尒
頡
趾
ਮ
ट
睹
隍
瑋
⑹
袳
ʎ
譏
簿
頗
带
繒
鎰
졘
祟
黍
髭
ㅦ
擢
ഓ
믜
糺
笔
篪
擅
伶
珂
｝
∵
∫
㎧
㎓
▦
ⓕ
ⓖ
ⓗ
ⓘ
ㆉ
Ŧ
报
抓
邂
粽
Ⓐ
Ύ
蕰
叠
晥
迹
饗
գ
払
Ἁ
璨
짫
읆
ʷ
囃
臙
掲
檳
曁
욋
殲
ဘ
స
优
簗
槥
蝙
俚
扞
햝
휏
瀍
淤
荖
璞
⁰
邆
驗
厥
ẻ
釵
攜
ግ
ﻦ
돟
籬
蜈
彎
蒐
笨
걺
밣
譓
윁
莢
ถ
ማ
憩
ᾶ
杰
ṓ
阴
闽
澂
晧
簷
屆
ɵ
筮
윾
쵤
驾
药
诗
宾
톼
栾
阁
圪
绕
鸳
ᠦ
显
艅
襦
搬
垛
汊
众
燥
浓
鹰
盒
烧
净
桿
뜌
传
税
洺
퇀
坳
厘
珀
灸
懇
駁
覡
噲
縉
秺
衫
졉
壘


ܚ
ܙ
仗
玏
屎
郅
⇌
鶻
髡
鯛
좃
묑
囗
Ẽ
Ĩ
Ũ
珛
间
瑊
곌

噬
10000000000000000000000000000
003001010006
##124012108
##0000000
124015008
200000000
20021011
##uester
##121109
##otodet
20131124
##현대전문학교
##itotos
40030117
20040226
##013000
##amathe
20031029
##odeles
20110313
10110100
00100000
##gestal
20150226
20140107
20131022
20040129
##tothen
##101100
20031202
##mather
##220009
##230035
00400010
##entous
##edeton
20120305
20140403
20140310
20140127
20150116
20101203
20101001
20100326
20110311
20110121
20130208
20150114
20050407
20050303
20050301
20050207
20050202
20050201
20050131
20031212
20031030
20031016
20031002
20040409
20040220
20101007
20131213
20131011
20140509
20140404
20140328
20140321
20140314
20140307
20140228
20140124
20140117
20140110
20140103
20021129
20021108
20021101
20021025
20021018
20031031
20031024
20031017
20031003
20040115
20040108
20101229
20101228
20101227
20101221
20101220
20101215
20101214
20101213
20101207
20101125
20101109
20101108
20101101
20101020
20101019
20101018
20101013
20101011
20101005
20100506
20100504
20100503
20100408
20100407
20100401
20100329
20100325
20100322
20100318
20100311
20100310
20100309
20100305
20100304
20100225
20100224
20100223
20100218
20100217
20100211
20100210
20100209
20100208
20100204
20100201
20100127
20100126
20100125
20100121
20100120
20100119
20100118
20100114
20100113
20100112
20100107
20110509
20110505
20110504
20110503
20110502
20110407
20110406
20110329
20110323
20110322
20110321
20110314
20110310
20110309
20110228
20110224
20110223
20110217
20110216
20110215
20110214
20110210
20110209
20110208
20110207
20110131
20110127
20110125
20110124
20110120
20110119
20110113
20110112
20110110
20110105
20110104
20121231
20121227
20121226
20121225
20121224
20121211
20121210
20121203
20121127
20121121
20121120
20121108
20121106
20121105
20121101
20121023
20121022
20121018
20121017
20121010
20121008
20121002
20120509
20120507
20120503
20120502
20120501
20120404
20120402
20120329
20120328
20120327
20120322
20120321
20120320
20120319
20120314
20120313
20120312
20120308
20120307
20120306
20120229
20120228
20120227
20120221
20120220
20120216
20120215
20120214
20120213
20120209
20120208
20120206
20120202
20120201
20120126
20120119
20120116
20120112
20120110
20120109
20120102
20131231
20131230
20131225
20131223
20131219
20131217
20131216
20131210
20131209
20131203
20131202
20131126
20131122
20131105
20131104
20131029
20131028
20131017
20131016
20131010
20130507
20130502
20130409
20130402
20130401
20130325
20130319
20130312
20130311
20130304
20130218
20130130
20130129
20130128
20130122
20130115
20130114
20130108
20130107
20140408
20140325
20140318
20140311
20140306
20140227
20140206
20140128
20140123
20140121
20140108
20140102
20131204
20130313
20130306
20130207
20121031
20121029
0000008
2000000
##istok
##taton
##estou
##iatos
##11000
##isthe
##32014
0000038
##gerst
##31405
##roles
##aelen
0000015
##utoto
##aetom
0000027
##iethe
0000001
##21938
0002048
##retos
##01505
0000000
##ietos
##32026
##30036
##30013
##agele
##estak
##iadel
##11304
2002329
2003124
##14005
##idele
##21987
##utoch
##31126
##00025
0000019
0000020
##todes
2003509
2003502
2003228
2003207
2003117
2010122
2010022
2010011
2011011
##2117
##3110
##2406
indent
##보이스트
##4031
##3500
##3100
##3236
##0195
##1038
100100
##1250
##1100
##1035
##5022
000015
##2303
##3194
##1999
##4024
##4040
##2097
##0248
000196
##중학교장
##2125
##2126
##2127
##0135
150000
##3226
##2196
##3200
##1409
##1323
##3107
##5038
##1196
##1988
##5015
##ivew
##3101
##로마이어
##3223
000003
##1407
##1406
000235
##0015
203040
서울특별시아
##5029
##4009
##hthe
##3114
000016
##1509
##3193
000029
##tade
##5002
000035
##2115
400006
##3217
##여자기술
##1907
##2123
000038
##3509
200304
##etok
201100
##4003
##프리스타
##3227
200205
##2305
000048
000195
000023
##2505
132406
##2022
213240
102117
190228
##광역시장
123228
##3216
##0229
##텔레스포
200305
##비행정보
##Aren
##1327
##2219
##1131
##2026
##2010
##Stoc
199504
199506
200107
200209
200207
201503
Indec
10101
##대전기
13101
00022
##미국제
##후보호
##전자유
##도시험
##박사회
00023
20050
23008
##문헌법
00198
##아이미
##아르크
10128
10015
##보이지
##행동물
10007
##가지나
00017
##데이어
##사건물
##회사업
10200
12110
00036
12407
##제공항
##타이미
##헌법률
00197
12007
##전기술
##마이르
##국제외
10116
##동시대
##바이탈
##불교회
00506
##데이지
22106
13189
##군사단
20002
##바이후
00048
##마다이
##대부문
##라스탄
##베이르
##예정보
11214
Inder
##연대회
##라이동
13500
12400
##남자연
##하이루
Inden
10021
##데이상
베이사이트
##마지막
10027
12200
20100
10303
##자기반
10210
5013
3148
플레이용
사이나이
0187
3125
##최초
3193
deto
국제공식
toto
3128
##한편
3199
4024
0194
3031
3027
2322
정보기획
##특히
##거쳐
3235
경기본부
3107
광주도시
레이스트
##역할
경제도시
0122
0322
3205
0215
4014
2132
0325
3118
0196
Arol
4017
5021
3204
3227
한국가족
다이스트
대전기능
연구조정
##膿
Cht
##挽
연대부
##魎
##糟
##眺
##鱈
##饋
##횃
##゛
광주석
##鏢
##殲
##姨
##贅
##짯
##퀌
##늗
##娱
##遏
##퇀
##튱
##侊
##髆
##湞
##Ⅱ
##ῑ
##兕
##焌
##痙
##羕
경영국
##隶
##舵
##旒
##탇
##ټ
##ሱ
##攣
##熔
##ᠮ
##ᠳ
##է
##Շ
##豨
제국가
##卅
##嗽
##轆
##䍧
##汨
##衜
##鞆
##蝮
##쐐
##㻩
##닺
목적용
##ି
##〈
##†
##潴
##淆
##녝
##鬧
##霑
##ㅊ
##•
##ঞ
##妲
##礏
##堺
##嘩
##徂
##淪
##塽
##丫
##謚
지방식
##拌
##獺
##蛾
발전자
##헿
##卉
##셑
##ਖ
##②
##礬
##烹
##藿
노동시
##栯
##犨
##싀
##膩
##桳
##栠
##敨
##捡
##獴
##榻
##誇
##歿
##畹
##瞥
##鼈
##嬖
##「
##霹
##ཱ
##鬲
##砧
##쯕
##茄
##鵞
##噺
##씁
##沧
##蒐
경제공
##瑲
##爕
##芯
##ೋ
##♂
##还
##啦
##잴
마이루
##笒
##韵
##ഫ
타이러
##彤
마이르
군사단
##紊
##趨
##题
##쏟
##岹
##溭
##姞
##严
##逋
##ત
##ನ
##ಡ
##湟
##瀹
##濚
##ጉ
역대부
##ἱ
##ἢ
##稗
##圄
##๋
##։
##淘
##蛤
##閇
##坚
##ܛ
##ተ
##इ
##ए
##।
##ܦ
##ゎ
문제도
##弃
##轩
##枉
##ō
##ܖ
##̈
##ផ
부문제
##옸
##牝
##惚
##瑣
##핼
##ङ
##尓
##证
##뻰
##逊
##碉
##귓
##ቂ
##娩
##痰
##楒
##隐
##쑴
##뗐
##ፍ
상대사
##頁
##兟
문학교
그리아
##艅
##异
##侂
세기관
남자유
최대표
문자체
##螈
베이나
##쯧
##쒸
##贛
인정도
##瀜
##甌
##輈
##닯
##ᾷ
제작곡
역사용
##涍
시기념
##渼
##甬
평가지
##ᠵ
##ਸ
선수행
##淅
##婿
행동시
##敉
##㷁
##峋
##襸
체제공
##簷
##岉
##낟
##瑥
##惀
##袳
##＼
##蹇
##箎
##揜
##睢
##姃
##劤
##鄴
##菁
##孛
##臈
##豺
##憾
##悖
##ే
##శ
##ढ
##矗
##审
##踵
##载
##瞭
##弌
##玒
##箜
##쳑
##艙
##错
##细
##렡
##솓
##蠧
##葂
##栴
##蔕
##봔
##璶
##뗌
수도로
##畎
다이트
국내용
구성공
##榏
##紞
##ڑ
##跨
##伞
##즛
##顿
##榛
##倓
##逾
##晁
##븜
##泛
##ও
##迄
##煤
##炘
##ὠ
유지지
##绪
##罫
마이론
##囏
##揄
##릘
바이르
##祦
##珈
##痢
##볫
##Ֆ
개교회
##鏻
##兹
##渲
##圧
##埵
##蓓
노선수
##ಯ
##핳
연기술
최대상
##쫜
##浐
##灞
##续
##ါ
##ਟ
##얻
##檠
##柅
라이미
##㯙
최대부
##堦
이사랑
##慜
##馴
가능력
##肸
체제도
##콱
##唊
##馼
##ప
##─
##琂
##橒
##襑
##懃
##挾
##떰
##侧
##詝
##舆
소설치
##墰
##漈
공개발
##［
##賻
##溺
##ᓄ
##槊
##鱉
##墘
##湳
연대사
##賧
##寝
##焚
##鸚
##鼇
##翥
##彷
##彿
##烤
##喁
##짭
행동물
##蜆
##昖
##谟
##榄
##啣
결정도
##ቀ
##ሲ
##ታ
##ቲ
##ቡ
##ጽ
연구성
##壢
##遴
하이나
##蓑
##鮒
##樀
##檝
##皡
메이션
##捌
국제국
##翬
##ྗ
##寞
##茴
##輒
##錞
##洬
##粘
##铭
##罽
##蹕
##傒
##暒
##嫻
##蕟
##䄄
##侙
##靭
##僩
##팤
##勐
##껠
##Ἕ
##Ὀ
##肛
##谭
##沚
##驃
광주요
##궝
##绣
##畴
##卢
##琼
##绕
##햣
##纬
##葫
##昫
##纸
##읠
하이유
##剑
##喷
##埕
##鳌
##窗
##碛
##凳
##卧
##驁
##击
##텬
##襴
##稳
##躅
##杠
##羔
##හ
##堌
##斅
##杳
##凄
##篩
##陡
##汊
##牯
##购
##ճ
##誐
##翺
##些
##ῴ
##淰
##輳
##嬅
##銙
##楹
교황제
교통신
##荑
이사상
##휭
##襛
##ശ
##쯘
개인간
##讌
##嗇
##楪
##蹲
정부분
##慷
경기간
##喔
도시기
##覩
##麾
##ሊ
##꽅
##믜
##ׇ
##ㄏ
##兽
##ˇ
##ភ
##ѧ
##䟽
##Ү
##츙
##熩
##裶
##偦
##쥼
##ҫ
##ĕ
##롑
##嗅
현대하
##鞞
남부분
##饲
##礥
##섄
##뷕
##椘
역대사
##疗
##큣
##獒
##诞
##쟘
보이후
##俘
##饕
##羸
미국가
##搆
##텦
##哺
##燽
##븉
##胯
##嬭
##汙
마지휘
##楘
여자유
##욯
요구조
##灤
##홯
##홥
##縵
기반대
##᜔
幇
욍
햔
潍
Թ
瑩
闢
玎
愿
잍
렸
燔
滔
Ǝ
鵂
歿
耒
餃
奶
蠅
뜩
¯
뇰
筧
䔉
襪
朐
灑
桝
叟
績
Փ
փ
է
۱
舩
拇
ى
ﻪ
ᅡ
̇
ﬁ
玹
帙
햑
ך
힁
煦
롹
跏
襴
അ
鯤
≦
ﾆ
┠
ﾋ
ﾌ
ﾍ
殳
岾
씃
淅
∅
몀
蘋
貰
蹲
ন
ന
麿
敢
홱
쏫
蛭
豉
膀
柾
↕
쟛
簸
蝉
葆
彪
ὀ
ἢ
ὡ
俾
빝
㎱
焙
왯
훽
ʉ
ʧ
햠
ㆀ
竄
㎉
餐
孽
孼
珒
貌
鑽
餉
牝
ỗ
ㅶ
妮
ဒ
쵹
ប
鄚
岜
嫪
轘
誾
磬
纺
瀉
癎
墜
淯
漓
驥
얆
ｗ
ｐ
姞
듸
섈
篝
꺠
陥
翕
闖
굔
ሕ
㴭
乷
娚
잛
Ἅ
亅
亠
冂
冖
凵
囹
ї
Ն
拗
ژ
蝮
អ
､
萎
彙
臆
隙
汰
癒
Ѕ
ѕ
ұ
Ҳ
ເ
窦
뻰
ບ
넹
琈
භ
හ
ද
ය
譿
詡
ᐃ
थ
ܠ
ބ
ގ
ރ
ފ
ވ
ᇚ
ヮ
ল
夸
趵
銜
羿
肋
រ
ក
ជ
ﾀ
綢
쌴
縞
琄
ㄏ
ㄢ
〖
〗
젇
傻
ᄛ
ﻝ
湔
ɖ
ƶ
杓
痰
ཁ
빋
ለ
ነ
뒨
剋
┫
ც
淐
텬
滾
磊
곂
ⵉ
ⴻ
ﻑ
ὕ
덪
碼
塋
Ὠ
簠
舶
瞰
訣
✈
磧
蓑
轅
झ
纓
⑺
⑻
⒞
琯
ㆇ
婷
റ
濤
咖
贓
ప
珩
棹
慤
⋮
劑
瓣
졋
兮
둣
摛
烤
వ
膏
邠
僐
囑
藁
椀
汨
晟
蝨
衮
哉
昻
閲
랖
籥
∝
㎕
㏏
♧
☎
ⓜ
ⅴ
ㅧ
ㅨ
ㅩ
ㆈ
ㆌ
ŧ
昝
佞
쉑
嫘
擂
雋
佶
荑
黟
緡
墀
뼤
啼
Ȝ
珣
뢱
龟
昑
渺
潇
卤
醤
躑
Ċ
ਕ
껫
Է
⁡
Ŗ
吼
换
硕
孱
뉠
鍔
敲
짯
嫻
ខ
繻
溯
ǩ
ჯ
綦
椛
洩
輟
ນ
ર
囲
Ή
膾
辺
稙
択
蒜
瓶
篩
孕
侏
တ
扣
芼
愴
攴
糀
趨
搢
눞
દ
嘴
杼
ᄼ
滏
ዓ
쎙
斃
崙
概
礁
蔴
偪
砺
悖
终
倎
귯
춧
嬬
壷
뵨
殼
譴
戡
쉡
薳
绍
孀
砒
燻
瑃
涛
糯
쥣
拥
涝
鹦
监
栏
构
뺙
顿
逻
풂
邴
걈
깸
沽
∉
ṽ
评
鸥
瀏
邗
涟
鸬
鸠
浒
矾
筱
气
箐
隐
뵹
谯
丫
岹
荫
样
Ṛ
嶂
鸦
级
砣
俎
邙
呜
翩
专
榔
濉
蕲
涓
赖
깆
浯
豌
鲤
紵
猩
픙
廞
퀭
鏃
轮
慷
䄙
逈
얉
辮
Ϙ
ϟ
ϡ
剌



⌊
̧
皁

彅
瑈
ㄨ
蒴
ㄊ
爀
媵
昖
㻑
岏
虯
텨
ḻ
脆
楨
ӄ
瑷
妒
悬
ಹ
悵
憒
魄
⁽
踵
ҡ
ھ
楪
吖
Ė
菉
쯘
◕
幀
빎
夂
溈


̽
鈺
100000000000000000000000000000000
000000000138
1000000000
##11950188
##0120329
##1195038
##uerstof
##istoler
##2102409
005001001
000211227
##itoches
##1100011
102013006
102012008
20101023
00000011
##000000
20030115
20031005
##ueston
##inecom
##현대사회사상
##101001
20110106
##enther
10110101
##agetop
##estall
##inetos
##iretok
20001124
20001010
20011023
20011213
20031211
##110000
20001128
20140326
20150508
##uentos
11010011
20150130
20140301
20100509
##ightow
20150206
20131008
20140220
20101006
##ientot
##321987
00000226
20101015
20100319
20100212
20100129
20100122
20131007
20140506
##ideler
20150309
##retoch
20050113
20031128
20031009
20040326
20040102
20101223
20140221
20140214
20021230
20021226
20021224
20021223
20021216
20021213
20021210
20021206
20021128
20021127
20021125
20021120
20021107
20021106
20021105
20021104
20021031
20021029
20021028
20021024
20021023
20021022
20021017
20021015
20031224
20031218
20031217
20031216
20031215
20031209
20031208
20031204
20031203
20031201
20031127
20031126
20031125
20031124
20031120
20031106
20031105
20031104
20031027
20031022
20031021
20031020
20031015
20031014
20031013
20031008
20031007
20031006
20040506
20040505
20040504
20040503
20040408
20040407
20040406
20040405
20040401
20040329
20040325
20040324
20040323
20040322
20040318
20040317
20040315
20040310
20040309
20040308
20040302
20040225
20040223
20040219
20040217
20040209
20040205
20040204
20040203
20040202
20040128
20040127
20040113
20040112
20040107
20040106
20040105
20050505
20050405
20101102
20100505
20110103
20121220
20121218
20121205
20121030
20131021
20131015
20131014
20140508
20140501
20140409
20140407
20140324
20140319
20140317
20140312
20140305
20140303
20140226
20140224
20140218
20140130
20140122
20140120
20140115
20140113
20150507
20150506
20150401
20150325
20150312
20150311
20150225
20150212
20150211
20150205
20150129
20150128
20150122
20150121
20150115
20150108
20150107
20131009
20131003
20140401
20140327
20140225
20140204
20101025
20100406
20100405
20100323
20100203
20100202
20100104
20110405
20110404
20110308
20110301
20110221
20110118
20110117
20121206
20121107
20121015
20121009
20121004
20121003
20120403
20120315
20120301
20120130
20131205
20131125
20130326
20130318
20130225
20130205
20130121
20021227
##gesta
##고등학교장
##01903
##11011
##23125
##10040
##deler
##omath
##32004
##데이사이트
##50000
##etous
##01126
##31983
0000013
##40236
##31209
0000195
##00209
##10008
##gesto
##30035
##10007
##01238
##21005
##10030
##10206
##50229
##aedel
##30003
##전문학교장
0001987
##ideto
0000009
0000148
0002015
##10105
##10110
##12138
##inech
##estol
##artof
##40301
0002187
##iatop
2002122
2001213
2002326
##12128
##tades
##totom
##geler
##전자연구소
1001001
0000022
##50240
##entof
##aetot
##20000
##aetor
##00001
##20048
##카이나이트
##ieche
##32109
##22006
##20409
##uetop
2002503
2002405
2002322
2002315
2002308
2002215
2002208
2002201
2002125
2002118
2002104
2003507
2003506
2003505
2003501
2003227
2003226
2003213
2003212
2003211
2003210
2003206
2003205
2003204
2003129
2003128
2003127
2003123
2003121
2003116
2003115
2003114
2003109
2003108
2003107
2003106
2003103
2003102
2011022
2012022
2003214
##3297
##3505
##0013
##0196
##2326
##플레이용
##2148
##1309
##2004
##agew
##지역사무
##2401
##3006
##2324
##사이야기
##1306
##3116
312211
##0236
##1235
##2130
##4050
100224
##5020
##3195
##역대학교
##Ther
##5001
##대학교회
##2508
##2030
##2014
##3126
##3105
##1190
##2199
##3108
##5048
##0140
##1329
##자리스트
##1138
##3148
##2317
##2301
##atof
000002
##htot
##0189
##3117
##1909
##0007
##2186
##4005
##1307
##2013
000309
##1189
##cede
##1050
102195
##5018
##3028
##3196
##0235
##3504
200009
##2038
##3230
##3029
##1318
##3220
##ctou
##gede
##2122
##5025
##대학교장
000213
000216
##4016
##1905
##2017
105000
000205
##0138
##2209
000036
##1986
##1188
##2201
##2313
199107
##2311
##1989
##다시리즈
010101
##정보기능
195019
000218
##4028
000209
020200
101024
##3011
000228
##1097
219828
101930
##1040
121504
##itod
##5006
##ivep
101500
##1993
##1996
##2011
101325
##4026
##라마이스
001029
##3001
200401
101226
##Then
##1311
##경상북도
120120
120140
##1300
##기자연합
##토리아이
##카이사무
##년대학생
150217
200204
199205
201507
10005
40226
##제공동
##제공사
10110
##항공연
##타이론
##회사건
공화국민주
##리아들
##데이나
Unden
10002
뉴스페이지
##므로서
40225
##현대부
##이동물
10301
35035
##관광주
##데이르
10029
##이르크
##시마지
00002
##시마다
##타이상
##시아래
##하이르
##지나이
12327
##그리고
01987
##우리카
00101
##도시대
11035
Undes
deles
##이나라
12329
##로부터
##국민주
10024
##머니아
##라마다
19500
##안전기
00012
##정의회
00038
22500
##보이르
##정부대
10406
##라이유
10122
40320
12001
12002
Anden
##리스페
##타이루
삼성공화국
##지도시
10012
##조사회
##남자기
25016
13212
##북도시
##하루스
14026
indel
##한국제
00027
Indel
##뉴스타
##보이트
##부산업
##성공사
11500
##바이미
##루스포
##야마을
01001
사고등학교
##선정보
21325
11400
19036
19948
##국민국
##대사회
13107
##조사진
13187
11029
12115
##하이미
##여기자
12208
##Aro
##요시간
##나이미
##주시기
##이지지
3190
##취임
대사이상
4036
3131
0128
3206
4010
3508
이사회의
0508
정보통신
3138
3209
행정도시
0186
2304
3028
3029
후지나가
5038
타이루어
0097
0140
4023
3097
5015
기자연합
민주변화
2189
4035
0032
그리스타
육군대신
3238
Arel
0225
##시켜
아이사랑
신라이전
일반대전
##실패
5010
3198
드라마다
0228
##어느
##당하
참여자치
에너지구
##箝
##魍
##騮
최종합
정부문
##洺
##뒨
##黻
##ጅ
##־
나이나
##룜
##辜
##澡
##摇
##頥
##폔
##햡
##醸
##惰
도시대
박사상
##왹
##贴
역사고
##牀
##큉
전통신
##刱
독일본
##励
##岺
##斋
##嵛
##瀘
##ἐ
##ے
사건설
##뺐
##钰
##芼
##윝
##橄
##髭
##ヵ
##坧
##ॉ
##脉
##鐄
##㽔
##絰
##풉
##ᠸ
##祷
##깢
##犴
##綉
종교회
실제작
##简
##탶
##纵
##甛
##釿
##훍
##蟀
##试
##捿
##퀑
##丶
##`
##ヮ
##땝
##剮
##褹
##嚢
부대학
대사진
##펼
##랟
##빱
##챦
연방식
##櫞
##ഴ
##డ
##ޤ
##똡
##褈
##萸
##鋳
##楢
##廞
##汭
##넡
외부문
##咳
##祘
전자연
##鎣
##쉣
##흣
##엮
##囍
초기본
##祔
##쭘
##큎
FII
##秬
##芋
##컺
##쟉
##羆
건설명
##깸
##岁
##祯
##轴
##劈
##涎
##蚪
##孁
##띰
##吽
##롹
##蹠
##籀
##륻
##絞
##貉
지구성
##귯
##洌
##껜
##靏
##턀
헌법률
##ಂ
##鱒
##銹
##ᖅ
##鳅
##뤗
##좇
##༌
대전투
##㸂
##ವ
##矇
##埅
##驱
국제외
##鎡
##艳
##伅
##妳
회의사
##큭
##梳
##栮
보이지
##鏖
##맏
##슼
##檉
##ཨ
##】
##潙
##赋
##የ
##鮑
##挈
##ુ
##ె
##ਪ
##멥
##繭
##坼
황제공
##諪
##舡
##ۍ
##蟆
##ฝ
##泙
##ቤ
##ሃ
##ኦ
##涿
##ῇ
##ᾳ
##ὲ
보이나
##ձ
##얬
##涏
##툇
##畬
##ឋ
##龑
##缶
##ঘ
베이사
##筈
기본부
##ٌ
전국회
##ஞ
##ፈ
##ኤ
##ѓ
##ሽ
##釪
##푯
##탙
##ᓗ
##ጠ
##ܓ
##ޢ
##ޝ
##Ї
##翯
##ৎ
##炼
##骑
##켔
##饗
##昨
##অ
##ছ
##។
##゜
##튝
##褊
##柢
##囿
##ㄇ
##ㄈ
연기관
##嫦
##আ
##蜺
##啊
##靠
##聊
##愣
##涝
##苇
##ᠧ
##巂
##枧
##蔺
##崃
##＿
##ከ
##ኩ
##ኑ
##ዕ
##ኖ
##祓
자연기
##ᠴ
##勍
##Մ
##逹
##흭
##蓼
##㟓
##듕
##몃
##傉
##}
이사단
##俚
##卸
##倞
##毐
##惨
##鋧
##黌
##姁
황제도
##䄵
##浑
##횔
##糴
##缘
##憁
##縟
##檳
##淯
##鋤
##앻
##濺
##撼
의회의
##栈
##낡
##嵎
##澾
##ۓ
##ਤ
##芪
의사이
##墠
##锜
##蓊
##蝴
##錙
##黿
고대학
##渰
##溎
##侾
##译
##瑆
##頵
##睹
##眙
##渽
##芃
##籜
##읊
##됫
##蓆
##榭
##蚊
##领
신라마
##謳
##拗
남부대
##睍
##姹
##籩
##醢
##梪
##頉
##榎
##荄
##柿
##繊
지정도
##牋
##왠
##茳
##崍
##櫂
##믁
타이사
##朮
##찿
##苡
##迂
##얶
##蔗
다가리
##虺
##竃
##鍬
##抓
##朓
##璦
다시아
##앋
##峀
##៊
##ሌ
##拨
##糯
##寻
##裒
##繙
##谦
전기원
##楕
##㼁
##鄯
일부문
##롁
##녬
##嚬
##챨
##梱
##饮
##뀝
##碓
##滦
##恙
##洄
##虚
##闖
##궉
##ొ
##뤀
##ಮ
##ಸ
##લ
##્
##잃
##흫
##핻
##竊
##퓐
##嵂
버스크
##塲
##蝎
##਼
##ჲ
##朦
##朧
##忖
##Ｗ
##输
##ὑ
##澲
##櫚
##瘦
##薷
##銢
##딍
##菽
##猾
##駟
##茯
##岠
광주로
##俐
##둉
##匐
##郛
##걋
##蟇
##熿
##玳
출전기
##곯
##췡
##ష
##ణ
##ஷ
##穟
##盎
##磚
우주장
마지원
##ҟ
##ҩ
##煚
##駢
시작곡
##蓝
##澋
##摶
##錥
##篪
##夙
##获
##顾
##诏
##纶
##恺
##䄉
##쉅
##薀
##玿
##］
##欒
##垝
##귝
##塱
##艋
##嵙
##苳
##룍
##ဂ
미국회
나가족
##燄
##囑
##噉
##啖
##닸
##Ի
##篙
##輌
##盔
##访
##蚬
##앜
##맟
##垶
##壔
시대회
##ણ
##浞
##狁
##ኪ
##齕
##륩
##誴
구성우
##巔
베이후
##溯
##儘
##夋
##芎
##挖
##罃
##묭
##畤
##黶
##荽
##ධ
##韺
##砺
##몯
##푱
##瀋
##倀
##燊
##勀
##뤈
##曖
##쌴
##汸
##侄
##뻉
##쫌
##ሞ
레이사
##삣
##\
##㘾
##鰒
##梏
##亻
##熻
##㺪
##佼
선거리
##韦
##佘
##栋
##顷
##镜
##毕
##厖
##聆
사이르
##蘋
##虁
##釰
주의하
레이전
##쏀
##珒
##캿
##嘲
##㴭
##鏊
##岏
##겄
추가장
##蚕
##窆
##㥠
##銚
##獜
대사고
##핰
##잤
##勺
##砚
##盏
##鹫
##蚁
##Ἱ
##Ὑ
##왝
##畅
##窠
##转
##钱
##闫
##础
##峤
##鸯
##竦
##钵
##钩
##昙
##ཝ
##仫
##绵
##롐
##茆
##冻
##瀡
##颇
이상황
##檯
##瑍
##氹
확인기
##젇
##粵
##侨
##逻
##汛
##둰
##碶
##幫
##壶
##浔
##唔
##夠
##尘
##涂
##郑
##鹚
##弯
##埂
##阝
##嘶
##狙
##蓥
##粑
##籓
##遑
##簣
##丛
##ྔ
##咱
##弹
##鹉
##钥
##炟
소비스
##绛
##贾
##廖
##ϝ
##骏
##淦
##霦
##纺
##递
##鹊
##虯
##熬
##츳
##销
##迳
##馦
##궨
##颈
##죡
##ಟ
##洧
##輊
##滫
##慙
##믓
##喱
##咁
##寤
##栍
##誢
##僴
선정신
##芾
##晑
##糿
##鍒
##逓
##చ
##缸
##럄
##裿
정보이
##帔
##匀
##襖
##裪
민주의
##튐
##飴
##Ί
##횰
생활동
##퍅
##ਦ
##捻
이후보
##黏
##봍
##븡
##Ҳ
##ㄛ
##ஜ
##ৱ
##ై
##䌖
##銍
##흩
##逷
##긁
하이사
##ᓇ
##錤
##ㄟ
##츅
##댝
##徇
##傛
##뗑
##衦
##璭
##璖
##㤚
##멨
##ӱ
##蘧
##紓
##Ꮒ
애니아
##ആ
경제도
메이유
##钞
##ಬ
##潺
##雘
##怏
##慼
##옄
##撬
##瑴
##鍍
결정부
##簑
##样
##规
##닻
##ळ
##冨
##崟
##鷳
##噜
##ಪ
##彄
##遡
##癬
##舳
##늣
##膂
##㴒
##µ
##툿
##퍙
##ڵ
개인물
##蠅
##嫣
##깤
##叺
시민국
##햝
##戔
##耭
##騤
##槙
이나타
##决
##莓
##끕
##霮
##휩
##驩
##呿
##觝
##諀
##訿
##瞢
##嚩
##玅
##蜻
##嚻
##揍
##蚰
##蜒
##啻
##纹
##돎
##盩
##섐
##욍
##笹
##돝
##醱
##拄
##拊
##쉑
##곣
##퀍
##棁
##됩
##쏸
##頬
##뿝
##섁
##ᜊ
##ᜌ
##ᜒ
匕
臏
‽
赳
菴
㎲
邏
犠
僊
蔦
鯰
疱
ゔ
ɴ
ๆ
藷
逾
拷
惚
썹
껏
Ὑ
驀
燦
겝
郰
뉜
ǝ
Ï
沆
嶢
纯
驤
җ
羑
郜
Ů
늴
肛
痙
睛
艹
辶
亙
暾
套
洧
奐
艱
쎔
뗑
얶
Ț
ḑ
Ģ
ത
廠
և
պ
շ
ն
祢
얐
鉞
핟
ﻧ
ﻨ
ﻮ
̀
゙
゚
ᄋ
礦
鏢
ட
뉨
醯
ｚ
繇
₤
宀
ｷ
勹
ﾝ
圏
륨
ᡳ
멉
ও
ദ
ᄅ
軋
⟶
욈
튐
╋
駄
∮
琺
啞
洵
亏
悳
뼉
ත
蓍
槌
鐙
蜉
蹂
ട
읻
朦
걋
鰕
轍
Ḫ
艤
霓
丐
쟙
ഇ
慌
籀
ஏ
ᇘ
ಬ
휄
搓
惰
澜
쩬
ᄴ
뱜
芻
筲
ἦ
ព
뮹
浏
훓
撓
ჰ
雹
沭
젹
寰
现
问
쫏
耦
َ
뱔
ώ
熢
অ
త
眇
ཟ
湮
泂
罌
肘
箜
侃
紮
䄄
它
췰
嵒
倻
ἁ
ஈ
ḃ
ḋ
峼
Պ
∘
ല
柷
膚
舷
痩
嘲
慄
侶
麓
Ґ
ѓ
銛
ວ
嗶
ຕ
쾬
▉
湳
枞
ර
ய
鋏
ሚ
Ë
詵
熀
焜
墰
㙫
壎
褶
ᄂ
ᅵ
劝
쓔
छ
ޤ
ލ
兖
仡
돎
讐
琨
璉
Ѧ
贞
郳
উ
潦
օ
퍙
ܣ
ដ
យ
ន
វ
ម
褊
鵯
哎
鶉
늄
ǣ
荞
倮
凭
Ƿ
Ẋ
迁
볜
ཉ
ῑ
ዳ
ህ
ያ
珲
ര
鋳
ᠴ
ღ
瞞
츌
뗴
졈
듕
徘
呵
礒
郗
鞱
쨈
蛛
蠑
ⵎ
ⵏ
➁
ﺭ
ﺯ
ﻭ
ﻱ
汭
肹
鳧
뿟
岠
砭
솓
둚
逹
螳
葱
槎
橒
峘
蘚
Ṭ
鰥
耗
⑼
⑽
⒜
⒝
⒟
⒠
眈
鐫
癯
惲
胭
廐
猗
貽
杢
倹
젔
沘
瀞
嵬
吞
ʏ
沇
鯀
顏
ᇋ
ᅦ
曠
볻
Ｑ
⇐
ϵ
俔
ᆨ
侘
窈
뼁
Ϸ
脯
漩
⌒
∑
㎣
♤
☏
㉣
㉳
㉴
㉵
ⓙ
ⓚ
ⓣ
ㅪ
ㅫ
ㅬ
ㅮ
ㅯ
ㅰ
ㅷ
ㅻ
ㆂ
ㆃ
ｂ
Ŋ
ĸ
ŀ
妍
蓁
嵊
澉
鑒
읋
尽
禛
併
熨
郪
鰹
禖
傣
戢
畔
ഗ
ಕ
薤
ἵ
扒
渗
뱍
劦
遤
뺴
뱄
쏩
囮
☐
됫
繚
蛯
滲
貘
♎
♏
♐
♑
♒
♓
⛎
㊙
殴
组
滘
洨
Ӑ
賄
璹
殞
얠
쳘
魍
襖
뇻
皎
狡
ญ
亹
駘
ﻲ
ﻋ
茴
Խ
価
∗
喙
擒
拏
蛸
Ҷ
适
摄
찣
ง
澯
鰺
咪
ᅒ
ȝ
裘
⊢
橈
崁
艋
杙
哆
鴿
罔
她
썅
徂
漯
釗
鞨
礡
뒁
琦
હ
鰻
畎
ᄽ
ᄾ
ᄿ
ᅐ
ᅑ
ᅔ
ᅕ
ᆷ
隞
侁
戔
邰
ብ
ና
熈
褌
煇
莿
詗
揃
궝
茲
肸
驩
ᐨ
घ
仫
̡
얜
簪
鉾
쭘
卅
ቀ
ด
걘
昉
暟
获
浑
庖
枰
ﾃ
杂
㼁
佈
堗
勖
决
둴
酇
灃
菏
斋
囍
彳
娱
댸
뭥
饃
뇬
捿
矣
迤
泼
蚂
苴
茈
槟
Ἥ
职
埝
钳
鑫
｟
﹐
﹑
铧
买
坚
饮
约
导
깉
霖
夺
孜
扯
櫂
儷
⁷
姊
疼
伦
祯
卸
埭
匯
溱
厉
茭
渌
瑚
鄞
浬
箬
沥
虾
坞
雾
槀
浆
辵
鐥
敀
侤
獤
郫
搦
垭
檬
旄
摧
挖
铅
艳
熬
笃
櫃
噫
浍
业
闹
뫄
琠
抢
坨
贸
钜
隰
淶
炕
选
骅
审
凫
崮
樱
郾
胙
酂
鲇
涡
粮
绣
赭
纬
齎
慟
큣
ໄ
萍
泺
贏
룅
鰓
燿
핬
곹
컥
苾
ಮ
酥
嗟
喋
萆
淪
鞬
逓
籃
豕
昍
紊
洱
杀
ם
驢
迥
俛
廡
˨
窄
筬
软
휑
ͷ
ϙ
Ͳ
ͳ
嘿






졍
ܫ
ပ
꿸
₇
ዲ
璇
晄
棩
焞
娎
磔
ʐ
⁶
ㄍ
据
∎
蕫
솃
墅
厓
摔
压
躄
卐
祦
禶
擄
♮
眺
郟
এ
术
హ
Զ
鍬
緇
鎚
℞
씼
꼐
맽
‪
麾
恮
꾄
樁
ḧ
ḓ
慙
∛
맆
្
黠
Ű
槻
蠱
ທ

̼
耎
椙
։
岁
澠
됬
쎼
瘠
鄩
咚
缾
븓




昡
痤
엤
␣
郚
综
10000000000000000000000000000000000000000000000
10000000000000000000000000000000000000000
1000000000000000000000000000000000000
1000000000000000000000000
00000000001101000000000
00000000001100000000000
00001100001100000010000
00000011000100001100000
00000000000000000001
0011001100110011
003001010002006
200505030500019
201503200500026
10011001100110
##003000000013
0020010002005
##00100000007
##10000000000
000200050000
100000000000
000000000127
102013000136
##0000000019
20150405017
10000000000
##021100329
##11000011
0000000011
##01103028
##32013015
0001950202
##01000000
0000002026
0000000307
##10030126
1400050219
##radenton
##romather
##30032006
0000000009
002001000
##perston
000000001
##berster
##야마다고등학교
##3000209
##ivelles
##ramathe
##1930038
##anderst
##0000002
##0000003
##0000004
##0000006
##3030136
##entothe
##odetour
##iederst
##estoden
000050221
102013004
##istoder
##agesthe
##203008
##centos
##gentod
##ireler
##uestas
00020297
20050320
00000100
20121201
##isthes
##310007
##320188
##320024
##350508
##011228
##ientol
20150219
##103008
##iether
20140209
##uestor
##321124
##003105
##403016
20101218
00000003
00000004
00020115
##ientom
##atofor
##030313
##ivelle
##103123
20101003
20110326
20130407
20110402
##121409
##400017
19930220
19930205
##uestae
20101017
##311909
00000207
20120317
20110320
20121014
##주인민공화국
20050409
19921124
20011228
##040107
##150216
00000014
##artoch
00020016
##otoder
##radent
01100001
##ochter
##100000
##320508
##000048
11000000
##inetor
##ivecom
##050004
##iechth
20130324
##301017
##110011
##edetom
##gestog
##otofor
##stolen
19900214
20121209
##121314
##romath
##atoder
20130203
##idento
20110204
20130113
##dechen
##odetop
##centor
20050226
##122007
20050209
20050208
20021221
20021214
20021207
20021123
20021109
20021102
20021026
20021019
20021012
20021005
20100508
20100501
20100403
20100320
20100313
20100306
20100227
20100220
20100213
20100206
20100130
20100123
20100116
20100109
20100102
20040312
20040123
20131018
20001229
20001228
20001227
20001226
20001221
20001219
20001218
20001215
20001214
20001213
20001211
20001208
20001207
20001206
20001204
20001130
20001129
20001127
20001123
20001122
20001121
20001120
20001109
20001108
20001107
20001103
20001031
20001030
20001025
20001023
20001019
20001018
20001017
20001016
20001012
20001011
20001006
20001005
20001004
20001002
20011227
20011226
20011225
20011224
20011220
20011219
20011218
20011217
20011214
20011212
20011211
20011210
20011207
20011206
20011205
20011204
20011203
20011031
20011030
20011029
20011026
20011025
20011024
20011022
20011019
20011018
20011017
20011016
20011015
20011012
20011011
20011010
20011009
20011005
20011004
20021231
20021218
20021212
20021211
20021205
20021204
20021203
20021202
20021126
20021122
20021121
20021016
20021004
20031230
20031229
20031223
20031028
20031010
20040316
20040218
20040216
20040121
20101129
20101123
20101105
20101004
20100128
20121219
20121025
20121011
20130212
20140219
20140217
20140213
20140212
20150504
20150501
20150407
20150406
20150327
20150324
20150320
20150319
20150318
20150313
20150310
20150306
20150303
20150302
20150224
20150223
20150218
20150216
20150213
20150202
20150126
20150123
20150120
20150119
20150113
20150109
20150106
20150105
20150102
20140211
20140101
20150409
20150408
20150326
20150305
20101201
20101103
20101027
20100302
20100301
20100101
20110328
20110317
20110315
20121016
20120326
20140507
20140402
20140205
20140106
20021225
20021209
20021021
20031225
20031210
20031103
20040311
20040304
20040224
20040212
20040211
20040210
20040114
20101124
##30114
0000003
##estod
##50135
##hthes
##11228
1001010
##00308
##20323
##21994
##20018
##10100
##31003
##uento
##redet
##32308
##12123
##40235
##13186
1981022
2400001
##12023
##32006
##32009
##21948
##10128
##Under
##32008
##32016
##40505
##32003
##mathe
##50004
##01097
##01124
##00018
##14048
##22329
##00006
##14015
##stour
##ieton
##ueles
##40100
Stother
0000107
0001996
##03215
##11938
##30126
##30038
##31406
##20009
##00109
##estoc
##01100
##10006
##uetot
##radel
##00215
##10038
##13196
0001948
##retol
##redem
##20209
##14008
0002207
##03097
##21006
4000109
##toles
##30101
##12005
##11984
##40129
##otode
0002108
##00035
##50228
0000109
##12405
##ratog
0000197
0000105
##50409
##12097
##32194
##01048
##entow
##geton
##01011
##50323
##21138
##20304
##istou
##aeden
##21004
##11301
##10316
##01309
##retop
##undem
##21007
##32314
##22004
0000404
##12002
##celen
##리스타이르
##13004
0002304
##10209
0010000
0010001
##ceden
##19025
##01105
0002297
##estot
##40114
##40115
2000323
2000128
2000211
2000225
##50016
##31036
##iathe
##00228
##ctole
##entov
##40508
##aetog
##ctous
0040106
##00306
##gecom
##19003
##02022
##03189
##itoto
##50209
##11015
##10312
##estov
##adech
##tadel
##estav
1101011
##32316
##estof
##toden
##ueche
##estag
##01004
##02405
##21950
##racom
##iedec
##12326
##iadec
##ueden
##00312
##10000
##htous
##tacom
##40212
##25000
0199205
##edeto
##tande
1024006
##02218
##초등학교장
##estom
##20005
##40109
##inele
##00108
##00040
##00050
2001122
2001407
2001324
2001317
2001310
2001224
2001217
2001210
2002309
2002209
2003503
2003208
2000122
2001509
2001508
2001507
2001504
2001503
2001502
2001409
2001406
2001405
2001403
2001402
2001329
2001328
2001327
2001326
2001323
2001322
2001321
2001320
2001319
2001316
2001315
2001314
2001313
2001312
2001309
2001307
2001306
2001305
2001302
2001228
2001227
2001226
2001223
2001221
2001220
2001219
2001216
2001215
2001214
2001212
2001209
2001208
2001207
2001206
2001205
2001202
2001201
2001131
2001130
2001126
2002509
2002508
2002507
2002506
2002502
2002501
2002408
2002404
2002403
2002402
2002401
2002328
2002327
2002325
2002321
2002320
2002319
2002318
2002314
2002313
2002312
2002311
2002307
2002306
2002305
2002207
2002206
2002205
2002131
2002130
2002129
2002128
2002124
2002123
2002121
2002117
2002115
2002110
2002108
2002107
2002103
2003219
2003203
2003130
2003120
2012011
2003508
2003221
2003220
2003217
2003113
2000203
2001109
2002301
##3004
##2003
##1140
##0500
##3021
300000
##5004
##3121
##3026
##사이나이
000032
##0097
##1132
010110
101010
##2102
500015
##3132
##1908
##1328
##4019
112005
400026
201303
131122
##야마이나
##2235
##3013
##2024
##deto
##2218
##바이사무
##카이스트
##1505
500005
##5013
231404
##htop
##브라이미
##5014
##3010
##하이전자
##3018
##ctov
##cech
200303
##스타이후
##Stou
##3124
##2328
014004
##3115
030106
##4032
##taer
100040
050125
##1313
##htod
##1997
##2297
##2009
000215
000117
012008
##2407
##3207
140006
##1301
200322
##0250
##1938
##3103
##3201
##3202
##1985
##4004
##3097
##3150
##자리그리
##1400
##라마이트
##2190
011401
113005
##1504
##2027
##1315
##5009
##3248
000121
##0019
##2008
##2193
andech
##1187
##1983
##3506
##자연구소
##3136
##3109
##3138
##3503
##4029
##0050
##0035
##2012
##0040
##htom
000329
##2112
220505
##5023
##3025
##1314
199307
198406
199105
##3186
##연대학교
000214
100009
##0148
100115
##3015
##3221
##1350
##3027
detour
000026
500007
##1032
##2020
##4011
##0014
##데이스포
##2016
100116
##Cher
##1302
##2015
##의회사무
##3140
##0230
140004
000100
110101
100001
000325
##0197
##1135
##Stot
##1404
##3002
200007
##3190
##2240
##3035
##2248
110110
##2121
100007
##5035
##3188
##3024
##2194
012013
210101
210123
212323
##aent
##타이스트
##4007
##어서비스
200315
011011
201012
100015
##0009
##카이지도
##3215
201002
##1324
##1248
##사회사상
##Ches
##0187
##3210
211000
##라이나이
##도시스트
##2195
220190
##리아이르
##라마이나
##시대전기
##3229
##1326
500148
201102
##2350
##2025
##0018
##라이지구
113148
019314
022404
199204
199206
199208
200122
##안전기관
이탈리아이
31188
03114
12003
##이지하
11900
indes
10199
##전투수
10102
12409
##비스페
10028
##대로스
##주시마
10124
15009
22015
10036
31906
31907
01004
10048
##거리즈
11236
10108
01229
13248
12315
10020
##미국가
##시민족
##교통신
##발전국
50006
##시아르
##아이상
##년대상
##물리스
35016
11313
01325
10010
##개인기
01936
00200
01400
20408
##속도시
##황제공
##차이어
10195
##주민주
##사단체
##대신라
##박사고
11306
10188
12106
10226
##민국내
##라마지
00195
##조사이
22050
01101
##소비아
31101
20135
anden
##조사단
30009
##변경찰
##비전쟁
32101
31208
10316
##라이상
##성공간
##시작가
00310
12507
19935
10203
01205
21140
10205
10207
10505
##이사상
10038
12016
20250
19314
##회의회
##국민족
31998
##군대한
##안전문
20109
##하나오
##상황제
02204
31993
10016
00035
21327
##경영어
00148
##행정부
03210
##이상대
00217
##버스페
13104
15048
11010
##바이전
##인정신
##리아래
##주인민
##으로써
##연대학
##인민주
애니아시아
##일어린
32327
##작가족
13209
12318
24016
19904
15004
##정부르
31000
##교회장
##다시스
32123
12248
22130
위원회의원
00097
11207
##과거리
12027
10206
13004
##레이전
19800
00114
24040
01007
##군사무
##카이전
10315
20229
20048
##광주의
10031
10032
##과학생
25007
##지지명
##군대신
19916
##tht
30500
##경제공
15007
##바이사
10009
##속도록
31905
##뉴스크
10216
00326
32297
11316
13116
22305
##영국제
##동시민
12005
##동시험
00303
32214
13240
##대한국
02015
01508
12321
##여성공
##레이미
10403
10308
##승리아
11980
##보기업
10022
22328
##마지도
##학자연
11303
11302
##후지명
##남부분
40120
13108
12206
11008
13228
##종교육
01306
##차이르
13504
20112
00503
13215
13030
10327
19012
19011
10214
##제도시
10017
##미국립
##보이션
11209
##제작업
20003
##유지구
23124
40102
0238
IInd
##최종
프리아르
3221
현대표준
철도시설
##못하
인정도서
음반대상
베이스트
2509
3507
사회사상
과학교육
지나이트
3228
추가운행
0502
러시아이
3129
국제공연
자연대로
2135
0198
그리스트
##만들
3194
5023
##시켰
3186
Stos
기타이사
부대전자
스타이스
0150
서비스포
최고리그
4029
시작가능
지정보호
우리아르
마이스트
##과거
라이사이
0114
군사이동
항공사단
선정도서
3225
는다는데
대학교장
3231
대전문학
환경기술
##이것
제작사이
5097
0131
에너지나
##가까
지역대전
0248
브라이나
##설명
광주민족
3202
3106
0190
0350
표현대표
강화국민
##맜
##걔
##玭
##氾
##랲
##柾
##ἀ
##賆
##扣
##耙
제도서
##僭
##럻
##潧
##这
##윶
##밣
##搥
교회장
##←
##峭
##돚
##蘑
##脆
##煽
##騖
##뙈
공연기
##윁
##맗
##Պ
시대신
지도시
##鈗
##埻
##眇
##㷩
##禯
##앚
##苺
##읶
##翧
##恦
##փ
##՝
##轤
##ᡵ
##詛
##艘
##譎
##ṇ
##닠
환경제
##슽
##ﻩ
##ဇ
##髙
과정신
##팊
##飇
##睨
##ܙ
##髢
감독일
##ଣ
##쫙
##ڪ
##ｏ
##ｶ
##ﾅ
##丿
##얇
##瀦
##唹
##錧
##齦
역사회
##梶
##왇
##ὖ
##瘠
##ో
##뗏
##ఖ
##హ
##‘
##耜
##鮎
선정도
나이후
##戣
##薲
##隰
결정의
##莂
##犠
##攪
##◆
##ґ
##झ
##巪
##눼
##ٽ
##අ
##ශ
##ඳ
##痒
##郴
##缟
##㫆
##뵀
##蝣
##滃
##엊
상당시
##폘
##뭅
##쎗
##癎
공사용
##揽
정도서
##챳
##竅
##붜
##咏
##抳
##藉
##嬋
##蚓
##滙
##먑
##蝨
조사상
##Ꮿ
##ᓂ
##ᒋ
##䎩
##쮜
##羡
##桹
##웋
##掲
보통일
##邨
##，
##ဖ
##昣
##緄
##贏
##뮹
##쿈
##捒
기자체
##惃
##漒
##夸
##筹
##꽹
##肴
##뭏
전라이
##弇
##꽐
##픅
##顓
##밂
##滎
##쫏
##涖
##냡
##桱
##ଡ
##ڌ
ISt
##屝
##遒
##囈
##萠
하이후
##哖
##ፋ
##蒨
##宷
##⁄
##銕
##ჟ
##湋
##Њ
##ὁ
##ῃ
##쩓
##쪋
##ㅑ
##ๆ
##３
##헸
##鱲
##桟
##檻
##卖
단계열
##ໝ
##彠
민주변
##纥
##㼅
##琈
##ූ
뉴스포
##壳
##ኒ
##ሴ
##ካ
##괍
행정도
##搔
##癢
##譿
##姮
##댤
##ޯ
##ޒ
##ޭ
가지정
##혃
##怊
##轻
##酿
##轼
##놌
##뀨
##软
##ঠ
##छ
##ឿ
##ញ
##뎦
##햤
민주장
##澎
##훵
##ˋ
##ㄠ
##蝓
##蠃
##늰
##빋
##憓
##뭴
##ױ
##칢
##识
완전문
##诸
##蜩
##蕴
##桷
##ྦ
개시장
##ྙ
사이나
##옡
##릍
##ሬ
##ወ
##ፊ
##ጥ
##ጀ
##ኛ
##ړ
##ഥ
##쟙
##ᡞ
##渇
##ٷ
##碖
##Ъ
##뎝
##岵
##㮒
##劌
##셖
유지정
##辆
##嬙
##偲
시설명
##鑢
##昚
##㬎
##뤨
##챰
##ਕ
##蚖
##俒
##儐
##迨
##拵
##蔔
##疳
개최고
##剔
##薿
##滷
##븃
##箫
##嶮
##耇
조정책
##硡
##ㄷ
##紮
##癰
##穅
##۳
##烺
##錪
고대한
##䃤
##濙
##퇑
##篥
##儂
##竴
##鐏
##ㅍ
차이드
##箒
##쳘
##薱
마이탈
##鰈
##輹
##뒈
##銋
##ਚ
메이루
##嬢
##崝
##烶
##쓩
##赁
##腻
경제외
##蘖
##鉽
##峘
##㮨
##斃
##廕
##翱
##쟀
##』
##逡
##恞
##澬
##銒
##儔
##炷
##웉
##蝙
##樭
##虧
##甀
##뢱
##잋
##硃
##黁
##꾳
##玝
##僎
##僔
##觚
##漥
##퐝
##褲
##껐
##늅
##ᡩ
##ᡨ
##菤
##ధ
##擡
삼성공
대신라
##앟
##篦
##锷
나이상
진행위
전기능
##騈
##璈
##埇
##줫
##쩃
##彆
##殮
##￥
##祼
##섿
##쿹
##泠
##旀
##䓲
##睰
##넀
##鱣
##湮
##싄
##퉤
##좆
##壷
##썅
##暊
##췽
##滈
##扆
##綢
##墢
##珷
##텽
##剡
대사이
##箪
##뵴
##훕
##ڙ
##殞
##∮
##‐
##窕
##梠
##숸
##疼
##犂
##鮪
##蝋
##旉
##４
##慵
보이상
반대상
##紱
##橪
##繄
##놃
##泖
##剥
##幄
##饨
##憨
##됬
##늼
##쩸
##覬
##旂
##嚭
메이론
타이름
##絜
##இ
보이르
##蛸
##鶿
##瓆
##｣
##唏
##喈
##ϑ
##쉪
##偫
##插
##ದ
##ೇ
##탣
##嫖
##睃
##곘
최고려
##燵
성공사
##孊
##钻
##쫗
##휫
##荏
##湕
다시키
##值
##獏
##酔
##洢
하이론
##덣
인도시
규정도
##鄣
##帤
##㒚
##鉁
##瓿
##濶
##㫻
##嚮
##艽
##릌
##넋
##ϋ
##臀
##敱
##읅
##嫕
##豔
##ഉ
##Ἥ
##楂
##럐
##걲
##ဦ
##昑
##俺
주도시
##펵
##桦
##ӡ
시설립
##测
##ѣ
##鐺
##溆
##䃏
##㠎
##驌
##齣
제도로
주인도
##丧
##储
##谕
##詒
##鈇
##鎂
##띃
##킌
##쇡
##삵
##禌
##禝
##禨
##ਘ
##噫
##屢
##蕢
##ᓱ
##攜
다이루
##暋
##딭
##腱
##冪
##縈
##覿
##鑪
##咷
##舁
##屓
##怎
##扮
##ၼ
##閦
##鱓
##敲
##쾻
##鄖
##葷
##侦
##粢
배우수
##ḥ
보통신
##췩
##晒
##嶇
##攄
시기능
##揵
##唵
##摭
##誧
##쨰
##愰
##㥽
라이러
##鑂
##왘
##ਡ
##ੜ
##੍
##皜
##滕
##娀
##曔
##ዛ
##ው
##ጃ
##窄
##벝
##酎
##橡
##깩
##閬
##頽
##蕎
##墭
##栐
##泵
##圮
##菫
##鼬
##蒁
##珆
우주석
##莆
##麋
##갂
##笮
##嘓
##Ⅹ
##邾
##絺
##礦
##躒
##攫
##匄
##卍
##偘
##倐
##잟
##衮
##猎
##醴
##괏
##뇐
##쑝
##쎔
일으나
##ڬ
##ሐ
##ሜ
##甎
##仿
관리스
##杀
##鑡
##喟
##釩
##磺
##沦
##骄
##嘖
##迤
##磅
##祊
##ϕ
##拷
##薗
##敭
##飭
##迟
##脅
##씅
##蔲
##钧
##덷
##$
##槓
사고대
##鐳
##鏵
##잪
##윘
##韠
##售
##愬
##妠
##횽
##㴤
##핛
##梃
##攞
처리스
##錟
##伾
##퀏
##튽
##ㅜ
##ứ
##饃
##馒
메이후
##垤
##垴
##｢
##驮
##捞
##Ἴ
##Ἠ
##讷
##狒
##墕
##硷
##驹
##瓮
##鯊
##켝
바이미
##롷
##밲
##倾
##싁
##瘉
##钗
##谏
##菉
##邓
가지도
##渊
##睾
##籒
##졤
작전자
##＾
##眜
기자유
##쾁
##쒼
##聪
##蒋
##롶
시대전
##릠
##鲍
##虾
##麂
##旸
##叻
##袽
##褍
##蹬
규정치
##辋
##蕖
##錍
##罾
##邻
##擐
##磴
##腮
##獭
##鸠
##鏤
##禊
##龚
##仵
##咕
##잧
##鹭
지구역
##璷
##晭
##꺌
##垡
##쇳
##帷
##骅
##蘷
##밷
##褻
##溉
##嶰
##龛
##鳞
##阎
##齿
##钊
##䜌
##讲
##鹗
##垫
##冯
##堠
##赟
##郝
##堽
##缝
##驻
##颍
##맆
##卮
##迢
##醪
##臍
##螭
##綦
##껼
##땁
##谯
##瑑
##垾
##踝
##箬
##芜
##塅
##芫
##慟
##玕
##獬
##５
##덦
##铎
##凫
##渣
##龟
##쉉
##礤
##惯
##ቱ
##暿
##닜
##浛
##ೈ
##ଶ
##ડ
##忸
##她
유지만
##덯
##抒
##훑
##噠
##뉙
##ֆ
##Ｓ
##읭
##渗
##袢
반대신
##枏
##蒗
##퐐
##닡
우리스
##曅
##嵆
##즑
##츺
##炕
##蟒
##郸
##敕
##ୁ
##ଷ
##ନ
##ଦ
##鍮
이사람
##瓠
##祩
##혅
아이탈
##꿰
##閫
##隩
##訌
##罣
##巹
##०
회사고
##柜
##躽
레이루
##豕
##쁴
##牁
##氅
##釦
##褙
##碭
##潯
##뻭
뉴스터
##蜡
##篮
##寳
수도시
##碔
##뽂
##搗
군사회
##짘
##좔
##볙
##ū
##쉄
##낻
##筅
##鈸
##⋅
##ޖ
##묫
##僂
##炁
##Ո
##눤
##휨
데이사
##諌
##鷰
##鶉
##柰
##騾
##朞
##ᑭ
##疸
##祟
##뽝
##꺅
##۵
##싐
##ΰ
##븸
##穌
주요시
##ㄞ
##ㄢ
개인도
##ὕ
##菻
##瘧
##羿
##曻
##㝯
##漲
##븍
##枇
##毯
##荪
##뚯
##隤
##졩
##쏨
##솢
##韃
##偀
최대해
여성격
##ѹ
##ӈ
##캎
##쎴
##狠
##ᓯ
##ᕗ
##쑷
##锐
##ӳ
##졧
##긂
##杋
##몆
##꺾
##踢
##뤵
##頀
##〕
##柊
##袉
##㻑
##ö
##അ
##쬼
##禀
교수도
##撑
종교통
##铉
##ધ
이동물
##룐
##뒸
##ঢ
##욐
##틕
##ӑ
##ӗ
보다시
##ඹ
##ꆈ
##ꌠ
##뇹
##琁
회사용
##쯜
##ü
##ዲ
##몷
##娫
##럲
##춈
##堇
##暟
민주민
##멂
##躇
열차이
##앛
##ਧ
##찯
##ବ
수도서
##銛
데이유
##읋
매우리
##츧
##蘅
정보호
##惘
##됀
##삠
##闈
##챃
##꼇
##Ϲ
##뉸
##늴
##롵
##潒
##뜌
##ㄤ
##ূ
##凁
##焕
##昢
##璾
##瀯
##굑
##㞳
##®
##엏
##꽛
##妞
##难
##袭
##縞
##뭎
##纲
##读
##鉴
##悄
##렂
고대부
##磔
##볌
##䌙
##퉝
##뱔
##鷴
##뎗
##俞
##핢
##絟
##戢
이유명
##湝
##厙
##ឆ
##ጆ
##ጊ
##ፕ
##፣
##衧
##宺
##穼
##ﻷ
하이상
##ﷲ
##嗎
##옽
##પ
##ભ
##뜷
##뭣
##㝓
##怩
수도입
##鰱
##刕
##쉡
##뎍
##낕
##吖
##欸
##滽
##Տ
##謜
##㗡
##쩩
##较
##ឌ
##½
##ݣ
##‧
##곙
##곕
##곂
##쾽
##팉
##爨
##蒻
##ሔ
##옭
##夛
##ሩ
##邠
##荂
##얕
##뤳
##鍤
의회사
##盍
##娯
##㥛
##엩
##辑
가운동
##뺙
##ϲ
##杅
후보이
##㙫
조정의
##鷟
##줜
##땔
##抬
영국가
##≫
##꿏
##㻂
##吁
##ӏ
##隲
##쨘
##驊
##툘
##ἷ
##ᾴ
##ဒ
##섥
##愖
##哷
##솏
##쪗
##廑
##듁
##첳
##櫡
##麩
전국내
##삡
##譴
##麪
##홤
##묏
##
##큩
##맅
##陾
##뷤
동물리
##另
##츩
##栱
##ஆ
제작전
변경기
##疣
##젃
##푄
##깄
##撿
기관리
##畟
##盺
##搋
##汧
##虡
##鋕
##巅
주로마
##馧
##獠
##삳
##炖
##竄
##즁
##붼
##켱
##샂
##숡
##訾
##挻
##탢
##럅
##灦
##퓬
##븅
##몪
##쳠
##싿
##잦
##띈
##혱
##悕
##옺
안전통
##忝
##텻
##
##흿
##簶
##앍
##嗶
##憊
##덛
##촥
##릋
##퀫
##埱
##뷁
##솩
##뵘
##桼
##쩝
##ତ
광주장
##붵
##譙
##埬
##㙐
##궡
##闟
##롈
##煓
##骝
##媾
##귢
##眈
##窞
##뒥
##舷
##뿟
##떙
##씃
##춴
##慥
##댇
##걍
##쫭
##떘
##듹
##傜
##焃
##樛
##ޕ
##얐
##튑
##휄
##༎
##ı
##蒝
##갉
##㻶
##겆
##掻
##벉
##輓
##삜
##붆
##깓
##톧
##툲
##懁
靚
緦
鰈
좊
ⓧ
ฬ
‱
竞
譽
퍅
赧
縊
̉
녁
펐
駹
莋
碟
詛
痔
㏅
ゟ
갊
駑
儔
檔
넚
㏓
韰
℧
⚽
ഷ
볓
窃
丷
賟
Յ
Շ
ʘ
鄳
ﺒ
ヿ
旼
肱
饌
旲
祜
蛔
ճ
ծ
Ռ
較
옲
怊
衎
훜
脛
ﺷ
贔
狴
蚣
ᅱ
ᄃ
ᅲ
ẛ
轢
웝
ফ
ஜ
덨
틋
漼
騄
姸
卻
稈
ﾎ
夲
侧
̤
亰
Ӻ
అ
న
ആ
꾜
윱
뭰
怏
磺
栂
믠
屁
Ǌ
塏
鏜
ℒ
捩
乀
❤
頬
츙
튿
갰
멂
ᅷ
ᅸ
胰
₲
驊
껜
ڀ
쬠
覽
倗
魋
Ｚ
趉
ʤ
Ẓ
ỡ
辑
ᅁ
ᅅ
ᅂ
ᅄ
ⓡ
탙
ᆃ
蝌
ཨ
ॐ
ϛ
ᅶ
ṝ
值
캴
壕
捫
క
很
ᄸ
ᄥ
琫
綉
嶧
藹
妳
巿
轝
剱
拮
斟
ⓤ
雎
덙
Җ
ِ
ْ
ǜ
媧
讷
ཆ
蓂
퐌
꼳
Ń
ĺ
ଓ
孃
旵
惹
〟
칰
噍
祹
衦
亇
닺
ᄚ
슯
잗
풉
ṫ
琻
鍂
վ
ബ
쯕
쏸
џ
錮
餌
芯
酎
瞭
脹
Ἒ
싵
Ї
饼
籾
荸
ჭ
ℂ
ອ
륏
♍
豳
ན
ධ
ཤ
ኃ
ሥ
첮
ይ
벴
ŕ
ᇂ
㉾
ዘ
ܟ
ܓ
짼
ޙ
Ѵ
鑼
櫜
魃
퍌
Ǫ
ٰ
ւ
ᡤ
쓩
鲅
홥
뜽
阝
虧
遒
ㄆ
ㄥ

ᄻ
蚺
咯
囂
咩
퐝
姤
ﺟ
ﺗ
牦
ɞ
靛
ቢ
湺
ལ
좐
ډ
옫
枺
쟂
ገ
ው
ፀ
ኑ
聘
Ѥ
Ӕ
襃
춈
Ἵ
俁
偲
佖
헸
녔
뺵
ਨ
곷
ℎ
녤
㏜
ⵣ
✝
剽
ﺫ
ﻙ
ﻡ
ﻥ
⌉
貉
攤
ഫ
峭
ἥ
芜
竭
瑔
瞽
玦
笳
渙
緘
ਜ
ཞ
놰
鄶
蒹
綧
⒡
⒢
⒣
⒤
霙
ᆍ
鬐
₯
ℰ
慨
芿
鑲
嬌
◁
謾
뱐
琬
疵
撚
荐
뗌
ן
픔
夬
滂
幫
Ƨ
簑
쉅
昶
宓
侂
팦
튭
땨
彆
얅
瀾
ꥸ
ퟗ
봘
⚾
셕
樻
춋
븰
櫬
崐
☢
旃
橢
犹
腋
쨘
肜
彤
賨
篴
懽
˘
˛
¤
㎸
㎃
㏖
㎭
㎮
◐
㏇
㏂
㏘
┼
┛
┽
㉶
ⓢ
ⓦ
⑾
⑿
ⅵ
⅛
⅜
ｆ
ｋ
菽
ᠲ
姝
娍
阊
皞
蹕
甪
པ
퍁
閶
ｵ
ﾜ
粂
馰
廁
㈱
媞
銕
馄
츼
嬙
憙
絙
沌
軾
岛
鬆
氽
涮
쬥
紧
艀
췡
掴
☑
읠
넗
秤
Ą
衷
✉
♈
♉
♊
♋
♌
➿
➡
▫
〰
ŗ
麞
嵂
췽
̝
縝
ˁ
쵠
儡
謚
Ứ
鬻
늇
ຈ
驱
締
卉
寤
泫
閎
뙈
ﻓ
蝗
穣
黌
ҝ
蝾
敔
얊
ည
괞
꽅
겍
ҭ
Ջ
Ӡ
Ǯ
Ӈ
ӈ
凋
忤
殇
况
쫗
⑲
绝
给
섧
暝
ᇊ
끕
瞥
犭
捐
謜
뭋
叭
ᅯ
搗
弖
曄
혤
ᛃ
ᛜ
蠍
傈
鷦
ຫ
墺
ᆋ
漷
ဖ
琓
땁
酿
蜆
뷴
맜
떻
覧
栴
믐
쵀
穠
쏳
ਹ
ﻣ
ﻢ
ﻳ
અ
躋
蕎
酩
ㅤ
ᄇ
ᄐ
ᄓ
ᄖ
ᄰ
ᆀ
ᆂ
ᆠ
ᆣ
ᆰ
ᇄ
ᇉ
ᇕ
ᇬ
洹
羡
弃
媯
滹
觴
ተ
ስ
ሓ
ጨ
ኒ
ን
ყ
鄃
ﺿ
ﻗ

夯
埕
鋭
粄
鏖
莪
ϒ
腳
扱
齮
陘
懊
漹
됙
妘
鄣
廛
歼
₅
鍪
๒
捌
卌
阡
亿
ዞ
ጋ
贋
솦
۲
崤
桎
楫
癘

ำ
鴈
ᠬ
ʍ
릎
ｸ
ｲ
ﾙ
ﾕ
仆
迟
揣
쇰
쮜
껨
촹
﹒
规
埰
䦬
瀁
澆
꾿
熠
薌
仿
љ
壼
噓
핰
̊
₫
馒
珇
捞
倘
场
烂
ശ
轩
脉
蟯
굇
辿
栎
辋
绛
揉
沣
斄
觅
刚
秧
髠
墙
碛
焕
蔺
峦
试
｠
‟
ˉ
〞
︵
︹
︽
︿
﹃
﹘
﹚
﹜
﹗
﹙
﹛
ཐ
ᠶ
闾
岘
穐
极
拦
渫
ཡ
癲
锣
伟
滚
峒
垌
祷
驯
驮
榄
续
鄋
倾
确
棡
牆
ｩ
駢
뢔
₀
氹
쓿
繹
豁
鄺
湞
珥
圩
议
邈
辅
鬧
织
鉴
办
举
皤
标
溤
鲘
畅
驷
栍
巭
夻
篒
旀
哛
頉
塀
蓥
继
洸
椑
僰
潆
阙
鲜
视
滥
荥
忝
讲
坭
赶
恶
漾
层
苌
喂
么
崞
涔
兑
轻
笄
竖
岢
뺘
ǟ
ȯ
ȭ
弹
瀼
邮
뭬
测
郄
舛
褡
壩
產
仵
姈
掄
懌
垦
阚
慝
澍
밫
읶
鹏
抬
郓
须
铭
庠
纱
浥
驂
恼
艺
赊
浉
蚁
郧
砀
坟
͘
篔
虬
岵
侖
鸾
冈
湓
牯
芗
储
醪
淦
浔
旴
圳
掇
洈
쉉
磷
闯
酃
斫
陬
咱
쵃
枠
Ճ
鮀
礐
胪
迳
쬔
씸
攷
鑴
댠
聆
烘
蘫
賠
臯
惶
祺
鬲
瀷
殻
鄹
ा
糍
髻
勜
먾
鰱
虍
쁴
跛
麽
쿙
浊
ഹ
寔
叵
頫
벏
騏
२
˩
煞
쥑
홇
嚢
衲
꾕
뎡
潯
Ͷ
Ϟ
Ϡ
쒜
ⵃ
ⴷ
獫
爸
̚
⇨
ㄩ
稧
뺫





Ώ
ܝ
े
喘
먄
荇
힣
깠
얖
ᅎ
ᅏ
悚
淏
Ѡ
榻
梱
瘧
癰
顫
ᾱ
ǖ
ǚ
Ǚ
☧
鏟
ὸ
⁵
⁸
飭
ㄇ
澣
醢
켭
ஐ
જ
ḇ
믾
ዎ
ሁ
ગ
礬
緱
囯
㟓
变
喷
坧
堈
ᅌ
屄
〮
먕
囁
귿
몔
뗬
嵎
릔
芫
旽
ᓄ
獞
獼
猊
ẟ
ㄗ
设
话
뻴
ㄞ
ㄕ
ṉ
খ
頀
徇
薀
疇
ᅋ
摑
떰
Ⅺ
Ⅻ
跟
昺
孰
齡
킈
Ҫ
Ӟ
ʙ
됏
秕
잏
耄
笘
墻
ಸ
嚥
賾
గ
睔
躊
蛆
粲
ஊ
瑾
揀
얫
Ӽ
穌
㵒
癖
恍
쩝
텉
誂
倦
ฟ
苽
ㄔ
椄
瘋
蜩
ℏ
驟
ḗ
嗒
鑢
흴
Ḵ
顗
贼
慊
渻
蓽
믤
Ҿ
ቂ
ሊ
葯
쌰
ㄐ
疣
赐
该
Ɖ
枓
ใ
흝
攣
Ʃ
玢
횻
坩
鈎
닽
煆
Ɨ

娯
窘
懦
얭
Ǵ
ܛ
訾
针
푱
掣
鷟
짔
埜
뜁
孩
桌
奘
陁
驄
홛
鷂
蚤
웤
椪
瀕
輾
謬
俀
ҫ
讙
焱
妟
奻
罃
ల
ಪ
嘱
髏
끉
怙
荅
玅
瀯
銙
눼
軹
⓵
⓶
仄
鈐
缻
孵
屐
蝠

핝
싀
蹶
褾
밌






읇
鈒
ត
迺
≲
筺
慇
횄
酱
৳
朸
扐
쫍
鄗
앃
殽
ꡒ
錣
垕
‼
哱
歹
㣺
ᜊ
10000000000000000000000000000000000000000000000000000000000
10000000000000000000000000000000000000000000000000000000
##10000000000100000000000100000000000010000000000000000
10000000000000000000000000000000000000000000000000000
10000000000000000000000000000000000000000000000000
10000000000000000000000000000000000000000000001
00000000000000000000000000000000000000000005
10000000000000000000000000000000000000000000
100000000000000000000000000000000000000000
100000000000000000000000000000000000000001
10000000000000000000000000000000000000001
10000000000000000000000000000000000000
1000000000000000000000000000000000001
##1000001010101000000110101100000011
10000000000000000000000000000000000
##1001100010001100110001000110011
100000000000000000000000000000001
10000000000000000000000000000000
00000000000000000000000000000001
0000000000000000000000000000011
00000000000000000000000000014
10000000000000000000000000001
1000010000010000001000000016
110001000000000000000001000
10000000000000000000000000
1000000000000000000000001
##0000000000000000000000
110011001100110011001101
10000000000000000000000
11011010100000000000000
00000010101010000000000
00101000001010000000100
10001000100010010110010
10101010101010100100100
00000000000011000000000
00000000010101000000000
10000000000000110010000
11010001100011000011010
00010000000000000000010
00001000000000000000001
10000000100000000010000
00010000001100000000010
00001000001100000000001
00100000000100000000100
00010000001100000001000
00000000001100110000000
00010000001000000001000
00100000001100000000100
01000000001100000000100
01000000000100000001000
00100000001000000010000
00010000000000001100000
00001100000000110000000
00100000001000000000000
00100000010100000110000
00100000110110000000000
00000000000000101000000
00011000000000001100000
00110100000000010110000
01100110000000110011000
01000101000001010001000
01000100100010010001000
00000100010100010000000
00000100001000010000000
00000100000000010000000
00000001001010000000000
##10000000010000000004
1000000000000000000000
1000000000000000000001
000000000000000000001
##1000001000000000000
##1010100010101010101
##1000000000101010100
100000000000000000001
04021303021312140000
00000000000000000187
10000000000000000000
0000000000000000001
##10000000000000000
0000000001010000011
0010000001010000011
000000000000000001
004001003000000000
004001003000025000
##1000002005031017
000000103002000000
##1000000000000011
##1000001100000011
312312312312312312
##0401000231000017
10000000000000001
02102100020010206
00000000000000001
##201300032003220
00000000000000011
##100011000011000
##101011000000000
0101010101010101
0000000000000001
0110011001100110
1011011001100110
##12000000000000
1000000000000000
1000000000000001
##00010203040506
##0100150040009
003000000200009
005000000200503
202020202000003
000000000000000
010001010110011
000000000000001
201504022121505
##0302140040248
110100001100011
##0100113190318
20040501015007
00000000000001
##105030000000
##000000000000
##000000200506
15000000000000
20130215010009
20130325010016
11000011000011
##101001011011
20110320031408
##10000000011
##10030100016
0210150002008
0101100100000
0050010002005
0000000000001
0030010002005
##23020199226
1000000000001
1993011200209
##10000011011
1020130001350
1020130031209
1983113000209
1992022100209
1992013100209
500000000000
##1000000001
##1101011000
201301121017
200212020117
200220200018
##0325010323
201010102114
201210030018
000000000001
##0225020106
010401000000
110010101101
200110312005
100000000001
##1000101001
201201040113
##1000000000
##1000000011
000000001018
110320121104
201103200035
102013000135
102012013205
201001210187
201201190236
201002250109
020400000000
201501202017
199401190009
##1022021324
##0050000000
20022020028
20110220004
##gestation
##112200209
20121101214
##300240040
20000000000
##031101201
##132212504
##123200001
20140221103
00000000014
##123122194
##195030129
00000010038
00000000001
20110201003
20121225015
##120101240
20110131006
##210400189
20131002009
01000000029
##underston
##040300016
10000000001
##050100209
20150112188
20150112190
20120125008
##110400209
20110121016
##101101011
00000000011
##100011000
00100001011
00000010011
##100000000
##021200209
##130100017
00000000025
20110320115
##102000329
10201100148
10201300013
##231100124
##edentocht
##040100209
##113190204
##30010040
##21100121
##25011019
##13213211
##10405013
##35000027
##40231190
##32020303
##30230316
##20015014
##21015013
2013012209
##10200013
##30013036
##01013297
4003200315
0000400000
0300040016
##iatodent
5000150120
0000000007
##31300048
0000403506
1000220009
##15013016
0000013123
0000000010
##32020501
0002101970
2003102204
##24002120
##12120109
##21230125
##03030107
##14010307
0002100204
0002303208
0000001935
0001950000
0002022130
##10000301
##12002015
##19503101
##19000031
##03112007
##12000189
0000000001
##03240029
##10311202
##12150113
0000030400
##01103020
##10100006
##19020107
2005020309
0000000108
0000122136
1010130008
2013010209
2012102107
##32019826
##04010329
##25000124
##estandes
##20001015
##ramather
##12150009
##23140213
0000000002
0000150403
1001100110
1000000014
##25031308
0100000007
##30020097
1000000001
1100001989
##01100326
2012040409
0305000000
##estanden
##10000048
##32019024
1990012012
##02000000
##10011010
0010000011
##10010011
##14012008
2004032404
##31000203
2011032014
2011032003
##inerstow
##31001312
##24000023
0101000006
##12020113
##00001303
##21050003
##12010325
2012120507
##estother
2011012016
##20011016
##05002036
##23001107
0100000000
##04020304
##12202122
##32019321
0011000110
0000012027
##10220028
##12030009
##1212131
##2102132
##1310109
##1310124
##1310131
##1024011
##estades
500001006
##3000316
##0103036
##5021506
##1220007
##2050029
##2110009
##2110011
##estator
##3210123
##0313038
##0319038
##1300014
##0210131
##2000016
500000114
##2001040
##3201008
##3200218
##3201135
##1310101
##1020006
023112029
##1401508
##4023223
003000000
005000000
##0232238
000312001
Understor
##0110009
##4023012
##1931014
##0001502
021015000
##1195027
##3200210
##4005000
##0212006
##2215024
##3132018
##0000297
##0400050
##1219025
##aenthes
##3130105
##2103109
##4040217
##0225006
021021000
##0010004
##0000038
##3000026
##0010014
##2100107
000012136
005001000
001001002
##3050114
##3050122
##3050130
##3050203
##3050211
000000186
##3200006
##1300207
000197007
##redetor
##2104008
##1930328
##radecom
##4005001
##0100226
##0200326
000012316
##1001211
000213129
##3100117
##aechter
##1221035
##0000001
##0000005
##0000007
##0000008
##agestad
##3030408
100011001
##2030508
002004000
##1000123
##1000116
##4000207
##2500209
##1022301
##0105014
##tochter
##1130325
##ivetour
##1200405
000011948
003001000
##1130204
000004024
##1101205
##1130326
##1210114
213100206
000014035
##4011208
##1402317
##0201206
140004005
##3202209
##5000029
##3100248
##1002002
000001907
##0110097
##ctother
##etother
##0035023
101210310
##1319011
110110101
##4040189
100000001
##istotok
##artodec
##1301505
##3003219
219902325
##3020188
##1931324
##0131125
201122196
##1131903
##1001327
##ctodent
##1301228
##estolen
##3201986
##3000027
##andelen
001002006
##4030207
##1250317
201212122
203205000
##adentos
##1000011
##1000000
##1010011
000202005
000000038
##emather
102013007
102010009
##2200013
##ochthes
##ientoch
##ratoton
##1011505
##iveller
Aromather
##1210404
##1950014
##derston
##0010012
##1201007
##3105038
##agestan
##itother
121931318
##0000102
##1003097
000130027
000122310
##1223226
##romathe
##2250000
##2400108
201201009
000123040
000002324
##1400017
##1402104
##0100027
##1001011
##1210197
##1303018
##1004021
001012125
##0135001
##0110225
##5000297
##0112138
##2131031
##1990018
##0100506
130200110
150100040
150300250
005002001
##iveston
##012203
##101313
##112187
##190186
00000013
00000027
00000007
##000324
##123129
##002015
##212014
##210100
##210117
##210124
##210131
00400000
01000000
21010005
##032101
##erstok
10032009
##220327
10001010
10001011
##012405
##100120
##011214
##110010
20040124
40024004
##232115
##324035
##200199
##etoden
##210123
00001101
##211026
20130323
##002006
##스타이나이트
##201235
00000036
20010127
##000400
##300029
##200035
##213122
##219324
##100027
##221403
20040125
##320027
##320115
##405040
##utodet
##501405
##320107
##021029
##050203
##310219
##320216
##199024
##iedent
##201909
##320109
##350038
##031225
10000325
##050003
##311206
##302305
##artous
##000505
##040320
##300122
14000327
##erstow
20130316
00000005
##atotop
##estard
##122005
##125025
##212509
30000021
01140030
##013009
##taeder
##224015
##230005
##323028
##320202
00002136
00001028
##iveder
14000120
##000328
##112008
00002016
00101101
##312304
##321003
##100408
##101931
##301897
##401138
##103232
##201409
##502014
##202107
00003118
00001999
##205021
##205009
##200209
##204014
##021150
##201148
##213026
##202187
##301015
##000012
##003108
##000107
01000001
11000001
##198106
##323508
##210209
##199189
##301036
##350225
##150317
##011304
##estato
##140028
##112001
##ighthe
##ototom
##190208
##ineler
##204009
##100050
00030327
##002318
##121213
50000325
##240407
##110408
##230050
##tandem
##131002
##235027
##ndecom
##odecom
##400050
##323125
10000316
##220115
##000007
##030000
##202148
##120007
##echton
##ephton
50001327
##402403
##305014
##305015
##305016
##305017
##305018
##305019
##305022
00011010
00022324
00000309
00020014
00001248
##132350
##121007
##121008
40001097
40001124
20010405
##220015
##030127
##iverst
##199126
##132209
##ededel
##aetole
##101009
##023109
19040213
00000148
##120309
##ightor
00000324
##122312
##211404
00000008
##030305
##300009
10011000
##itotow
##301004
00023127
00021996
00001205
20000118
##301904
00031127
##301104
03010103
##224035
##310306
##100190
##102017
##000199
##010116
##120029
##324036
01100100
00011001
##010329
##120308
##400002
##todent
##estode
##505022
##atoden
19840117
19920102
19920129
19901011
19931213
19930120
19930126
19930117
19930316
19950317
19950126
19950127
19930402
19950102
19930105
19940107
##103105
##120005
20112012
##132208
##322321
##ardent
##estade
##atoche
##103129
##aechth
##123016
00000125
##500004
##011909
##102009
##402203
00019918
10102350
##tothes
00100004
00100008
00100018
00100020
00100022
00100024
00100026
##213030
##011508
00001097
##223224
00005038
00002005
##ineles
00021138
##313507
##atoles
##401128
##401148
##401208
##311998
##203250
##020115
##211007
##303115
19901211
19901031
19911210
19921023
19931224
##500250
##iethen
##013108
##019924
##oderst
##uestag
##aetoch
##502327
##104008
##omathe
##250000
04000016
##geller
##000118
##000117
##101187
##102048
##agedet
##219823
20000208
##213107
00001048
##199225
##199229
00002104
10110000
##212205
##405029
##300000
20101303
##aether
##199136
##011015
##199009
##idetos
##013005
##012007
10000101
##131106
##300048
40031004
10000001
##210148
##023226
##300205
20020321
##aecher
10000100
##radech
##040006
##ietoch
##estoch
##401023
19900016
00000022
##311903
##121507
00019905
##501107
##032014
##199107
##100036
##031984
##113209
##203125
##401187
00021005
##320136
##320126
##110148
##210009
##203015
##400007
04030104
##200026
##000027
##313121
##320310
##isther
13112013
13112014
13112012
12022013
##105028
##199186
##103014
##014003
##221317
##150138
00301204
00301201
##ardele
##100128
##300012
##203001
##ightop
##219012
##350135
##ctoder
##214017
##199248
##101214
##itofor
##311005
##000125
##otoler
##000025
##122116
##cetous
##110006
02001207
##200004
##110038
##232126
##ageper
##035030
##ratoch
##021248
00400313
11000011
00100011
##112009
##113019
10201008
##genthe
##131404
##501503
04002006
##000325
##andele
##150000
##000215
##500124
##200025
##201031
##402007
30001000
##idecom
##230118
##102012
##230318
##112128
##centop
##012027
##210322
##103003
##광역시기독교
##120009
##214013
##entole
##250188
##224010
##012500
##010016
##310102
##310119
##203004
##ivento
##120038
##210025
##210032
20102013
##itoche
##gestan
##entour
00013004
##etocht
##321102
##219313
##214004
##300013
01030002
01981126
##120035
##401406
##reders
10014028
##013017
##310029
##텔레비전통신
00023206
##020500
##021313
##024004
19911991
20032004
20122013
##502021
##103211
##023022
##200103
##000236
##arders
##101907
##atoler
##211020
##113011
##ideles
20000023
##302007
00012127
##101996
##311985
##ineton
##tardec
##112010
##102010
##rathen
20220016
##350019
##230506
##inetod
##102215
##ephthe
##320218
20030502
##202108
##phthen
##300318
##121005
##122038
##uecher
##iveton
##atotor
##101008
##350018
##itodel
##323108
##stoder
##ratour
##221407
23230187
##314009
##030221
##105006
##212008
##212006
##ctodes
##199005
##199006
##002109
##012148
##221124
##000004
##323250
19950324
19950407
12100110
19950506
20150509
20150502
##adeles
##entoch
03112007
##204026
20011229
20011215
20011208
20011027
20011020
20011013
20011006
20021228
20031227
20031220
20031213
20031206
20031129
20031122
20031108
20031101
20031025
20031018
20031011
20031004
20040508
20040403
20040327
20040320
20040313
20040306
20040228
20040221
20040214
20040207
20040131
20040110
20040103
20050402
20050326
20050319
20050312
20050305
20050219
20050205
20050129
20050122
20050115
20050108
20101226
20101219
20101212
20101205
20101128
20101121
20101107
20101031
20101024
20101010
20100502
20100404
20100328
20100321
20100314
20100307
20100228
20100221
20100214
20100207
20100131
20100124
20100117
20100110
20100103
20110508
20110501
20110327
20110306
20110227
20110220
20110213
20110206
20110130
20110123
20110116
20110109
20110102
20121230
20121223
20121216
20121202
20121125
20121104
20121028
20121021
20121007
20120506
20120408
20120401
20120325
20120318
20120311
20120304
20120226
20120219
20120212
20120205
20120129
20120122
20120115
20120108
20131229
20131215
20131208
20131201
20131103
20131027
20131020
20131013
20131006
20130505
20130317
20130310
20130303
20130224
20130217
20130210
20130127
20130120
20130106
20140223
20140216
20140202
20140126
20140119
20140112
20140105
20011230
20011223
20011216
20011209
20011202
20011028
20011021
20011014
20011007
20010408
20010401
20010325
20010304
20010225
20010218
20010211
20021229
20021215
20021201
20021027
20021020
20021013
20021006
20020505
20020324
20020310
20020303
20020224
20020217
20020210
20020203
20020127
20020120
20020113
20020106
20031228
20031221
20031214
20031207
20031130
20031123
20031109
20031102
20031026
20031012
20030504
20030323
20030316
20030309
20030302
20030223
20030209
20030202
20030126
20030112
20030105
20040509
20040502
20040328
20040321
20040314
20040229
20040215
20040208
20040201
20040118
20040104
20050508
20050501
20050403
20050327
20050313
20050306
20050227
20050220
20050213
20050206
20050130
20050123
20050116
20050109
20050102
20101225
20101211
20101204
20101030
20101016
20101002
20021130
20050507
20101127
20101120
20100327
19920115
19920219
19920220
19921130
19921201
19921202
19930104
19930202
19930317
19930318
19930322
19950215
19950302
19950210
20001230
20001220
20001216
20001212
20001209
20001202
20001125
20001106
20001104
20001102
20001101
20001028
20001027
20001026
20001021
20001020
20001014
20001013
20011231
20011221
20010122
20010120
20010119
20010118
20010117
20010116
20010113
20010112
20010110
20010109
20010108
20010106
20010105
20010104
20010103
20010102
20021219
20021217
20021030
20021014
20021010
20021009
20021008
20021003
20040120
20040119
20110202
20150317
20150316
20150217
20050210
20100303
20110303
20110201
20120409
20130101
20040303
20040301
20040122
20131001
20140210
20001225
20001201
20001024
20001009
20001003
20001001
20011008
20031001
20150403
20150323
20150227
20150210
20150203
20150112
##000195
20021220
##122018
##iretop
##190119
##19407
##13507
##01989
0010304
##30032
##10114
##00218
0000004
0000208
##19504
##artoc
##12313
##40007
##50197
##23124
3203236
##12003
##21036
##32404
##40103
##21124
##21215
##10118
##40006
##19935
0002018
##50214
##13027
##00208
1132213
##10205
2002011
0320229
##20017
##20103
4000227
##50401
##30407
##베이스포함
0110100
##21300
##10025
##30105
##05035
##20194
##20218
##istod
1010011
2400000
##20148
##21301
##21219
##aethe
##21229
##23131
##22000
##30329
##31324
##00229
##32103
##00132
0000227
0000189
##50224
##32015
##32018
##20211
##ototo
##기독교수도
##21217
4000026
##21105
##thtow
##10507
##10023
##31904
2319836
##03506
##30306
##30194
##12407
##20124
##ietow
##cetor
##30122
2110308
##21136
##ietop
0000136
##chtop
##20205
##31132
##21297
0198215
##15005
##31306
##11024
1125006
0000409
##phtod
##20022
##32315
##19913
##02308
##10301
0010110
##11406
##gelle
0010128
##32197
##32000
##05006
##20196
##21504
##02008
##30309
1220016
##12187
##21986
##22316
##21028
Aromath
##32005
3013010
4022506
##cetou
##00024
##32148
##32186
##02209
0000235
##10226
##10307
##시대하나라
##31218
0002129
##40402
##대사회사상
##19027
##itole
##40126
##50150
##30193
##40228
##otous
##32030
##30209
##40003
##40028
##01995
##entog
1000009
0000011
0000303
##BStor
##10116
##totoc
0002097
##23008
##32131
##25008
##32206
##32129
##entok
##21008
##50500
2000005
##20221
##13238
##19031
0002308
##50114
##00020
5030003
0402313
1994028
##23023
##02014
##22326
##13225
##40401
##05020
##20127
##03236
0004022
##22148
##31316
##30195
0000225
0000097
0000125
##tatos
##00304
4000028
##ardet
0000407
##12305
3100001
##21500
##chthe
##03211
##03225
##01020
##02317
##00007
##19012
##estay
5001297
##atoto
##대한민국민
##ivele
##23204
##12297
##tocht
##00250
##01936
##02230
0003509
##25007
##14035
##40038
##40125
##ochth
##04032
0022009
##30005
##32125
##50038
##10115
0300035
0002005
0001997
0000026
0002017
0001904
0002303
0000216
0000206
##21999
0003048
##01932
##00019
##03108
##30500
1121100
1121310
1321312
1120148
1120202
1121210
##uedet
0005006
##19018
0002024
0002127
0002013
##01132
##03148
##32313
##03112
0020101
##epher
##30196
0503208
2005001
3100005
##10019
##30202
##30203
##30204
##30205
0002028
##11329
##21040
##15013
##11216
2000006
##25010
##25025
##02123
0000036
##03150
##23006
##00017
2323188
##31204
##플레이전자
##03230
##03235
##21020
##14009
##10317
##12508
##11311
1310189
##chtom
##03214
##uthes
##22106
##국제공항공
##10315
##10319
##10326
0001004
##40506
##aetow
0002214
0002004
3110030
0000017
##echth
##00197
##10129
##10309
##11026
##11017
##19315
##40014
tochter
##31936
5010509
##15018
##01327
##11306
##19303
##19036
##11224
##20236
0311027
##30506
0001103
##13024
##01022
0001938
0001984
0000025
0002008
##12135
##11215
0000035
##31509
##전문학교육
##30311
##40117
##30004
##40118
##30316
##31013
##40123
##31136
##40124
##15017
0002014
##40106
##광역시기념
##13001
0001238
1992130
1992121
1993119
2000121
##30136
##31148
0000238
##00220
##40148
##02506
##프로마이스
##ratom
##10035
##30405
##tader
##10031
##dento
##aetol
##00325
##11327
##19006
##ephes
##aecht
0000104
2000038
##20011
##30107
##00311
##03505
0020015
##20223
##지역대학교
##31995
##22113
0190400
##10318
##20405
1032107
1020108
##cetog
0000116
##13105
##19909
##14036
##19927
##13228
##10401
##23505
##00138
##14026
##10012
##23207
##10404
##00110
2000009
##03105
##05016
##20106
##23230
##22105
##20316
2000004
##32040
1000001
1010100
##50115
##cthes
##31981
##14016
##uesth
##30029
0002128
##umath
##15097
5000036
##22409
##13016
##03125
##13117
##22026
##20329
##다고등학교
##02128
##21312
##19925
##11018
##40036
1010024
##emath
##40211
0000021
0000016
##gedes
##25040
##40119
##20129
##31038
1311203
1311207
##35014
##detok
##00015
##totop
##deder
##ceder
##40238
0013194
##01324
##01009
4000000
##02011
##31228
##11305
##13130
##03213
##03220
##03221
##iader
##getop
##22403
##00012
##chtor
##10189
##12019
0305004
##21985
##32038
##04048
##01029
##10011
##tatol
##01195
##cetot
##21206
##40324
##ersto
##uecht
##31197
##artop
##35026
##iatog
##50006
##11008
0002007
0002012
0002016
##22031
##00106
##00009
##31004
##02150
##31506
##14022
##ageph
##iedes
##00004
##21228
3123123
##21097
0000018
##12236
0119509
##13138
##stoto
민주인민공화국
##00217
##10402
##tadet
##05004
##역사이야기
2002217
##20238
##totor
##30018
0503100
##25003
##ardec
##iatol
##01213
##00315
##40405
##30000
##35000
##redel
1901987
##21236
##Ander
##ietom
##01205
##32138
##21309
##21126
##31986
##40509
##gedel
##01028
##00100
##12307
##31008
##31207
##01194
##02219
##20114
##19818
1303122
##20308
##11405
##50001
##02109
##00194
##00314
##02327
##20227
##20001
##13012
##50040
##30305
##30317
##50235
##01225
0014028
##30307
##01314
1232320
##tarto
##30009
##32101
0000204
##10136
##20126
##20140
##deles
##안전문학교
##artok
##20505
##35003
##02188
0230115
##50312
##01329
##32106
##todel
1991000
2013001
2235000
5000000
##03240
##25036
0000010
0000030
0000040
##20113
0030050
##40016
##23236
##32302
##01997
##01999
##초등학교수
##32025
##30189
##30006
##12203
##30118
##32205
4000004
##13297
##22114
##02029
##21135
##후지역사회
1000014
##35005
##23113
2035004
##40207
##31195
##12026
##00301
##프로서비스
##tatov
0012235
##21048
##21130
0001304
##03023
##공화국민주
##32317
##tatop
##35010
##12022
##23109
##32216
##50226
##03500
##00150
##19820
##02140
##01186
1502236
##20314
##11016
##11023
##19508
1992122
##10123
##12505
##10113
##23211
##23106
##11204
2001908
2001901
2001505
2002504
2002406
2002323
2002316
2002302
2002216
2002202
2002119
2002112
2002105
2003215
2003125
2003104
2013122
2004022
2004011
2001404
2001308
2001204
2001203
2001129
2001127
2001123
2001011
2002219
2002218
2002109
2002102
2003218
2003225
2000509
2000508
2000505
2000504
2000503
2000502
2000501
2000406
2000405
2000404
2000403
2000329
2000328
2000327
2000324
2000321
2000320
2000317
2000316
2000315
2000314
2000313
2000310
2000309
2000308
2000307
2000306
2000301
2000229
2000228
2000224
2000223
2000221
2000218
2000217
2000216
2000215
2000214
2000210
2000209
2000208
2000207
2000202
2000201
2000131
2000127
2000126
2000125
2000124
2000120
2000119
2000118
2000117
2000114
2000112
2000110
2000107
2000106
2000105
2000104
2000103
2001907
2001906
2001905
2001904
2001903
2001501
2001108
2001105
2001104
2001103
2001102
2002409
2002304
2002214
2002204
2002116
2002114
2003101
##00115
##00029
##02195
##00213
##00036
##00327
##40008
2003131
##00303
##01109
##20108
2130323
##1148
120310
100188
310000
##3187
100327
##2322
##2110
##레이야기
##taec
000017
500004
##광역시설
011201
500018
##1982
131100
101013
##이사이어
101001
150200
##바이스트
##Aler
213117
120211
##3232
##나이스트
301187
130023
##3231
501001
120035
121101
##2032
##텔레이미
131102
200038
210028
213223
020040
##3211
500009
130205
##2204
400205
010000
198105
102030
##0300
##htok
##1405
050509
010210
##2200
000198
121220
013224
231998
120014
140214
##타이사이
##정도시아
##2232
213018
##iveg
##부문학교
##리아시아
##3012
020500
011221
114000
##여성공동
130011
##2327
211350
019926
500003
##한국민주
120217
##시대학생
##1321
031900
313248
##항공사단
##토리스타
##1980
500315
##1948
110008
319404
000020
200236
100214
##차이나라
400118
##2231
200217
190000
125013
001406
000227
##위원회장
050406
##대사회사
##0011
321018
321218
##1935
##3240
##5032
##카이나라
##국제도서
##브라디오
210027
##플레이때
400000
##전국민족
014015
##2215
022008
200008
##0100
005007
##1950
120505
120306
000217
##2211
##2212
##인민주의
##1403
000115
122400
##동시리즈
211985
##1500
110197
##리아이나
104000
##비전라이
101212
115000
##정부대표
##나다이르
125000
##5050
##베이스타
021996
100250
031014
##나가리아
##2325
110404
302101
##htof
000211
##2113
##2019
##0198
100030
##3038
##1998
##2315
313024
##3014
##4018
200097
240404
##성공화국
##1931
120308
121136
##1197
400016
305029
219836
200019
##하이사무
##0194
##시대사회
##4021
##Arag
100110
001208
##2316
000327
300017
100127
##1902
##4035
##정부문화
100004
##2318
##3048
020406
##카이유럽
000307
200501
##3023
000328
##5027
199018
##타이나이
040204
001236
##학교육군
##남부대학
100008
##Thes
##주인터넷
##ctok
##4002
##1900
313200
##3198
198208
198507
199309
199304
198305
198509
000013
050201
402127
##시기독교
103226
##2302
##3130
110014
120107
119032
100024
##2300
##1036
112508
219908
##처리아니
030329
102400
225000
##htol
##주시마을
##2118
119304
110108
210100
201101
##3113
199312
101023
101025
##라이나가
##2203
##나라이지
198121
##2040
000012
121403
##1320
004009
##1194
##1991
130322
250404
##1992
132022
140017
200210
##프로마이
##0238
##회사이상
020221
##2138
001329
000297
000131
199029
199329
200115
200129
200218
##5005
120019
##정보기록
101150
201220
221240
130408
130407
130401
130405
130406
130404
130402
##2404
200100
##3508
##니아이미
100317
103224
000226
##메이야기
##나다이스
113050
220000
##남부르크
##5031
##0021
##라스타이
##Ster
##나이전쟁
100011
250302
202000
##주민주의
##공사카이
##타이스포
##프리아키
021011
135026
000122
000129
193507
##2131
##3235
##4097
##하이야기
##2205
##경기독교
030007
300101
210019
##조지정보
112000
##3123
200203
##교회사건
050204
000315
##3214
##에너지원
##tael
001000
##3122
##2189
123117
##2400
##데이스타
240305
500006
102025
050113
200328
120136
019928
##1408
050211
010202
##0012
130009
000097
112328
##스타이나
##주민국민
032128
##2320
020203
##광역시기
##현대하이
##루스타이
##제국회의
000187
##스타이르
##발전문화
210109
212309
210110
212310
##정보기획
020106
003006
200310
132311
021018
201989
##의사회장
024014
102010
##브라마이
001308
##2503
112028
122024
101316
112024
##etof
121994
315025
103102
121005
101907
001317
##2500
001001
013009
##htov
##3219
##4008
313208
##2208
122020
123219
124036
303008
##1897
112010
212010
##운행정보
##2018
132008
105040
##2101
##1936
##0231
140000
##5019
050130
010011
##나이전기
##우리아니
150196
122196
123198
124009
##1198
##1932
200112
##아이야기
##도시대학
120006
##스페이지
050031
##2100
##2187
212000
205000
312000
405000
305000
315000
##1906
100319
201000
140140
220200
##2321
015028
010003
##geto
##2403
201297
000505
##5003
135024
150407
##1501
102009
dentol
102108
##카이나오
122018
122508
123199
124011
000323
110001
##지지방법
##야마다이
##5012
000127
##처리스트
000128
##Chen
##0038
##베이스트
110027
040503
013017
##Alen
##공사이사
100328
##시민국가
##1186
##2023
320112
112320
140105
##3501
##2213
##3030
##토리아니
##4006
##1297
##1322
202012
198010
002248
##Ales
##Arad
200003
050028
##dede
120238
100228
##조선수록
##정부대회
140122
##메이나이
##0022
##광주도서
##taes
121011
##4025
000188
350400
211205
##학자연합
122100
123128
500100
100005
000022
##3507
110004
110006
##중학교회
223105
100028
##중화국민
001223
115021
##아이사랑
500500
##takm
##2119
##5026
301217
000138
000108
##0031
050101
050205
197027
##1317
##연대회의
001101
001206
001207
201508
##2236
150186
199503
000148
##민주의회
101906
012304
115001
002109
##2314
##항공사무
199209
199306
220203
002315
200022
100189
010001
##태어머니
##마이야기
223504
##5097
03102
31197
03110
03112
03113
15029
11505
30117
31017
##역대전
12508
02213
01500
01502
01507
##시장치
##가지정
02215
10196
##장관리
21032
10107
30509
11981
10250
00122
##자유지
40109
21306
##성우승
50022
10113
##문제국
##뉴스키
40326
##차이지
00214
##거나이
00318
02104
##방영어
02097
##제공식
10323
##경제도
##회사이
31901
##지정의
20102
02005
##고대로
13148
##교수행
50189
10501
11311
03203
11984
10120
01005
10212
10319
30036
00127
02010
##행정도
##운동안
##마이나
##이지방
##이전자
##지명칭
30007
01206
22002
##조지지
##특수도
00315
30309
13008
##인민국
##라이러
03127
##조선수
31193
##전자연
10187
##지역할
35002
35003
00327
35010
50040
50048
##위하이
50024
##요시아
##비아키
10209
##Cht
여자기독교
##관한국
##현대학
50007
00314
30405
11248
##비교육
02310
31109
02408
30032
23038
12018
##정의사
##북도로
11235
10126
10040
andec
02000
##라고리
10229
12015
10325
##라이후
##국제국
10008
##안전국
19700
11940
10148
##장관광
13508
11048
##요시장
10304
##나라는
##로마다
03000
10317
12109
03186
##위한국
##로마지
##요시스
10213
##는데이
13235
40131
19827
21125
00013
31013
01032
##시설치
11224
11210
11203
##마지하
19038
00225
30005
30017
30018
30040
30048
30102
30103
30106
30107
30112
30113
30114
30115
30123
30124
30129
11986
##동시마
##이지구
11038
14027
20508
12048
##마음악
11231
50508
22028
31100
01198
40008
##학자리
##사이루
##레이상
##가리즈
30308
11007
##세기념
00232
##태어났
00312
02026
19023
20201
00409
##부문화
광주시리즈
Andet
##FAr
00316
12097
##광주변
10104
35008
10006
10018
12017
12023
13502
20205
11200
03216
31207
31019
##성공식
13204
##역사무
##물리오
02205
##일제국
##차이러
데이나이스
40006
13125
01138
10202
13205
02023
02235
01008
40200
40100
##IIn
01002
13188
11225
30235
01504
경기도시장
25018
02218
03109
20200
50129
00213
22138
##방영국
11982
10318
11009
31303
31305
31308
##구역사
##시기념
00406
01906
19400
12300
12031
00132
00215
00228
IStor
19329
02317
23200
10235
##다이루
03208
22307
##사이사
##효과학
00116
31008
31006
15020
##연방영
10106
21506
19907
##지나타
03207
##불리그
15008
30026
01019
02126
toton
대한민국제
13121
##공사무
01216
22313
00107
##여자체
01120
11012
31002
##메이후
02219
detou
32300
01022
50108
13207
19922
10130
10121
##마이러
22032
22035
##정부문
##이후지
15003
##이동차
01996
01235
12021
14011
31206
##바이용
50117
##기타이
##의미국
##작사단
20097
31991
13120
23150
01029
10115
10190
23108
31984
##환경기
23203
13100
13200
20107
11023
03135
20113
15050
01319
03188
11327
23231
그리스페인
##년대회
##시기타
11995
13117
00405
##마다는
31404
10198
22009
##수도시
12013
##민국가
##경기념
03005
11025
##진행정
indem
00129
22308
24097
11014
##연대부
19701
##현대전
40002
21223
##조사상
##도시설
##지정책
##조지역
##다시키
##전기자
##아이러
13195
13194
50029
##베이미
11903
02008
##지지나
##지지도
##주시대
19906
19917
19918
19925
19928
19936
23107
19938
30206
20227
14006
22003
31502
10320
10328
11218
11504
10197
##인도로
11002
20405
21407
21106
##세계약
03228
andet
##작사상
30215
24007
10025
02112
32197
##공사단
##대통령
13250
##지나라
##한국가
02016
##전통해
04050
21984
50018
50327
23123
23013
00110
01000
50304
##불리카
20300
##조선언
##자기술
32121
31903
##ISt
31938
30195
위원회사업
##지역사
##최초기
31038
23100
05003
위원회사이
30131
##현대신
31320
##요시기
30031
10129
Undet
##사고리
23228
##과정의
##이전문
19315
21987
40106
10321
11020
11050
11325
11201
02116
11016
11216
12116
12216
12316
13016
13216
14016
15016
19316
19816
32216
32316
30016
30116
30216
30316
31016
31216
31316
20116
20216
20316
21016
21216
21316
22016
22116
22316
23016
23116
23216
40129
22048
21048
##메이나
##거리스
##조선거
01407
50004
13003
01010
31135
##군사이
##하이후
01227
23230
##도시기
##유지명
##아이론
12210
22007
##세기간
##아이용
##나이후
##실시간
##속도입
25004
12038
##대로서
##연기원
21001
20506
02029
##경제외
12019
01948
11350
##당시장
03189
31994
##비전국
50118
50140
21309
Stour
30003
30004
##군사용
##다시아
##속도서
12305
22327
##인기념
12117
20301
40230
32115
##카이루
11230
##처리스
19801
19001
10114
14021
##보여자
11948
20213
##라이탈
20032
03007
23023
22011
12297
11250
20117
10236
10401
##지역대
00306
22136
11993
##전기업
##사고대
10135
19926
##카이러
##철도로
11301
11307
11308
11309
11304
11305
22006
12028
메이지도쿄
01214
동물리스트
12506
12501
00120
00319
##경우수
##보이유
##이사랑
50307
##따라고
13028
21013
10193
##보이상
12204
12219
23217
24011
13214
32500
40500
10311
##건물리
23214
19706
##고대상
##시대회
30200
31036
01313
14005
03200
31200
21214
21321
21322
21323
21324
21326
21328
21329
22102
22103
22104
22105
22107
31022
21989
40028
##인기타
##차이루
##레이러
##이상태
00126
21006
##이나타
##차이스
32322
01130
30225
##이지나
05015
05019
05020
05021
05024
22024
##부대구
13124
00321
15005
11990
##메이전
12188
12214
12306
19323
12103
14020
##공사실
##행정신
10150
##동차량
##자리카
##데이전
19002
##카이상
##Sto
13128
11902
20500
20501
10123
##우리즈
12313
##출연합
##이사망
21196
21124
13112
01314
##베이동
신라이야기
##경기원
##남자치
02507
11003
##영어린
##새로운
19305
##정규정
30019
20132
##실제공
역사이야기
13226
13505
##Und
01211
31505
##우리그
##독일본
##서로스
00187
13031
##각주인
10118
##경영국
12199
##주시장
19812
##마이미
03024
00194
##상대신
##사이러
21038
13129
##학교통
03117
##행동안
19006
13006
IISBN
00403
##다고대
11208
10310
##평가족
##동안전
01026
31148
40238
##이어린
00138
10014
##다이유
##시민주
##주시설
12040
##후지지
00313
11300
##공사회
19506
02303
50400
##보통일
30306
11217
01218
19823
19824
19825
00317
##처리아
35004
23014
21036
19811
10026
01012
21903
##조정부
##지지하
##세기원
10215
12105
00204
00188
11227
01991
12309
##대상대
20010
30011
##지지정
##전국립
03501
50124
##경상대
01304
14038
##서로마
##전문화
나이사이
라는다는
공화국제
야구역사
나이스트
연대한국
지정도시
회사이미
실시스템
Sthe
보다이지
라이스타
개발생산
도시대상
프로그리
5018
의사진행
바이스타
열차이동
남부대신
스페이지
여성공동
민주민족
영국민족
국제작곡
수행정도
3232
아시아이
야마다이
그리스포
##필요
활동시대
이사이트
인물리아
4022
노동안전
정도시험
레이사이
0409
지정도서
표현대상
조선정신
제공개시
역사고대
정부대학
조선언어
##어떤
철도시장
중국제국
아이야기
다이유지
4026
경기도서
전기독교
타이유지
메이사이
조사이어
지구역사
부대통령
##최근
스페인해
베이르크
가리스타
정의사회
공사건물
통일반대
메이지원
전국회의
일제공격
인기독교
나이나이
마이사이
러시아르
표현대회
브라이사
국가운영
중국민족
고대한국
ofor
연대학교
교회사랑
아시아들
로마이스
스타이미
5036
전자기술
조선정치
그러나이
인구조사
스타이지
에너지도
아버지지
독일부르
본부대사
레이나가
에서로스
여자연기
비행동안
국제공개
한국가지
중화국제
##확인
아이나가
삼성공동
신라마을
레이스포
##모든
광주시설
보이스타
환경우수
육군사단
브라이미
dede
5032
dech
다이스타
하이스타
남부문화
안전기술
텔레스트
한국가수
본부대학
의회사무
##여러
사회의원
공화국내
후지나다
보이스포
바이스트
공화국민
반대부분
미국가족
위한국민
프리스페
정보기반
프로마지
자연대상
마다이스
동시리즈
바이사이
0229
사이동안
##특징
우수도서
일본부산
리그리아
국제작가
대전국민
성공개최
경제공사
이전국민
베이스포
제국회의
##까지
Stog
5031
##斟
##絣
##黽
##蕘
##ኮ
##鉈
##彞
##턔
##䃦
##漉
##〟
의사랑
##绳
##柶
##眀
##鐡
##弸
주인천
##､
시작사
##ὀ
전자치
본부분
##倕
##ㅅ
여기원
##崳
문자기
##ۂ
##雠
##Ύ
##挛
##剰
##殄
##劄
##穠
##쎠
##蒺
##飣
##鍪
여성우
##怱
##糺
##訸
##璚
##駔
##裰
##蔦
##鍸
##軋
##呰
과정의
진행정
##歚
##屭
##眦
##癥
##菀
##蟋
##ପ
##ୂ
##ମ
##騄
##⊃
##±
##∪
##ﾉ
##〒
##┝
##┣
##├
##∋
##冫
##ｗ
##廴
##㊥
수행동
자유명
##灊
전기술
##匂
##闹
대사상
##莧
##鉏
##紝
##寚
##絽
##䵋
##嫏
##蠾
##壝
FIn
조정도
##③
##④
##⑤
##笳
##騶
##痂
##撚
담당하
보통령
##ྭ
##穽
##飩
##裤
##衩
##紒
##躙
##赏
##璄
외부대
최고리
##珱
##ॐ
##ཾ
##ཎ
##ྃ
운동쪽
##ϛ
##婑
국제작
##ऴ
##ḷ
로마을
##帚
##猖
##昤
##ঁ
##Ꮵ
##ᒄ
##ᐸ
##ᒥ
##ᐅ
##ᑑ
##櫽
##遯
##㐎
##够
##葯
군대사
##粂
##枖
##彀
##၄
##֫
##ឡ
##褪
##趴
##凧
##蕈
##擂
주변경
##ഠ
##跟
연구간
##礗
##冄
진행동
##ϵ
##莩
이후지
영어서
##峼
##蠊
##蟜
##壆
##洫
##疯
##淟
##椛
##樉
##橞
##㰘
##榑
##柍
##隹
##଼
##ଆ
##趎
##辧
##戞
##曗
##晼
##㬚
##礴
##賎
디지지
##ሚ
##Ⅶ
##ὗ
##ἶ
##蹉
과정치
##轰
##
##ๅ
##ฌ
##∘
##″
##萧
##挟
##雰
##掟
##蘼
##ຝ
##ຢ
##ໂ
##ຟ
##奵
##භ
차지도
##ሠ
##ኰ
##즤
##撾
##ᒡ
##ቆ
##ޚ
공사이
중국내
##蚨
##趵
##诰
##緇
##॥
##<
##ۤ
##ៅ
##៌
##ឮ
##៍
##ឱ
나가지
노선택
##蝸
##媯
##嬁
##媺
##婭
##Ғ
바이후
##敝
##阅
##哟
##咾
##踔
##咧
##ሥ
지역할
##呦
##哦
##ሺ
##ዜ
##ፃ
##ቺ
##况
기자신
##蹭
##叨
##ٸ
##Բ
##髅
##腧
##鼾
##嬛
##諤
##矧
##娚
##瓐
##禥
##脾
##瞨
##ੂ
##搾
##柹
##挝
##耒
##雹
베이드
##ế
예정도
##殂
##篶
##爝
##殇
##㘗
##䃴
##莭
노동안
##Ἔ
##葕
##ㇼ
##譱
##鎊
##菔
나이동
##柁
##屺
##橏
##熅
##巙
##噪
##赬
##釟
##霂
##傚
##佸
##惴
##盥
##覯
##壄
##俙
##褂
##蔯
공개최
##坯
역대학
##碝
역대상
##贓
##骷
##蜥
##蜴
##鋿
##潪
##緜
##侒
##偡
##姍
##恌
##墊
##坷
##ᡧ
##懣
##峦
고대구
##ఆ
##窘
##㺶
##袵
##衱
##襻
##袡
##僶
##噂
##吓
##瘪
##负
뉴스트
신라스
##螳
##脘
##轡
##獯
##獫
##蚋
##衽
##鬢
##躡
##胶
##捶
##嘔
##穳
##嶬
높이어
##瀱
##鄘
##揉
##郅
##賰
##쫘
##泪
##嘘
##鼗
##悧
##퐈
##鵙
##膋
군사고
##误
##櫝
##똬
##壡
##啇
##㙺
##媜
##嬫
##嫃
##亐
##拋
##閪
##菶
제국회
##糉
##嚞
##灡
##刳
##丌
##碯
##鴬
마이상
마이유
바로서
##ힱ
##ã
##玵
##稑
##珵
##䘥
##䅅
##襐
##㷽
##鋉
##絍
##㬛
##橝
##灄
##綄
##煹
##欑
##駈
##↔
##Ⅳ
##悊
##嫫
##窴
##棆
##枟
##楎
##梈
##橓
##昬
##茞
의한국
##ږ
##閟
##扑
##銇
연결과
##佔
##甂
##娍
##虒
##㮙
##竤
##淔
##㒟
##皘
##២
역사단
##ኃ
##嫗
##锺
##埥
##梆
##瓓
##曚
제국내
##珎
##湦
##掬
##Դ
##媋
##Џ
##輧
##幘
##妸
기자기
##燱
##燬
##详
##楲
##筐
##謌
##淤
항공연
연대로
##檮
##丱
##酈
##厔
##啸
##蔟
##√
##ೊ
##ખ
각주인
문학생
##蹂
##鑣
##袱
##鋲
##净
##唳
##亰
##孖
##颱
##咆
##瞑
##粦
##箆
##蛹
##ჳ
##嚆
차이름
차지하
##Ἑ
##뫄
##籿
##畋
레이유
##鍴
##锲
##ý
##涀
##銊
##楀
##埞
##諵
##嘟
##卄
독일부
##Ў
##訒
##諳
##遽
##譁
가리스
##劔
다가지
##頞
##晹
##睧
##俰
##禼
조사고
##逴
##阯
##叠
##昵
레이르
##痔
##錆
##儧
##餃
환경영
의사업
##ﻴ
##ﻪ
##僅
는다가
##㜪
##瞀
##妺
##襨
##熑
마다는
##퍠
##鵺
##䧄
##Ⅲ
##ဵ
##ృ
##夌
##醂
##ҝ
##僵
##縢
##Ѓ
##瀇
##㫕
##☽
##飥
##竞
##ǯ
##č
##㫜
##霬
##鷫
##滮
##巚
##䡖
##傪
##棪
##懹
##卹
우리카
##䘵
##悺
##戬
##娴
##怿
##废
##减
##请
##斩
##↓
##秣
##嶹
##懴
##镁
과거의
##蠲
##玥
##祄
##黼
##禐
##澺
##㖿
##狎
##酆
##斶
##ὒ
##詺
##ﺬ
##梀
##咯
##脷
##巄
##屽
##雟
##辅
##邆
##溘
##嗈
##儛
##獼
##鷂
##拽
##盋
##渧
##蹋
##僥
##萝
##ႂ
##ႇ
##ႉ
##ၶ
##喦
##潇
##蝤
##蠓
##烩
##馍
##鯗
##椷
시기술
지지금
이유지
##㺩
메이전
##岋
##峍
##薳
##捴
##囀
차이동
##猟
##袮
##垐
##墿
##㙊
##垹
##鰕
##皖
##賱
##枻
부대전
##િ
계열차
##挚
##ᅱ
##绚
##颂
##敛
##ሓ
##ኺ
##ጹ
##ዑ
##ጻ
##饍
##ҹ
##ﻟ
##ﻒ
##䝴
##摎
##쓔
##赧
##鐭
##鏌
##吶
##頚
##莿
##蝾
##冗
##硼
##鴆
##鋃
##懂
##陥
##壠
##Ώ
##礒
##郤
##焠
##騑
##陘
##蒯
##秫
##帿
##㱓
##晄
##嵸
##昩
##豖
동시장
##薖
##蓨
##ð
수상대
##勧
##宀
##喳
##澨
##羚
##ሶ
##溸
##ዞ
##๔
##๗
##๖
년대구
##蹻
##菘
이전쟁
##Ｇ
##ऋ
참고대
##癨
##郙
##坃
##缉
##۸
대부르
##勑
##晠
##喧
##Ἦ
##Ϝ
현대표
##Ձ
##∧
##ｯ
##￣
##秃
부대회
##苐
##椵
##逶
##礡
##孕
##姱
##崢
##虻
##鑅
##∼
##估
##庞
##韂
##嗾
##嚙
##뭬
##巇
전국제
##闯
##灿
##缇
##噏
##睇
##騙
##洤
##徖
다고리
##鐩
##烿
##餝
##尅
##鍇
##鏺
##晵
동시민
##换
##鱚
##鄆
##槁
##燝
비교수
높이러
##飈
으로마
##瀍
##蘴
##铸
##䎙
##衖
##藼
##廌
##渃
##猚
##ộ
##攖
##悃
##宍
##땨
##脿
##鼋
##缥
##课
##ഭ
##Ｐ
마지만
##裱
##浏
##鬆
##Ἁ
##Ὅ
##犊
##帐
##鸽
##泔
##虏
##崄
##陕
경기술
##坬
##娲
##涡
##驄
조사무
##帏
##淌
##䁐
##芨
##靳
##芿
##链
##漓
##箦
##陲
##揫
##㦿
##牍
##歜
##ገ
##咔
##梴
##曣
##晀
##暚
##㬙
##ﻭ
실시마
##睎
##顱
사실시
##韉
##酣
##⌒
##≡
##┘
##囎
##赮
##✻
제공식
##皃
##ܶ
##ܺ
##㝵
군대로
##♬
##諠
##隒
##罢
##洭
##匮
##埒
##滏
##簀
##邹
##奋
##坍
##톼
##辐
이전국
##儈
여자체
##甽
##艚
##峃
##琏
##缆
##襜
##笕
##咢
##篒
##朩
제도입
##邡
##舣
##潦
##涪
##暆
##砾
##侭
##鉚
라이지
##桠
##鄢
##哙
##橦
##ྕ
##咪
##骡
##锌
##箩
##尪
##鶂
##凼
##漾
##拥
##飘
##罇
##嶁
##涬
##鴣
##崂
국가운
##旹
##钙
##娄
높이지
##镫
##圐
##圙
##垆
##嚦
##赶
##ǧ
##韆
##祴
##赾
##垧
##憭
##梉
##嗄
##帘
##鮨
##戳
##灒
##铛
군대부
##键
##碚
##塆
##ໜ
##颗
##憪
##鸾
##莺
##陉
##妪
##辇
##裢
##鴿
##咛
##囫
##囵
##篓
##堑
##唤
##桌
##髡
##烦
##夼
##郚
##兖
##徕
##齧
경영화
##凭
##䂮
##沭
##旄
##崮
##澪
##菏
##荥
##竖
##篴
##襤
##歠
##氤
##氳
##驂
##麐
##泬
##氵
##臉
##赭
##噓
##浥
##栾
##轲
##涨
##岖
##亳
##桄
##岈
##颡
##篭
##芡
##涣
##堨
##陔
##摆
##瓴
##笆
##笪
##簹
##硎
##瓯
##镛
##韬
##岝
##拟
##闽
##琸
##鵉
##桩
##谱
##堎
##洨
##濑
##圯
##砀
##苹
##泸
##钹
##鸶
##赓
##䵼
##灇
##鳜
##漋
##塝
##埫
##瀼
##ഛ
##鶱
##浒
##凢
##摄
##薮
##嵝
##栊
##鲸
##竀
##篱
##漯
##缨
##锹
##漖
###
##胪
##玑
##蒌
##缀
##缎
##篢
##坌
##崀
민주도
세기자
##અ
##韐
발표현
##贔
##賈
##ṛ
##ឬ
##છ
##ઈ
##萎
##槼
##ㅿ
##纁
생활약
##樅
##珓
##浢
##慍
가지방
조정신
##諛
세기타
##遬
##窋
##笞
대부문
##呱
##憔
##悴
##Ὄ
##頙
##羝
##穧
##劝
##縊
##敔
##嚥
##刋
##亼
##抶
##鰻
##楦
중요구
##笄
##胛
##鮭
##颪
##杪
##鎀
##䥛
##瞮
##砒
##綖
##巓
부대상
##讂
##启
##馛
##闞
##悆
##苻
##ଭ
##ୋ
##蕷
##蜾
##絨
장관계
##淶
##悚
##剃
##攽
##瓁
##嚅
##澫
##笵
##㫝
##६
##८
##皚
운영화
##阗
##᠋
##ᠥ
##鉸
##㕀
후지지
##猩
##胙
##舃
##襆
##昝
##埯
##睆
##泐
##壜
##窈
종교수
##ἄ
##Ͷ
##ϻ
##ͱ
##ἦ
##Ϟ
##ϙ
##Ϡ
##忩
##赢
##樨
##氂
##磧
라이르
##廏
##撦
##瑮
##躪
##湙
##汯
##ì
세기원
##ޙ
##蒡
##嶦
후지원
친구간
다시스
##겪
##瓉
철도시
##悽
##鶑
##鸋
##駧
##ፐ
##昃
##凊
##颻
##翫
##輶
##飱
##飫
##誚
##䔲
##玜
##Ѻ
##Ѹ
##Ѿ
##貅
참여기
##酲
##ᑖ
사단계
##ᄂ
##旲
##杻
##鴠
##۷
##枡
##蓺
##璬
##曌
정의회
##ᑎ
##ᑐ
##痆
##䫻
##Ґ
##肤
##ૂ
##ૃ
##糲
##樔
##ሁ
##ኚ
##倮
통일제
##禖
발전문
##膈
주민족
일제도
##莵
##腥
##䥃
##緃
##礱
##脸
##饺
##酥
##镶
##鹄
##稣
##脐
##椪
##砻
##纽
환경우
##脏
##挂
##猕
##阙
##畀
기존재
##鴌
##阀
##沣
##怙
##倛
##桧
##膉
##ㆁ
시작가
##昛
##俾
##驎
##訕
##韌
분야구
##兑
##ᐢ
##ᑳ
##ᐘ
##ᐱ
##ᐩ
##谋
##跤
##缕
##栲
##癀
##坻
주인구
##缵
##쎼
정부르
##莅
##ഖ
##ॅ
##ž
역시설
##陬
##ෂ
##詥
##ﻯ
이유일
불교통
규모델
##ﺑ
##ﻲ
##ஏ
##骼
##脛
##躯
##Ｍ
##《
##ӹ
##麞
##ᓐ
##龒
시장관
##菙
##嗹
##絁
##㢱
국가지
##軹
##હ
##ચ
사이용
##篡
##妝
##熄
##賺
##弒
##膓
##鴒
##凈
##䆃
##鵩
##恫
##Ꮃ
##Ꭹ
##Ꮼ
##Ꭿ
##Ꮝ
##Ꮧ
##Ꭰ
##Ᏼ
##Ꮻ
##ᐊ
지정의
대구간
##橐
##ᖃ
##掄
##葟
##ኣ
##ä
##ӝ
##ӟ
##ӥ
##繘
##汞
##呁
##ꁱ
##ꂷ
가운영
##茁
##
##榿
##䥧
##烔
##飒
레이상
##ﺸ
##瞎
##ᄅ
##孥
##ဉ
##㻛
##湷
##鋎
##芄
##燇
마지도
##鑵
##鱇
##ຶ
##Ā
##Ś
개인정
##籽
##煠
##䞭
##氛
자기본
공사실
##笁
##佉
##औ
##େ
##ㅆ
##օ
보이론
##潏
##ৰ
##谁
##뚀
##僰
##ጎ
##Է
##蝂
완전기
##蒹
기관광
##鋐
##臶
##Ᏻ
##Ꮕ
##Ꮟ
##见
지하이
건설치
##ㄴ
##ঃ
##澰
##艫
##飚
물리오
##娸
##溙
##汃
##浆
정의원
##瑂
##蟷
##ൗ
지정신
##ş
##姤
##萵
##篨
##毱
##媵
##爍
자연구
##弈
##瀲
##鸕
##嗓
나이전
##俪
##诱
##枪
##顽
##惗
##鷼
##焱
##騁
##滻
##旐
##鸵
##誹
##స
##歉
##您
##穙
##徘
##嘿
유지명
##ۀ
지역시
##柲
##㵧
##郜
차이론
##灭
##压
##恶
##贼
##评
조사망
##墋
##Ђ
군사망
##壖
##枦
##櫨
##儹
##馠
##㦀
##忄
##譍
##霱
##癭
##钁
##縶
##Խ
##豳
##龢
##浟
##㥄
##搴
##卲
##劼
##翶
인기자
##ቃ
##ሆ
##ዚ
##ጂ
##ፉ
##ዘ
##枌
나이루
선정보
##ӊ
##擱
##ಣ
##嚕
##બ
##ਅ
##۱
는다른
##盝
##쀄
##盯
##玻
##庈
##ෞ
##齮
##眯
대부대
시스포
광주변
관광주
당시기
##㐌
##ൾ
##ㄊ
##ㄋ
##ㄌ
##ㄎ
##ㄫ
##ㄑ
##ㄬ
##ㄒ
##ㄔ
##ㄕ
##ㄖ
##ㄘ
##ㄙ
##ㄜ
##ㄝ
##ㄡ
##ㆲ
##ㄦ
##ㄩ
##楱
##鯖
##璛
##熀
##嵱
##鏷
##䂠
##澓
##峑
##嵾
##柝
물리아
인도서
##茪
##螻
##蛄
##＠
##梲
##綮
##㮋
행정신
베이러
##噤
참가지
##黴
전문화
##ڨ
##頏
##雳
##峇
##衔
##创
##签
##坏
##胁
##饰
##浓
##认
##逛
##费
##扩
##给
##壼
##揶
##胊
##歪
년대학
##麑
##廔
##獷
##詈
개시기
##උ
##ឺ
##ឧ
##鼔
레이론
##鐤
##㖋
##悙
##翆
##→
##椧
발전체
##ਯ
##◎
##≧
시대학
##鰾
##堝
과정책
##涩
##爥
##淊
회사무
##霫
##餞
##糀
##˙
##鷥
##柤
##鳃
##렦
##ፅ
##ሉ
##㷃
##奣
##爌
##ኔ
##毌
완전통
##ஐ
##鋋
##闋
##ὼ
##膣
##腩
##倘
##瑫
##匕
##歃
도로마
##鱵
##哳
##臛
##蠔
##쬬
##偎
##瘇
##訚
##繳
##籔
높이나
##眸
##旆
##榼
##璍
높이사
공사단
##柞
##棼
##璯
##玽
##掀
##琙
따라는
보이사
##挫
##亍
##鈑
##騵
##騟
##槀
타이동
##搶
남부문
##ષ
##ਭ
##墇
##ï
##湴
##徯
##鍹
##悸
##ῄ
군대하
##趮
##鐻
##虩
초기간
##桝
##〇
##麏
##叮
##嚀
##駙
정의하
지명칭
상대회
##迿
##翃
인기원
##裾
##襬
##窙
##阤
##牂
##玪
이동차
##壾
##౦
##咺
##歂
##玴
민주로
##Յ
##亟
##秏
##擶
##隽
##蹶
##莹
##偗
##糰
고리그
연기업
##衕
##絙
##紾
베이미
##嘢
##婴
##㺚
부산업
##仆
##撕
##佷
##悷
##倅
##鋡
##巘
##谐
##哄
##繃
##閂
##閧
##霰
##螫
##唼
##㳣
추가지
##詘
##頰
##餒
##紵
##棻
##ತ
##嗤
##煲
##搞
##趁
##叼
##呢
변경우
##嶻
##㒤
##逿
##ஹ
조지원
타이전
##瘾
국민국
학교회
##尟
##纔
사이미
##鷇
##澀
##袨
##衯
##裯
##罹
##涸
##捫
##緤
가지지
##ଟ
##କ
##塐
##ూ
##殴
##ڻ
##翛
##旵
##褎
##珛
주인물
##鐇
##鏦
##翚
이사망
##膃
##肭
유지하
##沕
##鋗
##蚯
행정규
경기본
##嬈
##螽
##皁
##頣
##檛
##吨
##籁
##迵
##珧
상대신
##蚠
##嚚
##佞
##鄏
##蕕
##稺
##ἅ
##䵣
##耷
##ㅂ
##㵮
##䄷
##斁
##㵓
##麽
##籟
##抔
##㽥
##聵
활동안
##釁
##蜚
##㶱
##骻
##碬
##㺹
##濴
##茎
##娇
지지원
##嘬
##
##閡
##
##惓
##箙
##韡
##煋
##绽
##餙
##筇
##筭
##㵑
##鯛
##啚
##垜
##ㅈ
##龔
최대신
##溷
##賸
##魋
##牼
##貙
##妵
##裹
##‑
##榧
##淍
##簵
##箮
##靫
박사진
##菸
##鈦
##鍺
##錶
##瘖
##该
##ච
##涕
##㈜
##ସ
##ଧ
##ଲ
##ହ
##蓳
##疌
##倢
##伃
역사진
##㵙
##踩
##舀
##矾
##筷
##滤
##搅
##卤
##滭
##銲
##㹜
##泇
##琔
##咐
사상당
##藹
자리카
##贒
자유럽
##㑽
##鎏
##戭
##贷
##谨
##谣
##瘼
##畡
##愽
##烊
##玺
##攴
##褋
반대하
전기준
##嶂
##৳
##ㄱ
##玃
##礝
##㥔
##뗴
##惔
##炔
##㴆
##骘
요구간
##愓
##桎
##鞶
##褫
##嗑
##胏
##畭
##牿
##稊
##貮
##纆
의사고
##９
##䑸
##䎱
행정치
##羂
외부분
연기반
다가족
##ෑ
##夺
##羗
##忧
##嫝
역사무
##壒
##嚵
##冓
##鮈
##鬷
##扌
##剽
##ֳ
##ɣ
##꒿
##嵜
##擿
##媟
##㥌
##墵
##瀓
##檼
##趼
##鶚
##厮
소설립
##̆
경우승
##巋
데이전
데이때
##绰
##ෛ
##疔
##鏟
##赇
##狱
##꺠
이사용
##颖
##酤
##脃
##滢
##鲨
##蘤
##睒
##༅
##闺
##觜
##ֽ
##ਂ
##ਠ
시대표
##硢
##璱
##泚
##䇏
##譼
##媄
##娡
##嶚
발생애
##琺
##馺
##饪
##㰒
회사업
출전체
##촤
##煃
##熞
##忼
통일반
##咊
철도입
차이전
##驟
사건물
##ῤ
##ῥ
##䭲
##㼀
##蕡
##栝
##昈
##礿
가수도
##翀
##ἕ
##ஈ
##佥
##儵
성공식
##鶩
##絛
소비행
고대회
##Ὁ
##竘
##漼
##浯
##갃
##갅
##갆
##갇
##갊
##갋
##갌
##갍
##갎
##갏
##갘
##갟
##갡
##갢
##갣
##갥
##갦
##갧
##갨
##갩
##갪
##갫
##갮
##갲
##갳
##갴
##갵
##갶
##갷
##갺
##갻
##갽
##갾
##갿
##걁
##걂
##걃
##걄
##걅
##걆
##걇
##걈
##걉
##걊
##걌
##걎
##걏
##걐
##걑
##걒
##걓
##걕
##걖
##걗
##걘
##걙
##걚
##걛
##걜
##걝
##걞
##걟
##걠
##걡
##걢
##걣
##걤
##걥
##걦
##걧
##걨
##걩
##걪
##걫
##걬
##걭
##걮
##걯
##걳
##걵
##걶
##걹
##걺
##걻
##걼
##걽
##걾
##걿
##겂
##겇
##겈
##겎
##겏
##겑
##겒
##겓
##겕
##겖
##겗
##겘
##겙
##겚
##겛
##겞
##겢
##겣
##겤
##겥
##겦
##겧
##겫
##겭
##겮
##겯
##겱
##겲
##겳
##겴
##겵
##겶
##겷
##겺
##겾
##곀
##곃
##곅
##곆
##곇
##곉
##곊
##곋
##곌
##곍
##곎
##곏
##곐
##곑
##곒
##곓
##곔
##곖
##곚
##곛
##곜
##곝
##곞
##곟
##곢
##곥
##곦
##곩
##곪
##곫
##곭
##곮
##곲
##곴
##곷
##곸
##곹
##곺
##곻
##곾
##곿
##괁
##괂
##괃
##괅
##괆
##괇
##괈
##괉
##괊
##괋
##괎
##괐
##괒
##괓
##괔
##괕
##괖
##괗
##괙
##괚
##괛
##괜
##괝
##괞
##괟
##괠
##괡
##괢
##괣
##괤
##괥
##괦
##괧
##괨
##괩
##괪
##괫
##괬
##괮
##괯
##괰
##괱
##괲
##괳
##괶
##괷
##괹
##괺
##괻
##괽
##괾
##괿
##굀
##굁
##굂
##굃
##굅
##굆
##굇
##굈
##굊
##굋
##굌
##굍
##굎
##굏
##굒
##굓
##굔
##굕
##굖
##굗
##굘
##굙
##굚
##굛
##굜
##굝
##굞
##굟
##굠
##굡
##굢
##굤
##굥
##굦
##굧
##굨
##굩
##굪
##굫
##굮
##굯
##굱
##굲
##굶
##굷
##굸
##굹
##굺
##굻
##굾
##궀
##궄
##궅
##궆
##궇
##궊
##궋
##궍
##궎
##궏
##궑
##궒
##궓
##궔
##궕
##궖
##궗
##궘
##궙
##궚
##궛
##궞
##궟
##궠
##궢
##궣
##궥
##궦
##궧
##궩
##궪
##궫
##궬
##궭
##궮
##궯
##궰
##궱
##궲
##궳
##궴
##궵
##궶
##궷
##궸
##궹
##궺
##궻
##궼
##궽
##궾
##궿
##귁
##귂
##귃
##귅
##귆
##귇
##귉
##귊
##귋
##귌
##귍
##귎
##귏
##귒
##귔
##귕
##귖
##귗
##귘
##귙
##귚
##귛
##귞
##귟
##귡
##귣
##귥
##귦
##귧
##귨
##귩
##귪
##귫
##귭
##귮
##귰
##귱
##귲
##귳
##귴
##귵
##귶
##귷
##귺
##귻
##귽
##귾
##긃
##긄
##긅
##긆
##긇
##긊
##긌
##긎
##긏
##긐
##긑
##긒
##긓
##긕
##긖
##긗
##긘
##긙
##긚
##긛
##긜
##긝
##긞
##긟
##긠
##긡
##긢
##긣
##긤
##긥
##긦
##긧
##긨
##긩
##긪
##긫
##긬
##긭
##긮
##긯
##긲
##긳
##긵
##긶
##긷
##긹
##긺
##긻
##긼
##긽
##긾
##긿
##깂
##깆
##깇
##깈
##깉
##깋
##깏
##깑
##깒
##깕
##깖
##깗
##깘
##깙
##깚
##깛
##깞
##깠
##깣
##깦
##깧
##깪
##깫
##깭
##깮
##깯
##깱
##깲
##깳
##깴
##깵
##깶
##깷
##깹
##깺
##깼
##깾
##깿
##꺀
##꺁
##꺂
##꺃
##꺆
##꺇
##꺈
##꺉
##꺊
##꺋
##꺍
##꺎
##꺏
##꺐
##꺑
##꺒
##꺓
##꺔
##꺕
##꺖
##꺗
##꺘
##꺙
##꺚
##꺛
##꺜
##꺝
##꺞
##꺟
##꺡
##꺢
##꺣
##꺤
##꺥
##꺦
##꺧
##꺨
##꺩
##꺪
##꺫
##꺬
##꺭
##꺮
##꺯
##꺰
##꺱
##꺲
##꺳
##꺴
##꺵
##꺶
##꺷
##꺸
##꺹
##꺺
##꺻
##꺿
##껁
##껂
##껃
##껅
##껆
##껇
##껈
##껉
##껊
##껋
##껎
##껒
##껓
##껔
##껕
##껖
##껗
##껙
##껚
##껛
##껝
##껞
##껟
##껡
##껢
##껣
##껤
##껥
##껦
##껧
##껨
##껩
##껪
##껬
##껮
##껯
##껰
##껱
##껲
##껳
##껵
##껶
##껷
##껹
##껺
##껻
##껽
##껾
##껿
##꼀
##꼁
##꼂
##꼃
##꼄
##꼅
##꼆
##꼉
##꼊
##꼋
##꼌
##꼎
##꼏
##꼑
##꼒
##꼓
##꼔
##꼕
##꼖
##꼗
##꼘
##꼙
##꼚
##꼛
##꼜
##꼝
##꼞
##꼟
##꼠
##꼡
##꼢
##꼣
##꼤
##꼥
##꼦
##꼧
##꼨
##꼩
##꼪
##꼫
##꼮
##꼯
##꼱
##꼲
##꼳
##꼵
##꼶
##꼷
##꼸
##꼹
##꼺
##꼻
##꼾
##꽀
##꽄
##꽆
##꽇
##꽊
##꽋
##꽍
##꽎
##꽏
##꽑
##꽒
##꽓
##꽔
##꽕
##꽖
##꽗
##꽘
##꽙
##꽚
##꽜
##꽞
##꽟
##꽠
##꽡
##꽢
##꽣
##꽦
##꽧
##꽨
##꽩
##꽪
##꽫
##꽬
##꽭
##꽮
##꽯
##꽰
##꽱
##꽲
##꽳
##꽴
##꽵
##꽶
##꽷
##꽸
##꽺
##꽻
##꽼
##꽽
##꽾
##꽿
##꾁
##꾂
##꾃
##꾄
##꾅
##꾆
##꾇
##꾈
##꾉
##꾊
##꾋
##꾌
##꾍
##꾎
##꾏
##꾐
##꾑
##꾒
##꾓
##꾔
##꾕
##꾖
##꾗
##꾘
##꾙
##꾚
##꾛
##꾝
##꾞
##꾟
##꾠
##꾡
##꾢
##꾣
##꾤
##꾥
##꾦
##꾧
##꾨
##꾩
##꾪
##꾫
##꾬
##꾭
##꾮
##꾯
##꾰
##꾱
##꾲
##꾴
##꾵
##꾶
##꾷
##꾺
##꾻
##꾽
##꾾
##꾿
##꿁
##꿂
##꿃
##꿄
##꿅
##꿆
##꿇
##꿊
##꿌
##꿐
##꿑
##꿒
##꿓
##꿕
##꿖
##꿗
##꿙
##꿚
##꿛
##꿜
##꿝
##꿞
##꿟
##꿠
##꿡
##꿢
##꿣
##꿤
##꿥
##꿦
##꿪
##꿫
##꿬
##꿭
##꿮
##꿯
##꿱
##꿲
##꿳
##꿴
##꿵
##꿶
##꿷
##꿸
##꿹
##꿺
##꿻
##꿼
##꿽
##꿾
##꿿
##뀀
##뀁
##뀂
##뀃
##뀄
##뀅
##뀆
##뀇
##뀈
##뀉
##뀊
##뀋
##뀍
##뀎
##뀏
##뀑
##뀒
##뀓
##뀕
##뀖
##뀗
##뀘
##뀙
##뀚
##뀛
##뀞
##뀟
##뀠
##뀡
##뀢
##뀣
##뀤
##뀥
##뀦
##뀧
##뀩
##뀪
##뀫
##뀬
##뀭
##뀮
##뀯
##뀰
##뀱
##뀲
##뀳
##뀴
##뀵
##뀶
##뀷
##뀸
##뀹
##뀺
##뀻
##뀼
##뀽
##뀾
##뀿
##끀
##끁
##끂
##끃
##끅
##끆
##끇
##끉
##끋
##끍
##끏
##끐
##끑
##끒
##끖
##끘
##끚
##끛
##끜
##끞
##끟
##끡
##끢
##끣
##끤
##끥
##끦
##끧
##끨
##끩
##끪
##끫
##끬
##끭
##끮
##끯
##끰
##끱
##끲
##끳
##끴
##끵
##끶
##끷
##끸
##끹
##끺
##끻
##끾
##끿
##낁
##낂
##낃
##낅
##낆
##낇
##낈
##낉
##낊
##낋
##낎
##낐
##낒
##낓
##낔
##낖
##낗
##낛
##낝
##낞
##낢
##낣
##낤
##낥
##낦
##낧
##낪
##낰
##낲
##낶
##낷
##낹
##낺
##낽
##낾
##낿
##냀
##냁
##냂
##냃
##냆
##냊
##냋
##냌
##냍
##냎
##냏
##냒
##냓
##냕
##냖
##냗
##냙
##냚
##냛
##냜
##냝
##냞
##냟
##냢
##냤
##냦
##냧
##냨
##냩
##냪
##냫
##냭
##냮
##냯
##냰
##냱
##냲
##냳
##냴
##냵
##냶
##냷
##냸
##냹
##냺
##냻
##냼
##냽
##냾
##냿
##넁
##넂
##넃
##넄
##넅
##넆
##넇
##넊
##넍
##넎
##넏
##넑
##넒
##넔
##넕
##넖
##넗
##넚
##넞
##넟
##넠
##넢
##넦
##넧
##넩
##넪
##넫
##넭
##넮
##넯
##넰
##넱
##넲
##넳
##넶
##넺
##넻
##넼
##넽
##넾
##넿
##녂
##녃
##녅
##녆
##녇
##녉
##녊
##녋
##녌
##녍
##녎
##녏
##녒
##녖
##녗
##녙
##녚
##녛
##녞
##녟
##녡
##녢
##녣
##녥
##녦
##녧
##녨
##녩
##녪
##녫
##녭
##녮
##녯
##녰
##녱
##녲
##녳
##녴
##녵
##녶
##녷
##녺
##녻
##녽
##녾
##녿
##놁
##놂
##놄
##놅
##놆
##놇
##놊
##놎
##놏
##놐
##놑
##놕
##놖
##놗
##놙
##놚
##놛
##놜
##놝
##놞
##놟
##놠
##놡
##놢
##놣
##놤
##놥
##놦
##놧
##놩
##놪
##놫
##놬
##놭
##놮
##놯
##놱
##놲
##놳
##놴
##놵
##놶
##놷
##놸
##놹
##놺
##놻
##놼
##놽
##놾
##놿
##뇀
##뇁
##뇂
##뇃
##뇄
##뇅
##뇆
##뇇
##뇈
##뇉
##뇊
##뇋
##뇍
##뇎
##뇏
##뇑
##뇒
##뇓
##뇔
##뇕
##뇖
##뇗
##뇘
##뇙
##뇚
##뇛
##뇜
##뇝
##뇞
##뇟
##뇠
##뇡
##뇢
##뇣
##뇤
##뇥
##뇦
##뇧
##뇪
##뇫
##뇭
##뇮
##뇯
##뇱
##뇲
##뇳
##뇴
##뇵
##뇶
##뇷
##뇸
##뇺
##뇻
##뇼
##뇾
##뇿
##눀
##눁
##눂
##눃
##눆
##눇
##눉
##눊
##눋
##눍
##눎
##눏
##눐
##눑
##눒
##눓
##눖
##눘
##눚
##눛
##눜
##눝
##눞
##눟
##눡
##눢
##눣
##눥
##눦
##눧
##눨
##눩
##눪
##눫
##눬
##눭
##눮
##눯
##눰
##눱
##눲
##눳
##눵
##눶
##눷
##눸
##눹
##눺
##눻
##눽
##눾
##눿
##뉀
##뉁
##뉂
##뉃
##뉄
##뉅
##뉆
##뉇
##뉈
##뉉
##뉊
##뉋
##뉌
##뉍
##뉎
##뉏
##뉐
##뉑
##뉒
##뉓
##뉔
##뉕
##뉖
##뉗
##뉚
##뉛
##뉝
##뉞
##뉟
##뉡
##뉢
##뉣
##뉤
##뉥
##뉦
##뉧
##뉩
##뉪
##뉫
##뉬
##뉭
##뉮
##뉯
##뉰
##뉱
##뉲
##뉳
##뉶
##뉷
##뉹
##뉺
##뉻
##뉽
##뉾
##뉿
##늀
##늁
##늂
##늃
##늆
##늇
##늈
##늊
##늋
##늌
##늍
##늎
##늏
##늒
##늓
##늕
##늖
##늚
##늛
##늜
##늝
##늞
##늟
##늡
##늢
##늤
##늧
##늨
##늩
##늫
##늭
##늮
##늯
##늱
##늲
##늳
##늵
##늶
##늷
##늸
##늹
##늺
##늻
##늽
##늾
##늿
##닀
##닁
##닂
##닃
##닄
##닅
##닆
##닇
##닊
##닋
##닍
##닎
##닏
##닑
##닒
##닓
##닔
##닕
##닖
##닗
##닚
##닞
##닟
##닣
##닧
##닩
##닪
##닰
##닱
##닲
##닶
##닼
##닽
##닾
##댂
##댃
##댅
##댆
##댉
##댊
##댋
##댌
##댍
##댎
##댏
##댒
##댖
##댗
##댘
##댙
##댚
##댛
##댞
##댟
##댡
##댢
##댣
##댥
##댦
##댧
##댨
##댩
##댪
##댫
##댬
##댭
##댮
##댯
##댰
##댱
##댲
##댳
##댴
##댵
##댶
##댷
##댹
##댺
##댻
##댼
##댽
##댾
##댿
##덀
##덁
##덂
##덃
##덄
##덅
##덆
##덇
##덈
##덉
##덊
##덋
##덌
##덍
##덎
##덏
##덐
##덑
##덒
##덓
##덖
##덗
##덙
##덚
##덝
##덠
##덡
##덢
##덨
##덪
##덬
##덭
##덲
##덳
##덵
##덶
##덹
##덺
##덻
##덼
##덽
##덾
##덿
##뎂
##뎄
##뎆
##뎇
##뎈
##뎉
##뎊
##뎋
##뎎
##뎏
##뎑
##뎒
##뎓
##뎔
##뎕
##뎖
##뎘
##뎙
##뎚
##뎛
##뎜
##뎞
##뎟
##뎢
##뎣
##뎤
##뎥
##뎧
##뎩
##뎪
##뎫
##뎭
##뎮
##뎯
##뎱
##뎲
##뎳
##뎴
##뎵
##뎶
##뎷
##뎸
##뎹
##뎺
##뎻
##뎼
##뎽
##뎾
##뎿
##돀
##돁
##돂
##돃
##돆
##돇
##돉
##돊
##돍
##돏
##돐
##돑
##돒
##돓
##돖
##돘
##돜
##돞
##돟
##돡
##돢
##돣
##돥
##돦
##돧
##돨
##돩
##돪
##돫
##돬
##돭
##돮
##돯
##돰
##돱
##돲
##돳
##돴
##돵
##돶
##돷
##돸
##돹
##돺
##돻
##돽
##돾
##돿
##됁
##됂
##됃
##됄
##됅
##됆
##됇
##됈
##됉
##됊
##됋
##됌
##됍
##됎
##됏
##됑
##됒
##됓
##됔
##됕
##됖
##됗
##됙
##됚
##됛
##됝
##됞
##됟
##됡
##됢
##됣
##됤
##됥
##됦
##됧
##됪
##됮
##됯
##됰
##됱
##됲
##됳
##됵
##됶
##됷
##됹
##됺
##됻
##됼
##됽
##됾
##됿
##둀
##둁
##둂
##둃
##둄
##둅
##둆
##둇
##둈
##둊
##둋
##둌
##둍
##둎
##둏
##둒
##둓
##둕
##둖
##둗
##둙
##둚
##둛
##둜
##둝
##둞
##둟
##둢
##둤
##둦
##둧
##둨
##둩
##둪
##둫
##둭
##둮
##둯
##둱
##둲
##둳
##둴
##둵
##둶
##둷
##둸
##둹
##둺
##둻
##둼
##둽
##둾
##둿
##뒁
##뒂
##뒃
##뒄
##뒅
##뒆
##뒇
##뒉
##뒊
##뒋
##뒌
##뒍
##뒎
##뒏
##뒐
##뒑
##뒒
##뒓
##뒔
##뒕
##뒖
##뒗
##뒘
##뒙
##뒚
##뒛
##뒜
##뒝
##뒞
##뒟
##뒠
##뒡
##뒢
##뒣
##뒦
##뒧
##뒩
##뒪
##뒫
##뒭
##뒮
##뒯
##뒰
##뒱
##뒲
##뒳
##뒵
##뒶
##뒺
##뒻
##뒼
##뒽
##뒾
##뒿
##듂
##듃
##듅
##듆
##듇
##듉
##듊
##듋
##듌
##듍
##듎
##듏
##듑
##듒
##듓
##듔
##듖
##듗
##듘
##듙
##듚
##듛
##듞
##듟
##듡
##듢
##듥
##듨
##듩
##듪
##듫
##듮
##듰
##듲
##듳
##듴
##듵
##듶
##듷
##듺
##듻
##듼
##듽
##듾
##듿
##딀
##딁
##딂
##딃
##딄
##딅
##딆
##딇
##딈
##딉
##딊
##딋
##딌
##딎
##딏
##딐
##딑
##딒
##딓
##딖
##딗
##딙
##딚
##딝
##딞
##딟
##딠
##딡
##딢
##딣
##딦
##딬
##딮
##딯
##딲
##딳
##딵
##딶
##딷
##딹
##딺
##딻
##딼
##딽
##딾
##딿
##땂
##땆
##땇
##땈
##땉
##땊
##땋
##땍
##땎
##땏
##땑
##땒
##땓
##땕
##땖
##땗
##땘
##땙
##땚
##땛
##땞
##땟
##땢
##땣
##땤
##땥
##땦
##땧
##땩
##땪
##땫
##땬
##땭
##땮
##땯
##땰
##땱
##땲
##땳
##땴
##땵
##땶
##땷
##땸
##땹
##땺
##땻
##땼
##땽
##땾
##땿
##떀
##떁
##떂
##떃
##떅
##떆
##떇
##떈
##떉
##떊
##떋
##떌
##떍
##떎
##떏
##떐
##떑
##떒
##떓
##떔
##떕
##떖
##떗
##떚
##떛
##떜
##떝
##떞
##떟
##떢
##떣
##떥
##떦
##떧
##떩
##떪
##떫
##떬
##떭
##떮
##떯
##떱
##떲
##떶
##떷
##떸
##떹
##떺
##떾
##떿
##뗁
##뗂
##뗃
##뗅
##뗆
##뗇
##뗈
##뗉
##뗊
##뗋
##뗍
##뗎
##뗒
##뗓
##뗔
##뗕
##뗖
##뗗
##뗙
##뗚
##뗛
##뗜
##뗝
##뗞
##뗟
##뗠
##뗡
##뗢
##뗣
##뗤
##뗥
##뗦
##뗧
##뗨
##뗩
##뗪
##뗫
##뗬
##뗭
##뗮
##뗯
##뗰
##뗱
##뗲
##뗳
##뗵
##뗶
##뗷
##뗸
##뗹
##뗺
##뗻
##뗼
##뗽
##뗾
##뗿
##똀
##똁
##똂
##똃
##똄
##똅
##똆
##똇
##똈
##똉
##똊
##똋
##똌
##똍
##똎
##똏
##똒
##똓
##똕
##똖
##똗
##똙
##똚
##똛
##똜
##똝
##똞
##똟
##똠
##똢
##똤
##똦
##똧
##똨
##똩
##똪
##똫
##똭
##똮
##똯
##똰
##똱
##똲
##똳
##똴
##똵
##똶
##똷
##똸
##똹
##똺
##똻
##똼
##똽
##똾
##똿
##뙀
##뙁
##뙂
##뙃
##뙄
##뙅
##뙆
##뙇
##뙉
##뙊
##뙋
##뙌
##뙍
##뙎
##뙏
##뙐
##뙑
##뙒
##뙓
##뙔
##뙕
##뙖
##뙗
##뙘
##뙙
##뙚
##뙛
##뙜
##뙝
##뙞
##뙟
##뙠
##뙡
##뙢
##뙣
##뙥
##뙦
##뙧
##뙨
##뙩
##뙪
##뙫
##뙬
##뙭
##뙮
##뙯
##뙰
##뙱
##뙲
##뙳
##뙴
##뙵
##뙶
##뙷
##뙸
##뙹
##뙺
##뙻
##뙼
##뙽
##뙾
##뙿
##뚁
##뚂
##뚃
##뚄
##뚅
##뚆
##뚇
##뚈
##뚉
##뚊
##뚋
##뚌
##뚍
##뚎
##뚏
##뚐
##뚑
##뚒
##뚓
##뚔
##뚕
##뚖
##뚗
##뚘
##뚙
##뚚
##뚛
##뚞
##뚟
##뚡
##뚢
##뚣
##뚥
##뚦
##뚨
##뚩
##뚪
##뚭
##뚮
##뚰
##뚲
##뚳
##뚴
##뚵
##뚶
##뚷
##뚹
##뚺
##뚻
##뚼
##뚽
##뚾
##뚿
##뛀
##뛁
##뛂
##뛃
##뛄
##뛅
##뛆
##뛇
##뛈
##뛉
##뛊
##뛋
##뛌
##뛍
##뛎
##뛏
##뛐
##뛑
##뛒
##뛓
##뛕
##뛖
##뛗
##뛘
##뛙
##뛚
##뛛
##뛜
##뛝
##뛞
##뛟
##뛠
##뛡
##뛢
##뛣
##뛤
##뛥
##뛦
##뛧
##뛨
##뛩
##뛪
##뛫
##뛬
##뛭
##뛮
##뛯
##뛱
##뛲
##뛳
##뛵
##뛶
##뛷
##뛹
##뛺
##뛻
##뛼
##뛽
##뛾
##뛿
##뜁
##뜂
##뜃
##뜄
##뜅
##뜆
##뜇
##뜈
##뜉
##뜊
##뜋
##뜍
##뜎
##뜏
##뜐
##뜑
##뜒
##뜓
##뜔
##뜕
##뜖
##뜗
##뜘
##뜙
##뜚
##뜛
##뜜
##뜝
##뜞
##뜟
##뜠
##뜡
##뜢
##뜣
##뜤
##뜥
##뜦
##뜧
##뜪
##뜫
##뜭
##뜮
##뜱
##뜲
##뜳
##뜴
##뜵
##뜶
##뜹
##뜺
##뜼
##뜽
##뜾
##뜿
##띀
##띁
##띂
##띅
##띆
##띇
##띉
##띊
##띋
##띌
##띍
##띎
##띏
##띐
##띑
##띒
##띓
##띕
##띖
##띗
##띘
##띙
##띚
##띛
##띜
##띝
##띞
##띟
##띡
##띢
##띣
##띥
##띦
##띧
##띩
##띪
##띫
##띬
##띭
##띮
##띯
##띱
##띲
##띳
##띴
##띶
##띷
##띸
##띹
##띺
##띻
##띾
##띿
##랁
##랂
##랃
##랅
##랆
##랇
##랈
##랉
##랊
##랋
##랎
##랒
##랓
##랔
##랕
##랚
##랛
##랝
##랞
##랡
##랢
##랣
##랤
##랥
##랦
##랧
##랪
##랮
##랯
##랰
##랱
##랳
##랶
##랷
##랹
##랺
##랻
##랽
##랾
##랿
##럀
##럁
##럂
##럃
##럆
##럈
##럊
##럋
##럌
##럍
##럎
##럏
##럑
##럒
##럓
##럔
##럕
##럖
##럗
##럘
##럙
##럚
##럛
##럜
##럝
##럞
##럟
##럠
##럡
##럢
##럣
##럤
##럥
##럦
##럧
##럨
##럩
##럪
##럫
##럮
##럯
##럱
##럳
##럵
##럶
##럷
##럸
##럹
##럺
##럾
##렃
##렄
##렅
##렆
##렊
##렋
##렍
##렎
##렏
##렑
##렒
##렓
##렔
##렕
##렖
##렗
##렚
##렜
##렞
##렟
##렠
##렢
##렣
##렧
##렩
##렪
##렫
##렭
##렮
##렯
##렰
##렱
##렲
##렳
##렶
##렺
##렻
##렼
##렽
##렾
##렿
##롂
##롃
##롅
##롆
##롇
##롉
##롊
##롋
##롌
##롍
##롎
##롏
##롒
##롔
##롕
##롖
##롗
##롘
##롙
##롚
##롛
##롞
##롟
##롡
##롢
##롣
##롥
##롦
##롧
##롨
##롩
##롪
##롫
##롮
##롰
##롲
##롳
##롴
##롺
##롻
##롽
##롾
##롿
##뢀
##뢁
##뢂
##뢃
##뢄
##뢅
##뢆
##뢇
##뢈
##뢉
##뢊
##뢋
##뢌
##뢍
##뢎
##뢏
##뢐
##뢑
##뢒
##뢓
##뢕
##뢖
##뢗
##뢘
##뢙
##뢚
##뢛
##뢜
##뢝
##뢞
##뢟
##뢠
##뢡
##뢢
##뢣
##뢤
##뢥
##뢦
##뢧
##뢩
##뢪
##뢫
##뢬
##뢭
##뢮
##뢯
##뢲
##뢳
##뢵
##뢶
##뢷
##뢹
##뢺
##뢻
##뢼
##뢽
##뢾
##뢿
##룂
##룃
##룄
##룆
##룇
##룈
##룉
##룊
##룋
##룎
##룏
##룑
##룒
##룓
##룕
##룖
##룗
##룘
##룙
##룚
##룛
##룞
##룠
##룢
##룣
##룤
##룥
##룦
##룧
##룪
##룫
##룭
##룮
##룯
##룱
##룲
##룳
##룴
##룵
##룶
##룷
##룺
##룼
##룾
##룿
##뤁
##뤂
##뤃
##뤅
##뤆
##뤇
##뤉
##뤊
##뤋
##뤌
##뤍
##뤎
##뤏
##뤐
##뤑
##뤒
##뤓
##뤔
##뤕
##뤖
##뤙
##뤚
##뤛
##뤜
##뤝
##뤞
##뤟
##뤡
##뤢
##뤣
##뤤
##뤥
##뤦
##뤧
##뤩
##뤪
##뤫
##뤬
##뤭
##뤮
##뤯
##뤰
##뤱
##뤲
##뤴
##뤶
##뤷
##뤸
##뤹
##뤺
##뤻
##뤾
##뤿
##륁
##륂
##륃
##륅
##륆
##륇
##륈
##륉
##륊
##륋
##륎
##륐
##륒
##륓
##륔
##륕
##륖
##륗
##륚
##륛
##륝
##륞
##륟
##륡
##륢
##륣
##륤
##륥
##륦
##륧
##륪
##륬
##륮
##륯
##륰
##륱
##륲
##륳
##륶
##륷
##륹
##륺
##륽
##륾
##륿
##릀
##릁
##릂
##릃
##릆
##릈
##릊
##릏
##릑
##릒
##릓
##릔
##릕
##릖
##릗
##릙
##릚
##릛
##릜
##릝
##릞
##릟
##릡
##릢
##릣
##릤
##릥
##릦
##릧
##릨
##릩
##릪
##릫
##릮
##릯
##릱
##릲
##릳
##릵
##릶
##릷
##릸
##릹
##릺
##릻
##릾
##맀
##맂
##맃
##맇
##맊
##맋
##맍
##맒
##맓
##맔
##맕
##맖
##맚
##맠
##맢
##맦
##맧
##맩
##맪
##맫
##맭
##맮
##맯
##맰
##맱
##맲
##맳
##맶
##맻
##맼
##맽
##맾
##맿
##먂
##먃
##먅
##먆
##먇
##먈
##먉
##먊
##먋
##먌
##먍
##먎
##먏
##먐
##먒
##먓
##먔
##먖
##먗
##먘
##먙
##먚
##먛
##먝
##먞
##먟
##먠
##먡
##먢
##먣
##먤
##먥
##먦
##먧
##먨
##먩
##먪
##먫
##먬
##먭
##먮
##먯
##먰
##먱
##먲
##먳
##먴
##먵
##먶
##먷
##먺
##먻
##먽
##먾
##먿
##멁
##멃
##멄
##멅
##멆
##멇
##멉
##멊
##멌
##멎
##멏
##멐
##멑
##멒
##멖
##멗
##멙
##멚
##멛
##멝
##멞
##멟
##멠
##멡
##멢
##멣
##멦
##멪
##멫
##멬
##멭
##멮
##멯
##멲
##멳
##멵
##멶
##멷
##멹
##멺
##멻
##멼
##멽
##멾
##멿
##몁
##몂
##몈
##몉
##몊
##몋
##몍
##몎
##몏
##몑
##몒
##몓
##몕
##몖
##몗
##몘
##몙
##몚
##몛
##몜
##몝
##몞
##몟
##몠
##몡
##몢
##몣
##몤
##몥
##몦
##몧
##몭
##몮
##몱
##몲
##몳
##몴
##몵
##몶
##몺
##몼
##몾
##몿
##뫀
##뫁
##뫂
##뫃
##뫅
##뫆
##뫇
##뫈
##뫉
##뫊
##뫋
##뫌
##뫍
##뫎
##뫏
##뫐
##뫑
##뫒
##뫓
##뫔
##뫕
##뫖
##뫗
##뫘
##뫙
##뫚
##뫛
##뫜
##뫝
##뫞
##뫟
##뫡
##뫢
##뫣
##뫤
##뫥
##뫦
##뫧
##뫨
##뫩
##뫪
##뫫
##뫬
##뫭
##뫮
##뫯
##뫰
##뫱
##뫲
##뫳
##뫴
##뫵
##뫶
##뫷
##뫸
##뫹
##뫺
##뫻
##뫽
##뫾
##뫿
##묀
##묁
##묂
##묃
##묅
##묆
##묇
##묈
##묉
##묊
##묋
##묌
##묍
##묎
##묐
##묒
##묓
##묔
##묕
##묖
##묗
##묙
##묚
##묛
##묝
##묞
##묟
##묠
##묡
##묢
##묣
##묤
##묥
##묦
##묧
##묨
##묩
##묪
##묬
##묮
##묯
##묰
##묱
##묲
##묳
##묷
##묹
##묺
##묽
##묿
##뭀
##뭁
##뭂
##뭃
##뭆
##뭈
##뭊
##뭋
##뭌
##뭑
##뭒
##뭓
##뭕
##뭖
##뭗
##뭙
##뭚
##뭛
##뭜
##뭝
##뭞
##뭟
##뭠
##뭡
##뭢
##뭤
##뭥
##뭦
##뭧
##뭨
##뭩
##뭪
##뭫
##뭭
##뭮
##뭯
##뭰
##뭱
##뭲
##뭳
##뭵
##뭶
##뭷
##뭸
##뭹
##뭺
##뭻
##뭼
##뭽
##뭾
##뭿
##뮀
##뮁
##뮂
##뮃
##뮄
##뮅
##뮆
##뮇
##뮉
##뮊
##뮋
##뮍
##뮎
##뮏
##뮑
##뮒
##뮓
##뮔
##뮕
##뮖
##뮗
##뮘
##뮙
##뮚
##뮛
##뮜
##뮝
##뮞
##뮟
##뮠
##뮡
##뮢
##뮣
##뮥
##뮦
##뮧
##뮩
##뮪
##뮫
##뮭
##뮮
##뮯
##뮰
##뮱
##뮲
##뮳
##뮵
##뮶
##뮷
##뮸
##뮺
##뮻
##뮼
##뮽
##뮾
##뮿
##믂
##믃
##믅
##믆
##믇
##믉
##믊
##믋
##믌
##믍
##믎
##믏
##믑
##믒
##믔
##믖
##믗
##믘
##믙
##믚
##믛
##믝
##믞
##믟
##믠
##믡
##믢
##믣
##믤
##믥
##믦
##믧
##믨
##믩
##믪
##믫
##믬
##믭
##믮
##믯
##믰
##믱
##믲
##믳
##믴
##믵
##믶
##믷
##믺
##믻
##믽
##믾
##밁
##밃
##밄
##밅
##밆
##밇
##밊
##밐
##밒
##밓
##밗
##밙
##밚
##밠
##밡
##밢
##밦
##밨
##밪
##밫
##밬
##밮
##밯
##밳
##밵
##밶
##밹
##밺
##밻
##밼
##밽
##밾
##밿
##뱂
##뱄
##뱆
##뱇
##뱈
##뱊
##뱋
##뱍
##뱎
##뱏
##뱑
##뱒
##뱓
##뱕
##뱖
##뱗
##뱘
##뱙
##뱚
##뱛
##뱜
##뱝
##뱞
##뱟
##뱠
##뱢
##뱣
##뱤
##뱥
##뱦
##뱧
##뱩
##뱪
##뱫
##뱬
##뱭
##뱮
##뱯
##뱰
##뱱
##뱲
##뱳
##뱴
##뱵
##뱶
##뱷
##뱸
##뱹
##뱺
##뱻
##뱼
##뱽
##뱾
##뱿
##벀
##벁
##벂
##벃
##벆
##벇
##벊
##벋
##벍
##벎
##벏
##벐
##벑
##벒
##벓
##벖
##벘
##벛
##벜
##벞
##벟
##벢
##벣
##벥
##벦
##벧
##벩
##벪
##벫
##벬
##벭
##벮
##벯
##벲
##벴
##벶
##벷
##벸
##벹
##벺
##벻
##벾
##벿
##볁
##볂
##볃
##볅
##볆
##볇
##볈
##볉
##볊
##볋
##볎
##볒
##볔
##볖
##볗
##볚
##볛
##볝
##볞
##볟
##볠
##볡
##볢
##볣
##볤
##볥
##볦
##볧
##볨
##볩
##볪
##볬
##볭
##볮
##볯
##볰
##볱
##볲
##볳
##볷
##볹
##볺
##볻
##볽
##볾
##볿
##봀
##봁
##봂
##봃
##봆
##봈
##봊
##봋
##봌
##봎
##봏
##봑
##봒
##봓
##봕
##봖
##봗
##봘
##봙
##봚
##봛
##봜
##봝
##봞
##봟
##봠
##봡
##봢
##봣
##봥
##봦
##봧
##봨
##봩
##봪
##봫
##봭
##봮
##봯
##봰
##봱
##봲
##봳
##봴
##봵
##봶
##봷
##봸
##봹
##봺
##봻
##봼
##봽
##봾
##봿
##뵁
##뵂
##뵃
##뵄
##뵅
##뵆
##뵇
##뵉
##뵊
##뵋
##뵍
##뵎
##뵏
##뵑
##뵒
##뵓
##뵔
##뵕
##뵖
##뵗
##뵚
##뵛
##뵜
##뵝
##뵞
##뵟
##뵠
##뵡
##뵢
##뵣
##뵥
##뵦
##뵧
##뵩
##뵪
##뵫
##뵭
##뵮
##뵯
##뵰
##뵱
##뵲
##뵳
##뵵
##뵶
##뵷
##뵸
##뵹
##뵺
##뵻
##뵼
##뵽
##뵾
##뵿
##붂
##붃
##붅
##붊
##붋
##붌
##붍
##붎
##붏
##붒
##붔
##붖
##붗
##붘
##붚
##붛
##붝
##붞
##붟
##붠
##붡
##붢
##붣
##붤
##붥
##붦
##붧
##붨
##붩
##붪
##붫
##붬
##붭
##붮
##붯
##붰
##붱
##붲
##붳
##붴
##붶
##붷
##붹
##붺
##붻
##붽
##붾
##붿
##뷀
##뷂
##뷃
##뷄
##뷅
##뷆
##뷇
##뷈
##뷉
##뷊
##뷋
##뷌
##뷍
##뷎
##뷏
##뷐
##뷑
##뷒
##뷓
##뷖
##뷗
##뷙
##뷚
##뷛
##뷝
##뷞
##뷟
##뷠
##뷡
##뷢
##뷣
##뷥
##뷦
##뷧
##뷨
##뷩
##뷪
##뷫
##뷬
##뷭
##뷮
##뷯
##뷱
##뷲
##뷳
##뷵
##뷶
##뷷
##뷹
##뷺
##뷻
##뷼
##뷽
##뷾
##뷿
##븁
##븂
##븄
##븆
##븇
##븈
##븊
##븋
##븎
##븏
##븑
##븒
##븓
##븕
##븖
##븗
##븘
##븙
##븚
##븛
##븝
##븞
##븟
##븠
##븢
##븣
##븤
##븥
##븦
##븧
##븩
##븪
##븫
##븬
##븭
##븮
##븯
##븰
##븱
##븲
##븳
##븴
##븵
##븶
##븷
##븹
##븺
##븻
##븼
##븽
##븾
##븿
##빀
##빁
##빂
##빃
##빆
##빇
##빉
##빊
##빍
##빎
##빏
##빐
##빑
##빒
##빓
##빖
##빘
##빜
##빝
##빞
##빟
##빢
##빣
##빥
##빦
##빧
##빩
##빪
##빫
##빬
##빭
##빮
##빯
##빲
##빶
##빷
##빸
##빹
##빺
##빻
##빾
##빿
##뺁
##뺂
##뺃
##뺅
##뺆
##뺇
##뺈
##뺉
##뺊
##뺋
##뺍
##뺎
##뺒
##뺓
##뺔
##뺕
##뺖
##뺗
##뺚
##뺛
##뺜
##뺝
##뺞
##뺟
##뺠
##뺡
##뺢
##뺣
##뺤
##뺥
##뺦
##뺧
##뺩
##뺪
##뺫
##뺬
##뺭
##뺮
##뺯
##뺰
##뺱
##뺲
##뺳
##뺵
##뺶
##뺷
##뺸
##뺹
##뺺
##뺻
##뺼
##뺽
##뺾
##뺿
##뻀
##뻁
##뻂
##뻃
##뻄
##뻅
##뻆
##뻇
##뻈
##뻊
##뻋
##뻌
##뻍
##뻎
##뻏
##뻒
##뻓
##뻕
##뻖
##뻙
##뻚
##뻛
##뻜
##뻝
##뻞
##뻟
##뻠
##뻡
##뻢
##뻦
##뻧
##뻨
##뻩
##뻪
##뻫
##뻮
##뻯
##뻱
##뻲
##뻳
##뻵
##뻶
##뻷
##뻸
##뻹
##뻺
##뻻
##뻼
##뻽
##뻾
##뻿
##뼀
##뼁
##뼂
##뼃
##뼄
##뼅
##뼆
##뼇
##뼊
##뼋
##뼌
##뼍
##뼎
##뼏
##뼐
##뼑
##뼒
##뼓
##뼔
##뼕
##뼖
##뼗
##뼙
##뼚
##뼝
##뼞
##뼟
##뼠
##뼡
##뼢
##뼣
##뼥
##뼦
##뼧
##뼨
##뼩
##뼪
##뼫
##뼬
##뼭
##뼮
##뼯
##뼰
##뼱
##뼲
##뼳
##뼴
##뼵
##뼶
##뼷
##뼸
##뼹
##뼺
##뼻
##뼼
##뼽
##뼾
##뼿
##뽃
##뽅
##뽆
##뽇
##뽉
##뽊
##뽋
##뽌
##뽍
##뽎
##뽏
##뽒
##뽓
##뽔
##뽖
##뽗
##뽘
##뽙
##뽚
##뽛
##뽞
##뽟
##뽠
##뽡
##뽢
##뽣
##뽤
##뽥
##뽦
##뽧
##뽨
##뽩
##뽪
##뽫
##뽬
##뽭
##뽮
##뽯
##뽰
##뽱
##뽲
##뽳
##뽴
##뽵
##뽶
##뽷
##뽹
##뽺
##뽻
##뽼
##뽽
##뽾
##뽿
##뾀
##뾁
##뾂
##뾃
##뾄
##뾅
##뾆
##뾇
##뾈
##뾉
##뾊
##뾋
##뾌
##뾍
##뾎
##뾏
##뾐
##뾑
##뾒
##뾓
##뾕
##뾖
##뾗
##뾘
##뾙
##뾚
##뾛
##뾜
##뾝
##뾞
##뾟
##뾠
##뾡
##뾢
##뾣
##뾤
##뾥
##뾦
##뾧
##뾨
##뾩
##뾪
##뾫
##뾬
##뾭
##뾮
##뾯
##뾱
##뾲
##뾳
##뾴
##뾵
##뾶
##뾷
##뾸
##뾹
##뾺
##뾻
##뾼
##뾽
##뾾
##뾿
##뿀
##뿁
##뿂
##뿃
##뿄
##뿆
##뿇
##뿈
##뿉
##뿊
##뿋
##뿎
##뿏
##뿑
##뿒
##뿓
##뿕
##뿖
##뿗
##뿘
##뿙
##뿚
##뿛
##뿞
##뿠
##뿢
##뿣
##뿤
##뿥
##뿦
##뿧
##뿩
##뿪
##뿫
##뿬
##뿭
##뿮
##뿯
##뿰
##뿱
##뿲
##뿳
##뿴
##뿵
##뿶
##뿷
##뿸
##뿹
##뿺
##뿻
##뿼
##뿽
##뿾
##뿿
##쀀
##쀁
##쀂
##쀃
##쀅
##쀆
##쀇
##쀈
##쀉
##쀊
##쀋
##쀌
##쀍
##쀎
##쀏
##쀐
##쀑
##쀒
##쀓
##쀔
##쀕
##쀖
##쀗
##쀘
##쀙
##쀚
##쀛
##쀜
##쀝
##쀞
##쀟
##쀡
##쀢
##쀣
##쀤
##쀥
##쀦
##쀧
##쀨
##쀩
##쀪
##쀫
##쀬
##쀭
##쀮
##쀯
##쀰
##쀱
##쀲
##쀳
##쀴
##쀵
##쀶
##쀷
##쀸
##쀹
##쀺
##쀻
##쀽
##쀾
##쀿
##쁀
##쁁
##쁂
##쁃
##쁄
##쁅
##쁆
##쁇
##쁈
##쁉
##쁊
##쁋
##쁌
##쁍
##쁎
##쁏
##쁐
##쁑
##쁒
##쁓
##쁔
##쁕
##쁖
##쁗
##쁙
##쁚
##쁛
##쁝
##쁞
##쁟
##쁡
##쁢
##쁣
##쁤
##쁥
##쁦
##쁧
##쁪
##쁫
##쁬
##쁭
##쁮
##쁯
##쁰
##쁱
##쁲
##쁳
##쁵
##쁶
##쁷
##쁸
##쁹
##쁺
##쁻
##쁼
##쁽
##쁾
##쁿
##삀
##삁
##삂
##삃
##삄
##삅
##삆
##삇
##삈
##삉
##삊
##삋
##삌
##삍
##삎
##삏
##삒
##삓
##삕
##삖
##삗
##삙
##삚
##삛
##삝
##삞
##삟
##삢
##삤
##삦
##삧
##삨
##삩
##삪
##삫
##삮
##삱
##삲
##삷
##삸
##삹
##삺
##삻
##삾
##샃
##샄
##샆
##샇
##샊
##샋
##샍
##샎
##샏
##샑
##샒
##샓
##샔
##샕
##샖
##샗
##샚
##샞
##샟
##샠
##샡
##샢
##샣
##샦
##샧
##샩
##샪
##샫
##샭
##샮
##샯
##샰
##샱
##샲
##샳
##샶
##샸
##샺
##샻
##샼
##샽
##샿
##섂
##섃
##섅
##섆
##섇
##섈
##섉
##섊
##섋
##섌
##섍
##섎
##섏
##섑
##섒
##섓
##섔
##섖
##섗
##섘
##섙
##섚
##섛
##섟
##섡
##섢
##섧
##섨
##섩
##섪
##섫
##섮
##섲
##섳
##섴
##섵
##섷
##섺
##섻
##섽
##섾
##셁
##셂
##셃
##셄
##셅
##셆
##셇
##셊
##셎
##셏
##셐
##셒
##셓
##셗
##셙
##셚
##셛
##셝
##셞
##셟
##셠
##셡
##셢
##셣
##셦
##셪
##셫
##셬
##셭
##셮
##셯
##셲
##셳
##셵
##셶
##셷
##셹
##셺
##셻
##셼
##셽
##셾
##셿
##솂
##솄
##솆
##솇
##솈
##솉
##솊
##솋
##솑
##솒
##솕
##솖
##솗
##솘
##솙
##솚
##솛
##솞
##솠
##솣
##솤
##솦
##솧
##솪
##솫
##솭
##솮
##솯
##솰
##솱
##솲
##솳
##솴
##솵
##솶
##솷
##솸
##솹
##솺
##솻
##솼
##솾
##솿
##쇀
##쇁
##쇂
##쇃
##쇅
##쇆
##쇇
##쇈
##쇉
##쇊
##쇋
##쇌
##쇍
##쇎
##쇏
##쇐
##쇑
##쇒
##쇓
##쇔
##쇕
##쇖
##쇗
##쇘
##쇙
##쇚
##쇛
##쇜
##쇝
##쇞
##쇟
##쇢
##쇣
##쇥
##쇦
##쇧
##쇩
##쇪
##쇫
##쇬
##쇭
##쇮
##쇯
##쇰
##쇱
##쇲
##쇴
##쇵
##쇶
##쇷
##쇸
##쇹
##쇺
##쇻
##쇾
##쇿
##숁
##숂
##숃
##숅
##숆
##숇
##숈
##숉
##숊
##숋
##숎
##숐
##숒
##숓
##숔
##숕
##숗
##숚
##숛
##숝
##숞
##숢
##숣
##숤
##숥
##숦
##숧
##숪
##숬
##숮
##숰
##숳
##숵
##숶
##숷
##숹
##숺
##숻
##숼
##숽
##숾
##숿
##쉀
##쉁
##쉂
##쉃
##쉆
##쉇
##쉊
##쉋
##쉌
##쉍
##쉎
##쉏
##쉒
##쉓
##쉕
##쉖
##쉗
##쉙
##쉚
##쉛
##쉜
##쉝
##쉞
##쉟
##쉠
##쉢
##쉤
##쉦
##쉧
##쉨
##쉩
##쉫
##쉮
##쉯
##쉱
##쉲
##쉳
##쉵
##쉶
##쉷
##쉸
##쉹
##쉺
##쉻
##쉾
##슀
##슂
##슃
##슄
##슅
##슆
##슇
##슊
##슋
##슍
##슎
##슏
##슑
##슒
##슓
##슔
##슕
##슖
##슗
##슚
##슜
##슞
##슟
##슠
##슡
##슢
##슣
##슦
##슧
##슩
##슪
##슫
##슮
##슯
##슰
##슱
##슲
##슳
##슶
##슸
##슺
##슻
##슾
##슿
##싂
##싃
##싅
##싆
##싇
##싈
##싉
##싊
##싋
##싌
##싍
##싎
##싏
##싑
##싒
##싓
##싔
##싕
##싖
##싗
##싘
##싙
##싚
##싛
##싟
##싡
##싢
##싥
##싦
##싧
##싨
##싩
##싪
##싮
##싰
##싲
##싳
##싴
##싵
##싷
##싺
##싻
##싽
##싾
##쌁
##쌂
##쌃
##쌄
##쌅
##쌆
##쌇
##쌊
##쌎
##쌏
##쌐
##쌑
##쌒
##쌖
##쌗
##쌙
##쌚
##쌛
##쌜
##쌝
##쌞
##쌟
##쌠
##쌡
##쌢
##쌣
##쌥
##쌦
##쌧
##쌨
##쌪
##쌫
##쌬
##쌭
##쌮
##쌯
##쌱
##쌲
##쌳
##쌵
##쌶
##쌷
##쌸
##쌹
##쌺
##쌻
##쌼
##쌽
##쌾
##쌿
##썀
##썁
##썂
##썃
##썄
##썆
##썇
##썈
##썉
##썊
##썋
##썍
##썎
##썏
##썐
##썑
##썒
##썓
##썔
##썕
##썗
##썘
##썙
##썚
##썛
##썜
##썝
##썞
##썟
##썠
##썡
##썢
##썣
##썤
##썥
##썦
##썧
##썪
##썫
##썭
##썮
##썯
##썱
##썲
##썳
##썴
##썵
##썶
##썷
##썺
##썾
##썿
##쎀
##쎁
##쎂
##쎃
##쎆
##쎇
##쎉
##쎊
##쎋
##쎍
##쎎
##쎏
##쎐
##쎑
##쎒
##쎓
##쎕
##쎖
##쎘
##쎙
##쎚
##쎛
##쎜
##쎝
##쎞
##쎟
##쎡
##쎢
##쎣
##쎤
##쎥
##쎦
##쎧
##쎨
##쎩
##쎪
##쎫
##쎬
##쎭
##쎮
##쎯
##쎰
##쎱
##쎲
##쎳
##쎵
##쎶
##쎷
##쎸
##쎹
##쎺
##쎻
##쎽
##쎾
##쎿
##쏁
##쏂
##쏃
##쏄
##쏅
##쏆
##쏇
##쏈
##쏉
##쏊
##쏋
##쏌
##쏍
##쏎
##쏏
##쏐
##쏑
##쏒
##쏓
##쏔
##쏕
##쏖
##쏗
##쏚
##쏛
##쏝
##쏞
##쏡
##쏢
##쏣
##쏤
##쏥
##쏦
##쏧
##쏩
##쏪
##쏫
##쏬
##쏮
##쏯
##쏰
##쏱
##쏲
##쏳
##쏵
##쏶
##쏷
##쏹
##쏺
##쏻
##쏼
##쏽
##쏾
##쏿
##쐀
##쐁
##쐂
##쐃
##쐄
##쐅
##쐆
##쐇
##쐈
##쐉
##쐊
##쐋
##쐌
##쐍
##쐎
##쐏
##쐑
##쐒
##쐓
##쐔
##쐕
##쐖
##쐗
##쐘
##쐙
##쐚
##쐛
##쐜
##쐝
##쐞
##쐟
##쐠
##쐡
##쐢
##쐣
##쐤
##쐥
##쐦
##쐧
##쐨
##쐩
##쐪
##쐫
##쐭
##쐮
##쐯
##쐰
##쐱
##쐲
##쐳
##쐴
##쐵
##쐶
##쐷
##쐸
##쐹
##쐺
##쐻
##쐼
##쐽
##쐾
##쐿
##쑀
##쑁
##쑂
##쑃
##쑄
##쑅
##쑆
##쑇
##쑉
##쑊
##쑋
##쑌
##쑍
##쑎
##쑏
##쑐
##쑑
##쑒
##쑓
##쑔
##쑕
##쑖
##쑗
##쑘
##쑙
##쑚
##쑛
##쑜
##쑞
##쑟
##쑠
##쑡
##쑢
##쑣
##쑦
##쑧
##쑩
##쑪
##쑫
##쑭
##쑮
##쑯
##쑰
##쑱
##쑲
##쑳
##쑵
##쑶
##쑸
##쑺
##쑻
##쑼
##쑽
##쑾
##쑿
##쒁
##쒂
##쒃
##쒄
##쒅
##쒆
##쒇
##쒈
##쒉
##쒊
##쒋
##쒌
##쒍
##쒎
##쒏
##쒐
##쒑
##쒒
##쒓
##쒔
##쒕
##쒖
##쒗
##쒘
##쒙
##쒚
##쒛
##쒝
##쒞
##쒟
##쒠
##쒡
##쒢
##쒣
##쒤
##쒥
##쒦
##쒧
##쒨
##쒩
##쒪
##쒫
##쒬
##쒭
##쒮
##쒯
##쒰
##쒱
##쒲
##쒳
##쒴
##쒵
##쒶
##쒷
##쒹
##쒺
##쒻
##쒽
##쒾
##쒿
##쓀
##쓁
##쓂
##쓃
##쓄
##쓅
##쓆
##쓇
##쓈
##쓉
##쓊
##쓋
##쓌
##쓍
##쓎
##쓏
##쓐
##쓑
##쓒
##쓓
##쓕
##쓖
##쓗
##쓘
##쓙
##쓚
##쓛
##쓜
##쓝
##쓞
##쓟
##쓠
##쓡
##쓢
##쓣
##쓤
##쓥
##쓦
##쓧
##쓨
##쓪
##쓫
##쓬
##쓭
##쓮
##쓯
##쓲
##쓳
##쓵
##쓶
##쓷
##쓹
##쓺
##쓻
##쓼
##쓽
##쓾
##쓿
##씂
##씄
##씆
##씇
##씈
##씉
##씊
##씋
##씍
##씎
##씏
##씐
##씑
##씒
##씓
##씔
##씕
##씖
##씗
##씘
##씙
##씚
##씛
##씜
##씝
##씞
##씟
##씠
##씡
##씢
##씣
##씤
##씥
##씦
##씧
##씪
##씫
##씭
##씮
##씯
##씱
##씲
##씳
##씴
##씵
##씶
##씷
##씺
##씼
##씾
##씿
##앀
##앁
##앂
##앃
##앆
##앇
##앎
##앏
##앐
##앑
##앒
##앖
##앝
##앣
##앥
##앦
##앧
##앩
##앪
##앫
##앬
##앭
##앮
##앯
##앲
##앶
##앷
##앸
##앹
##앺
##앾
##앿
##얁
##얂
##얃
##얅
##얆
##얈
##얉
##얊
##얋
##얎
##얒
##얓
##얔
##얖
##얙
##얚
##얛
##얝
##얞
##얟
##얠
##얡
##얢
##얣
##얤
##얥
##얦
##얧
##얨
##얩
##얪
##얫
##얮
##얯
##얰
##얱
##얲
##얳
##얷
##얺
##얾
##얿
##엀
##엁
##엂
##엃
##엋
##엍
##엒
##엓
##엕
##엖
##엗
##엙
##엚
##엛
##엜
##엝
##엞
##엟
##엢
##엤
##엦
##엧
##엨
##엪
##엫
##엯
##엱
##엲
##엳
##엵
##엶
##엷
##엸
##엹
##엺
##엻
##옂
##옃
##옅
##옊
##옋
##옍
##옎
##옏
##옑
##옒
##옓
##옔
##옕
##옖
##옗
##옚
##옜
##옞
##옟
##옠
##옢
##옣
##옦
##옧
##옩
##옪
##옫
##옯
##옰
##옱
##옲
##옶
##옼
##옾
##옿
##왂
##왃
##왅
##왆
##왉
##왊
##왋
##왌
##왍
##왎
##왏
##왒
##왖
##왗
##왙
##왚
##왛
##왞
##왟
##왡
##왢
##왣
##왤
##왥
##왦
##왧
##왨
##왩
##왪
##왫
##왭
##왮
##왯
##왰
##왲
##왳
##왴
##왵
##왶
##왷
##왺
##왻
##왽
##왾
##왿
##욁
##욂
##욃
##욄
##욅
##욆
##욇
##욈
##욉
##욊
##욋
##욌
##욎
##욏
##욑
##욒
##욓
##욖
##욗
##욙
##욚
##욛
##욝
##욞
##욟
##욠
##욡
##욢
##욣
##욦
##욨
##욪
##욫
##욬
##욭
##욮
##욲
##욳
##욵
##욶
##욷
##욹
##욻
##욼
##욽
##욾
##욿
##웂
##웄
##웆
##웇
##웈
##웊
##웎
##웏
##웑
##웒
##웓
##웕
##웖
##웗
##웘
##웙
##웚
##웛
##웝
##웞
##웢
##웣
##웥
##웦
##웧
##웪
##웫
##웭
##웮
##웯
##웱
##웲
##웳
##웴
##웵
##웶
##웷
##웺
##웼
##웾
##웿
##윀
##윂
##윃
##윆
##윇
##윉
##윊
##윋
##윍
##윎
##윏
##윐
##윑
##윒
##윓
##윖
##윚
##윛
##윜
##윞
##윟
##윢
##윣
##윥
##윦
##윧
##윩
##윪
##윫
##윬
##윭
##윮
##윯
##윱
##윲
##윴
##윸
##윹
##윺
##윻
##윾
##윿
##읁
##읂
##읆
##읇
##읈
##읉
##읎
##읐
##읙
##읚
##읛
##읝
##읞
##읟
##읡
##읢
##읣
##읤
##읥
##읦
##읧
##읨
##읩
##읪
##읫
##읬
##읮
##읯
##읰
##읱
##읲
##읳
##읷
##읹
##읺
##읾
##읿
##잀
##잁
##잂
##잆
##잏
##잓
##잕
##잗
##잙
##잚
##잛
##잜
##잝
##잞
##잢
##잨
##잩
##잫
##잮
##잯
##잱
##잲
##잳
##잵
##잶
##잷
##잸
##잹
##잺
##잻
##잾
##쟂
##쟃
##쟄
##쟅
##쟆
##쟇
##쟊
##쟋
##쟍
##쟎
##쟏
##쟑
##쟒
##쟓
##쟔
##쟕
##쟖
##쟗
##쟚
##쟜
##쟞
##쟟
##쟠
##쟡
##쟢
##쟣
##쟥
##쟦
##쟧
##쟨
##쟩
##쟪
##쟫
##쟬
##쟭
##쟮
##쟯
##쟰
##쟱
##쟲
##쟳
##쟴
##쟵
##쟶
##쟷
##쟸
##쟹
##쟺
##쟻
##쟼
##쟽
##쟾
##쟿
##젂
##젅
##젆
##젉
##젋
##젌
##젍
##젎
##젏
##젒
##젗
##젘
##젙
##젚
##젛
##젞
##젟
##젡
##젢
##젣
##젥
##젦
##젧
##젨
##젩
##젪
##젫
##젮
##젰
##젲
##젳
##젴
##젵
##젶
##젷
##젺
##젻
##젽
##젾
##젿
##졁
##졂
##졃
##졄
##졅
##졆
##졇
##졈
##졉
##졊
##졎
##졏
##졐
##졑
##졒
##졓
##졕
##졖
##졗
##졘
##졙
##졚
##졛
##졜
##졝
##졞
##졟
##졠
##졡
##졢
##졣
##졥
##졦
##졨
##졪
##졫
##졬
##졭
##졮
##졯
##졲
##졳
##졵
##졶
##졷
##졹
##졺
##졻
##졼
##졽
##졾
##졿
##좂
##좄
##좈
##좉
##좊
##좍
##좎
##좏
##좑
##좒
##좓
##좕
##좖
##좗
##좘
##좙
##좚
##좛
##좜
##좝
##좞
##좟
##좠
##좢
##좣
##좤
##좥
##좦
##좧
##좩
##좪
##좫
##좬
##좭
##좮
##좯
##좰
##좱
##좲
##좳
##좴
##좵
##좶
##좷
##좸
##좹
##좺
##좻
##좼
##좽
##좾
##좿
##죀
##죁
##죂
##죃
##죅
##죆
##죇
##죉
##죊
##죋
##죍
##죎
##죏
##죐
##죑
##죒
##죓
##죔
##죕
##죖
##죗
##죘
##죙
##죚
##죛
##죜
##죝
##죞
##죟
##죢
##죣
##죥
##죦
##죧
##죨
##죩
##죪
##죫
##죬
##죭
##죮
##죯
##죰
##죱
##죲
##죴
##죶
##죷
##죸
##죹
##죺
##죻
##죾
##죿
##줁
##줂
##줃
##줅
##줆
##줇
##줈
##줉
##줊
##줋
##줎
##줐
##줒
##줓
##줔
##줕
##줖
##줗
##줙
##줚
##줛
##줝
##줞
##줟
##줠
##줡
##줢
##줣
##줤
##줥
##줦
##줧
##줨
##줩
##줪
##줭
##줮
##줯
##줰
##줱
##줲
##줳
##줵
##줶
##줷
##줹
##줺
##줻
##줼
##줽
##줾
##줿
##쥀
##쥁
##쥂
##쥃
##쥄
##쥅
##쥆
##쥇
##쥈
##쥉
##쥊
##쥋
##쥌
##쥍
##쥎
##쥏
##쥑
##쥒
##쥓
##쥕
##쥖
##쥗
##쥙
##쥚
##쥛
##쥜
##쥝
##쥞
##쥟
##쥡
##쥢
##쥤
##쥥
##쥦
##쥧
##쥨
##쥩
##쥪
##쥫
##쥭
##쥮
##쥯
##쥱
##쥲
##쥳
##쥵
##쥶
##쥷
##쥸
##쥹
##쥺
##쥻
##쥽
##쥾
##쥿
##즀
##즂
##즃
##즄
##즅
##즆
##즇
##즊
##즋
##즍
##즎
##즏
##즒
##즓
##즔
##즕
##즖
##즗
##즚
##즜
##즞
##즟
##즠
##즡
##즢
##즣
##즥
##즦
##즧
##즨
##즩
##즪
##즫
##즬
##즭
##즮
##즯
##즰
##즱
##즲
##즳
##즴
##즵
##즶
##즷
##즸
##즹
##즺
##즻
##즼
##즽
##즾
##즿
##짂
##짃
##짅
##짆
##짉
##짋
##짌
##짍
##짎
##짏
##짒
##짔
##짗
##짙
##짛
##짞
##짟
##짡
##짣
##짥
##짦
##짨
##짩
##짪
##짫
##짮
##짲
##짳
##짴
##짵
##짶
##짷
##짺
##짻
##짽
##짾
##짿
##쨀
##쨁
##쨂
##쨃
##쨄
##쨅
##쨆
##쨇
##쨉
##쨊
##쨎
##쨏
##쨐
##쨑
##쨒
##쨓
##쨕
##쨖
##쨗
##쨙
##쨚
##쨛
##쨜
##쨝
##쨞
##쨟
##쨠
##쨡
##쨢
##쨣
##쨤
##쨥
##쨦
##쨧
##쨨
##쨪
##쨫
##쨬
##쨭
##쨮
##쨯
##쨱
##쨲
##쨳
##쨴
##쨵
##쨶
##쨷
##쨸
##쨹
##쨺
##쨻
##쨼
##쨽
##쨾
##쨿
##쩀
##쩁
##쩂
##쩄
##쩅
##쩆
##쩇
##쩈
##쩉
##쩊
##쩋
##쩎
##쩏
##쩑
##쩒
##쩕
##쩖
##쩗
##쩘
##쩙
##쩚
##쩛
##쩞
##쩟
##쩠
##쩢
##쩣
##쩤
##쩥
##쩦
##쩧
##쩪
##쩫
##쩭
##쩮
##쩯
##쩱
##쩲
##쩳
##쩴
##쩵
##쩶
##쩷
##쩹
##쩺
##쩻
##쩼
##쩽
##쩾
##쩿
##쪀
##쪁
##쪂
##쪃
##쪅
##쪆
##쪇
##쪈
##쪉
##쪊
##쪌
##쪍
##쪎
##쪏
##쪐
##쪑
##쪒
##쪓
##쪔
##쪕
##쪖
##쪙
##쪚
##쪛
##쪜
##쪝
##쪞
##쪟
##쪡
##쪢
##쪣
##쪤
##쪥
##쪦
##쪧
##쪨
##쪩
##쪪
##쪫
##쪬
##쪭
##쪮
##쪯
##쪰
##쪱
##쪲
##쪳
##쪴
##쪵
##쪶
##쪷
##쪸
##쪹
##쪺
##쪻
##쪾
##쪿
##쫁
##쫂
##쫃
##쫅
##쫆
##쫇
##쫈
##쫉
##쫊
##쫋
##쫍
##쫎
##쫐
##쫔
##쫕
##쫖
##쫚
##쫛
##쫝
##쫞
##쫟
##쫠
##쫡
##쫢
##쫣
##쫤
##쫥
##쫦
##쫧
##쫨
##쫩
##쫪
##쫫
##쫬
##쫮
##쫯
##쫰
##쫱
##쫲
##쫳
##쫵
##쫶
##쫷
##쫸
##쫹
##쫺
##쫻
##쫼
##쫽
##쫾
##쫿
##쬀
##쬁
##쬂
##쬃
##쬄
##쬅
##쬆
##쬇
##쬈
##쬉
##쬊
##쬋
##쬌
##쬍
##쬎
##쬏
##쬑
##쬒
##쬓
##쬔
##쬕
##쬖
##쬗
##쬘
##쬙
##쬚
##쬛
##쬜
##쬝
##쬞
##쬟
##쬠
##쬡
##쬢
##쬣
##쬤
##쬥
##쬦
##쬧
##쬨
##쬩
##쬪
##쬫
##쬭
##쬮
##쬯
##쬰
##쬱
##쬲
##쬳
##쬴
##쬵
##쬶
##쬷
##쬸
##쬹
##쬺
##쬻
##쬽
##쬾
##쬿
##쭀
##쭁
##쭂
##쭃
##쭄
##쭅
##쭆
##쭇
##쭊
##쭋
##쭍
##쭎
##쭏
##쭑
##쭒
##쭓
##쭔
##쭕
##쭖
##쭗
##쭚
##쭛
##쭜
##쭞
##쭟
##쭠
##쭡
##쭢
##쭣
##쭥
##쭦
##쭧
##쭨
##쭩
##쭪
##쭫
##쭬
##쭭
##쭮
##쭯
##쭰
##쭱
##쭲
##쭳
##쭴
##쭵
##쭶
##쭷
##쭸
##쭹
##쭺
##쭻
##쭼
##쭽
##쭾
##쭿
##쮁
##쮂
##쮃
##쮄
##쮅
##쮆
##쮇
##쮈
##쮉
##쮊
##쮋
##쮌
##쮍
##쮎
##쮏
##쮐
##쮑
##쮒
##쮓
##쮔
##쮕
##쮖
##쮗
##쮘
##쮙
##쮚
##쮛
##쮝
##쮞
##쮟
##쮠
##쮡
##쮢
##쮣
##쮤
##쮥
##쮦
##쮧
##쮨
##쮩
##쮪
##쮫
##쮬
##쮭
##쮮
##쮯
##쮰
##쮱
##쮲
##쮳
##쮴
##쮵
##쮶
##쮷
##쮹
##쮺
##쮻
##쮼
##쮽
##쮾
##쮿
##쯀
##쯁
##쯂
##쯃
##쯄
##쯅
##쯆
##쯇
##쯈
##쯉
##쯊
##쯋
##쯌
##쯍
##쯎
##쯏
##쯐
##쯑
##쯒
##쯓
##쯖
##쯗
##쯙
##쯚
##쯛
##쯝
##쯞
##쯟
##쯠
##쯡
##쯢
##쯣
##쯥
##쯦
##쯨
##쯪
##쯫
##쯬
##쯭
##쯮
##쯯
##쯱
##쯲
##쯳
##쯴
##쯵
##쯶
##쯷
##쯸
##쯹
##쯺
##쯻
##쯼
##쯽
##쯾
##쯿
##찀
##찁
##찂
##찃
##찄
##찅
##찆
##찇
##찈
##찉
##찊
##찋
##찎
##찏
##찑
##찒
##찓
##찕
##찖
##찗
##찘
##찙
##찚
##찛
##찞
##찠
##찣
##찤
##찥
##찦
##찪
##찫
##찭
##찱
##찲
##찳
##찴
##찵
##찶
##찷
##찺
##챀
##챁
##챂
##챆
##챇
##챉
##챊
##챋
##챍
##챎
##챏
##챐
##챑
##챒
##챓
##챖
##챚
##챛
##챜
##챝
##챞
##챟
##챢
##챣
##챥
##챧
##챩
##챪
##챫
##챬
##챭
##챮
##챯
##챱
##챲
##챴
##챶
##챷
##챸
##챹
##챺
##챻
##챽
##챾
##챿
##첀
##첁
##첂
##첃
##첄
##첅
##첆
##첇
##첈
##첉
##첊
##첋
##첌
##첍
##첎
##첏
##첐
##첑
##첒
##첓
##첔
##첕
##첖
##첗
##첚
##첛
##첝
##첞
##첟
##첡
##첢
##첣
##첤
##첥
##첦
##첧
##첪
##첮
##첯
##첰
##첱
##첲
##첶
##첷
##첹
##첺
##첻
##첽
##첾
##첿
##쳀
##쳁
##쳂
##쳃
##쳆
##쳈
##쳊
##쳋
##쳌
##쳍
##쳎
##쳏
##쳒
##쳓
##쳕
##쳖
##쳗
##쳙
##쳚
##쳛
##쳜
##쳝
##쳞
##쳟
##쳡
##쳢
##쳣
##쳦
##쳧
##쳨
##쳩
##쳪
##쳫
##쳭
##쳮
##쳯
##쳱
##쳲
##쳳
##쳴
##쳵
##쳶
##쳷
##쳸
##쳹
##쳺
##쳻
##쳼
##쳽
##쳾
##쳿
##촀
##촁
##촂
##촃
##촄
##촅
##촆
##촇
##촊
##촋
##촍
##촎
##촏
##촑
##촒
##촓
##촔
##촕
##촖
##촗
##촚
##촜
##촞
##촟
##촠
##촡
##촢
##촣
##촦
##촧
##촩
##촪
##촫
##촭
##촮
##촯
##촰
##촱
##촲
##촳
##촴
##촵
##촶
##촷
##촸
##촺
##촻
##촼
##촽
##촾
##촿
##쵁
##쵂
##쵃
##쵄
##쵅
##쵆
##쵇
##쵈
##쵉
##쵊
##쵋
##쵌
##쵍
##쵎
##쵏
##쵐
##쵑
##쵒
##쵓
##쵔
##쵕
##쵖
##쵗
##쵘
##쵙
##쵚
##쵛
##쵝
##쵞
##쵟
##쵠
##쵡
##쵢
##쵣
##쵤
##쵥
##쵦
##쵧
##쵨
##쵩
##쵪
##쵫
##쵬
##쵭
##쵮
##쵯
##쵰
##쵱
##쵲
##쵳
##쵴
##쵵
##쵶
##쵷
##쵹
##쵺
##쵻
##쵼
##쵽
##쵾
##쵿
##춀
##춁
##춂
##춃
##춄
##춅
##춆
##춇
##춊
##춋
##춌
##춎
##춏
##춐
##춑
##춒
##춓
##춖
##춗
##춙
##춚
##춛
##춝
##춞
##춟
##춠
##춡
##춢
##춣
##춦
##춨
##춪
##춫
##춬
##춭
##춮
##춯
##춱
##춲
##춳
##춵
##춶
##춷
##춸
##춹
##춺
##춻
##춼
##춽
##춾
##춿
##췀
##췁
##췂
##췃
##췅
##췆
##췇
##췈
##췉
##췊
##췋
##췍
##췎
##췏
##췑
##췒
##췓
##췔
##췕
##췖
##췗
##췘
##췙
##췚
##췛
##췜
##췝
##췞
##췟
##췠
##췢
##췣
##췤
##췥
##췦
##췧
##췪
##췫
##췭
##췮
##췯
##췱
##췲
##췳
##췴
##췵
##췶
##췷
##췸
##췹
##췺
##췻
##췼
##췾
##췿
##츀
##츁
##츂
##츃
##츆
##츇
##츉
##츊
##츋
##츍
##츎
##츏
##츐
##츑
##츒
##츓
##츖
##츗
##츘
##츚
##츛
##츜
##츝
##츞
##츟
##츢
##츣
##츥
##츦
##츪
##츫
##츬
##츭
##츮
##츯
##츱
##츲
##츴
##츶
##츷
##츸
##츹
##츻
##츽
##츾
##츿
##칀
##칁
##칂
##칃
##칄
##칅
##칆
##칇
##칈
##칉
##칊
##칋
##칌
##칍
##칎
##칏
##칐
##칑
##칒
##칓
##칔
##칕
##칖
##칗
##칚
##칛
##칝
##칞
##칟
##칣
##칤
##칥
##칦
##칧
##칪
##칬
##칮
##칯
##칰
##칱
##칲
##칳
##칶
##칷
##칹
##칺
##칻
##칽
##칾
##칿
##캀
##캁
##캂
##캃
##캆
##캈
##캊
##캋
##캌
##캍
##캏
##캒
##캓
##캕
##캖
##캗
##캙
##캚
##캛
##캜
##캝
##캞
##캟
##캢
##캤
##캦
##캧
##캨
##캩
##캪
##캫
##캭
##캮
##캯
##캱
##캲
##캳
##캵
##캶
##캷
##캸
##캹
##캺
##캻
##캼
##캽
##캾
##컀
##컂
##컃
##컄
##컅
##컆
##컇
##컉
##컊
##컋
##컌
##컍
##컎
##컏
##컐
##컑
##컒
##컓
##컔
##컕
##컖
##컗
##컘
##컙
##컚
##컛
##컜
##컝
##컞
##컟
##컠
##컡
##컢
##컣
##컦
##컧
##컩
##컪
##컭
##컮
##컯
##컰
##컱
##컲
##컳
##컶
##컻
##컼
##컾
##컿
##켂
##켃
##켅
##켆
##켇
##켉
##켊
##켋
##켌
##켍
##켎
##켏
##켒
##켖
##켗
##켘
##켙
##켚
##켛
##켞
##켟
##켡
##켢
##켣
##켥
##켦
##켧
##켨
##켩
##켪
##켫
##켬
##켭
##켮
##켲
##켳
##켴
##켵
##켶
##켷
##켹
##켺
##켻
##켼
##켽
##켾
##켿
##콀
##콁
##콂
##콃
##콄
##콅
##콆
##콇
##콈
##콉
##콊
##콋
##콌
##콍
##콎
##콏
##콐
##콑
##콒
##콓
##콖
##콗
##콙
##콚
##콛
##콝
##콞
##콟
##콠
##콡
##콢
##콣
##콦
##콨
##콪
##콫
##콬
##콭
##콮
##콯
##콲
##콳
##콵
##콶
##콷
##콹
##콺
##콻
##콼
##콽
##콾
##콿
##쾂
##쾄
##쾆
##쾇
##쾈
##쾉
##쾊
##쾋
##쾍
##쾎
##쾏
##쾐
##쾑
##쾒
##쾓
##쾔
##쾕
##쾖
##쾗
##쾘
##쾙
##쾚
##쾛
##쾜
##쾝
##쾞
##쾟
##쾠
##쾢
##쾣
##쾤
##쾥
##쾦
##쾧
##쾩
##쾪
##쾫
##쾬
##쾭
##쾮
##쾯
##쾱
##쾲
##쾳
##쾴
##쾵
##쾶
##쾷
##쾸
##쾹
##쾺
##쾼
##쾾
##쾿
##쿀
##쿁
##쿂
##쿃
##쿅
##쿆
##쿇
##쿉
##쿊
##쿋
##쿍
##쿎
##쿏
##쿐
##쿑
##쿒
##쿓
##쿔
##쿕
##쿖
##쿗
##쿘
##쿚
##쿛
##쿜
##쿝
##쿞
##쿟
##쿢
##쿣
##쿥
##쿦
##쿧
##쿩
##쿪
##쿫
##쿬
##쿭
##쿮
##쿯
##쿲
##쿴
##쿶
##쿷
##쿸
##쿺
##쿻
##쿾
##쿿
##퀁
##퀂
##퀃
##퀅
##퀆
##퀇
##퀈
##퀉
##퀊
##퀋
##퀎
##퀐
##퀒
##퀓
##퀔
##퀕
##퀖
##퀗
##퀙
##퀚
##퀛
##퀝
##퀞
##퀟
##퀡
##퀢
##퀣
##퀤
##퀥
##퀦
##퀧
##퀨
##퀩
##퀪
##퀬
##퀭
##퀮
##퀯
##퀰
##퀱
##퀲
##퀳
##퀶
##퀷
##퀹
##퀺
##퀻
##퀽
##퀾
##퀿
##큀
##큁
##큂
##큃
##큆
##큈
##큊
##큋
##큌
##큍
##큏
##큑
##큒
##큓
##큕
##큖
##큗
##큙
##큚
##큛
##큜
##큝
##큞
##큟
##큡
##큢
##큤
##큦
##큧
##큨
##큪
##큫
##큮
##큯
##큱
##큲
##큳
##큵
##큶
##큷
##큸
##큹
##큺
##큻
##큽
##큾
##큿
##킀
##킂
##킃
##킄
##킅
##킆
##킇
##킉
##킊
##킋
##킍
##킎
##킏
##킐
##킑
##킒
##킓
##킔
##킕
##킖
##킗
##킘
##킙
##킚
##킛
##킜
##킝
##킞
##킟
##킠
##킡
##킢
##킣
##킦
##킧
##킩
##킪
##킫
##킭
##킮
##킯
##킰
##킱
##킲
##킳
##킶
##킸
##킺
##킻
##킼
##킽
##킾
##킿
##탂
##탃
##탅
##탆
##탊
##탋
##탌
##탍
##탎
##탏
##탒
##탖
##탗
##탘
##탚
##탛
##탞
##탟
##탡
##탥
##탦
##탧
##탨
##탩
##탪
##탫
##탮
##탲
##탳
##탴
##탵
##탷
##탹
##탺
##탻
##탽
##탾
##탿
##턁
##턂
##턃
##턄
##턅
##턆
##턇
##턈
##턉
##턊
##턋
##턌
##턍
##턎
##턏
##턐
##턑
##턒
##턓
##턕
##턖
##턗
##턘
##턙
##턚
##턛
##턜
##턝
##턞
##턟
##턠
##턡
##턢
##턣
##턤
##턥
##턦
##턧
##턨
##턩
##턪
##턫
##턬
##턭
##턮
##턯
##턲
##턳
##턵
##턶
##턷
##턹
##턺
##턻
##턼
##턽
##턾
##턿
##텂
##텆
##텇
##텈
##텉
##텊
##텋
##텎
##텏
##텑
##텒
##텓
##텕
##텖
##텗
##텘
##텙
##텚
##텛
##텞
##텠
##텢
##텣
##텤
##텥
##텧
##텩
##텪
##텫
##텭
##텮
##텯
##텰
##텱
##텲
##텳
##텴
##텵
##텶
##텷
##텸
##텹
##텺
##텾
##텿
##톀
##톁
##톂
##톃
##톅
##톆
##톇
##톉
##톊
##톋
##톌
##톍
##톎
##톏
##톐
##톑
##톒
##톓
##톔
##톕
##톖
##톗
##톘
##톙
##톚
##톛
##톜
##톝
##톞
##톟
##톢
##톣
##톥
##톦
##톩
##톪
##톫
##톬
##톭
##톮
##톯
##톲
##톴
##톶
##톷
##톸
##톹
##톺
##톻
##톽
##톾
##톿
##퇁
##퇂
##퇄
##퇅
##퇆
##퇇
##퇈
##퇉
##퇊
##퇋
##퇌
##퇍
##퇎
##퇏
##퇐
##퇒
##퇓
##퇔
##퇕
##퇖
##퇗
##퇙
##퇚
##퇛
##퇜
##퇝
##퇞
##퇟
##퇠
##퇡
##퇢
##퇣
##퇤
##퇥
##퇦
##퇧
##퇨
##퇩
##퇪
##퇫
##퇬
##퇭
##퇮
##퇯
##퇰
##퇱
##퇲
##퇳
##퇵
##퇶
##퇷
##퇸
##퇹
##퇺
##퇻
##퇽
##퇾
##퇿
##툀
##툁
##툂
##툃
##툄
##툅
##툆
##툈
##툊
##툋
##툌
##툍
##툎
##툏
##툑
##툒
##툓
##툔
##툕
##툖
##툗
##툙
##툚
##툛
##툜
##툝
##툞
##툟
##툡
##툢
##툣
##툤
##툥
##툦
##툧
##툨
##툩
##툪
##툫
##툮
##툯
##툱
##툳
##툵
##툶
##툷
##툸
##툹
##툺
##툻
##툾
##퉀
##퉂
##퉃
##퉄
##퉅
##퉆
##퉇
##퉉
##퉊
##퉋
##퉌
##퉍
##퉏
##퉐
##퉑
##퉒
##퉓
##퉔
##퉕
##퉖
##퉗
##퉘
##퉙
##퉚
##퉛
##퉞
##퉟
##퉠
##퉡
##퉢
##퉣
##퉥
##퉦
##퉧
##퉨
##퉩
##퉪
##퉫
##퉬
##퉭
##퉮
##퉯
##퉰
##퉱
##퉲
##퉳
##퉴
##퉵
##퉶
##퉷
##퉸
##퉹
##퉺
##퉻
##퉼
##퉽
##퉾
##퉿
##튂
##튃
##튅
##튆
##튇
##튉
##튊
##튋
##튌
##튍
##튎
##튏
##튒
##튓
##튔
##튖
##튗
##튘
##튙
##튚
##튛
##튞
##튟
##튡
##튢
##튣
##튥
##튦
##튧
##튨
##튩
##튪
##튫
##튭
##튮
##튯
##튰
##튲
##튳
##튴
##튵
##튶
##튷
##튺
##튻
##튾
##틁
##틃
##틄
##틅
##틆
##틇
##틊
##틌
##틎
##틏
##틐
##틒
##틓
##틖
##틗
##틘
##틙
##틚
##틛
##틜
##틝
##틞
##틟
##틠
##틡
##틢
##틣
##틤
##틥
##틦
##틧
##틨
##틩
##틪
##틫
##틬
##틭
##틮
##틯
##틲
##틳
##틵
##틶
##틷
##틹
##틺
##틻
##틼
##틽
##틾
##틿
##팂
##팄
##팆
##팇
##팈
##팋
##팏
##팑
##팒
##팓
##팕
##팖
##팗
##팘
##팙
##팚
##팛
##팞
##팢
##팣
##팦
##팧
##팪
##팫
##팭
##팮
##팯
##팱
##팲
##팳
##팴
##팵
##팶
##팷
##팺
##팼
##팾
##팿
##퍀
##퍁
##퍂
##퍃
##퍆
##퍇
##퍉
##퍊
##퍋
##퍍
##퍎
##퍏
##퍐
##퍑
##퍒
##퍓
##퍔
##퍕
##퍖
##퍗
##퍘
##퍚
##퍛
##퍜
##퍝
##퍞
##퍟
##퍡
##퍢
##퍣
##퍤
##퍥
##퍦
##퍧
##퍨
##퍩
##퍪
##퍫
##퍬
##퍭
##퍮
##퍯
##퍰
##퍱
##퍲
##퍳
##퍴
##퍵
##퍶
##퍷
##퍸
##퍹
##퍺
##퍻
##퍾
##퍿
##펁
##펂
##펃
##펅
##펆
##펇
##펈
##펉
##펊
##펋
##펎
##펒
##펓
##펔
##펕
##펖
##펗
##펚
##펛
##펝
##펞
##펟
##펡
##펢
##펣
##펤
##펥
##펦
##펧
##펪
##펬
##펮
##펯
##펰
##펱
##펲
##펳
##펶
##펷
##펹
##펺
##펻
##펽
##펾
##펿
##폀
##폁
##폂
##폃
##폅
##폆
##폇
##폊
##폋
##폌
##폍
##폎
##폏
##폑
##폒
##폓
##폕
##폖
##폗
##폙
##폚
##폛
##폜
##폝
##폞
##폟
##폠
##폡
##폢
##폣
##폤
##폥
##폦
##폧
##폨
##폩
##폪
##폫
##폮
##폯
##폱
##폲
##폳
##폵
##폶
##폷
##폸
##폹
##폺
##폻
##폾
##퐀
##퐂
##퐃
##퐄
##퐅
##퐆
##퐇
##퐉
##퐊
##퐋
##퐌
##퐍
##퐎
##퐏
##퐑
##퐒
##퐓
##퐔
##퐕
##퐖
##퐗
##퐘
##퐙
##퐚
##퐛
##퐜
##퐞
##퐟
##퐠
##퐡
##퐢
##퐣
##퐥
##퐦
##퐧
##퐨
##퐩
##퐪
##퐫
##퐬
##퐭
##퐮
##퐯
##퐰
##퐱
##퐲
##퐳
##퐴
##퐵
##퐶
##퐷
##퐸
##퐹
##퐺
##퐻
##퐼
##퐽
##퐾
##퐿
##푂
##푃
##푅
##푆
##푇
##푉
##푊
##푋
##푌
##푍
##푎
##푏
##푐
##푑
##푒
##푓
##푔
##푕
##푖
##푗
##푘
##푙
##푚
##푛
##푝
##푟
##푠
##푡
##푢
##푣
##푥
##푦
##푧
##푨
##푩
##푪
##푫
##푬
##푭
##푮
##푰
##푲
##푳
##푴
##푵
##푶
##푷
##푺
##푻
##푽
##푾
##푿
##풁
##풃
##풄
##풅
##풆
##풇
##풊
##풌
##풎
##풏
##풐
##풑
##풒
##풓
##풕
##풖
##풗
##풘
##풙
##풚
##풛
##풜
##풝
##풞
##풟
##풠
##풡
##풢
##풣
##풤
##풥
##풦
##풧
##풨
##풩
##풪
##풫
##풬
##풭
##풮
##풯
##풱
##풲
##풳
##풴
##풵
##풶
##풷
##풸
##풹
##풺
##풻
##풼
##풽
##풾
##풿
##퓀
##퓁
##퓂
##퓃
##퓄
##퓅
##퓆
##퓇
##퓈
##퓉
##퓊
##퓋
##퓍
##퓎
##퓏
##퓑
##퓒
##퓓
##퓕
##퓖
##퓗
##퓘
##퓙
##퓚
##퓛
##퓜
##퓝
##퓞
##퓟
##퓠
##퓡
##퓢
##퓣
##퓤
##퓥
##퓦
##퓧
##퓩
##퓪
##퓫
##퓭
##퓮
##퓯
##퓱
##퓲
##퓳
##퓴
##퓵
##퓶
##퓷
##퓹
##퓺
##퓻
##퓼
##퓽
##퓾
##퓿
##픀
##픁
##픂
##픃
##픆
##픇
##픉
##픊
##픋
##픍
##픎
##픏
##픐
##픑
##픒
##픓
##픖
##픗
##픘
##픙
##픚
##픛
##픜
##픝
##픞
##픟
##픡
##픢
##픣
##픤
##픥
##픦
##픧
##픨
##픩
##픪
##픫
##픬
##픭
##픮
##픯
##픰
##픱
##픲
##픳
##픴
##픵
##픶
##픷
##픸
##픹
##픺
##픻
##픾
##픿
##핁
##핂
##핃
##핅
##핆
##핇
##핈
##핉
##핊
##핋
##핎
##핐
##핒
##핓
##핔
##핕
##핖
##핗
##핚
##핝
##핞
##핟
##핡
##핣
##핤
##핦
##핧
##핪
##핮
##핯
##핱
##핲
##핶
##핷
##핹
##핺
##핽
##핾
##핿
##햀
##햁
##햂
##햃
##햆
##햊
##햋
##햌
##햍
##햎
##햒
##햓
##햕
##햖
##햗
##햙
##햚
##햛
##햜
##햞
##햟
##햠
##햢
##햦
##햧
##햨
##햩
##햪
##햫
##햭
##햮
##햯
##햰
##햱
##햲
##햳
##햴
##햵
##햶
##햷
##햸
##햹
##햺
##햻
##햼
##햽
##햾
##햿
##헁
##헂
##헃
##헄
##헅
##헆
##헇
##헊
##헋
##헍
##헎
##헏
##헑
##헒
##헓
##헔
##헕
##헖
##헗
##헚
##헜
##헞
##헟
##헠
##헡
##헢
##헣
##헦
##헧
##헩
##헪
##헫
##헭
##헮
##헯
##헰
##헱
##헲
##헳
##헶
##헺
##헻
##헼
##헽
##헾
##혂
##혆
##혇
##혉
##혊
##혋
##혌
##혍
##혎
##혏
##혒
##혖
##혗
##혘
##혙
##혚
##혛
##혝
##혞
##혟
##혡
##혢
##혣
##혤
##혥
##혦
##혧
##혨
##혩
##혪
##혫
##혬
##혭
##혮
##혯
##혰
##혲
##혳
##혴
##혵
##혶
##혷
##혺
##혻
##혽
##혾
##혿
##홁
##홂
##홃
##홄
##홅
##홆
##홇
##홊
##홌
##홎
##홏
##홐
##홒
##홓
##홖
##홗
##홙
##홚
##홛
##홝
##홞
##홟
##홠
##홡
##홢
##홣
##홦
##홨
##홪
##홫
##홬
##홭
##홮
##홱
##홲
##홳
##홴
##홵
##홶
##홷
##홸
##홹
##홺
##홻
##홼
##홽
##홾
##홿
##횀
##횁
##횂
##횄
##횅
##횆
##횇
##횈
##횉
##횊
##횋
##횏
##횑
##횒
##횓
##횕
##횖
##횗
##횘
##횙
##횚
##횛
##횜
##횝
##횞
##횠
##횢
##횣
##횤
##횥
##횦
##횧
##횩
##횪
##횫
##횭
##횮
##횯
##횱
##횲
##횳
##횴
##횵
##횶
##횷
##횸
##횹
##횺
##횻
##횼
##횾
##횿
##훀
##훁
##훂
##훃
##훆
##훇
##훉
##훊
##훋
##훎
##훏
##훐
##훒
##훓
##훖
##훘
##훚
##훛
##훜
##훝
##훞
##훟
##훡
##훢
##훣
##훥
##훦
##훧
##훩
##훪
##훫
##훬
##훭
##훮
##훯
##훰
##훱
##훲
##훳
##훴
##훶
##훷
##훸
##훹
##훺
##훻
##훽
##훾
##훿
##휁
##휂
##휃
##휅
##휆
##휇
##휈
##휉
##휊
##휋
##휌
##휍
##휎
##휏
##휐
##휑
##휒
##휓
##휔
##휕
##휖
##휗
##휚
##휛
##휝
##휞
##휟
##휡
##휢
##휣
##휤
##휥
##휦
##휧
##휪
##휬
##휮
##휯
##휰
##휱
##휲
##휳
##휵
##휶
##휷
##휸
##휹
##휺
##휻
##휽
##휾
##휿
##흀
##흁
##흂
##흃
##흅
##흆
##흇
##흈
##흊
##흋
##흌
##흍
##흎
##흏
##흒
##흓
##흕
##흖
##흚
##흛
##흜
##흝
##흞
##흟
##흢
##흤
##흦
##흧
##흨
##흪
##흮
##흯
##흱
##흲
##흳
##흴
##흵
##흶
##흷
##흸
##흹
##흺
##흻
##흼
##흽
##흾
##힀
##힁
##힂
##힃
##힄
##힅
##힆
##힇
##힊
##힋
##힍
##힎
##힏
##힑
##힒
##힓
##힔
##힕
##힖
##힗
##힚
##힜
##힞
##힟
##힠
##힡
##힢
##힣
##ᜈ
##ᜇ
##ᜎ
##ᜆ
劓
刖
磡
鏗
魑
⸘
惘
蛻
灊
袱
뚼
幘
뭅
晸
ヷ
ヸ
ヹ
ヺ
่
้
๊
๋
์
๕
켱
愎
嗇
戇
闌
柶
嶲
왤
폔
⊻
㣴
扵
븀
胲
猾
䴡

濞
☭
ↀ
Ɔ
欅
﨔
痉
礻
嶌
倠
埶
⺿
ᠡ
ᠭ
濳
褘
뗸
蒺
竅
癬

Ո
Ժ
ձ
ի
ᡥ
꿂
냣
ﯘ
ﭘ
睚
ṡ
뻩
仃
丠
懹
伉
헫
ὴ
械
廾
厶
㊥
剮
₱
뚯
捄
恫
먐
囎
馭
ᡧ
呎
ʜ
吁
仉
滙
☡
擣
ద
긇
繅
ఫ
뱕
겻
뎍
셒
瑰
鍠
巒
폘
噺
갶
뤈
乁
霄
갂
깂
ἓ
Ӫ
ඉ
됮
饂
₦
舳
ດ
뫂
ൽ
쉣
庹

漋
斮
塭
攒
뚭
Ϛ
ḹ
킼
菡
빜
俉
읿
屼
〱
〲
鮹
藳
儞
佯
읎
찷
၈
崚
蜷
趴
棵
崬
Ủ
Ỉ
怎
毐
盼
힏
♢
痣
睨
檉
竒
탇

輛
蘗
ۆ
ڭ
弇
Ĺ
愕
囀
茵
늡
嶗
栈
؋
䄇
禯
ӯ
碏
秥
巪
Ἦ
깇
卩
屮
巛
逞
葉

ḟ
խ
ゖ
ゕ
눋
얬
薝
ﬃ
⠠
⠉
⠩
⠛
⠻
⠬
⠥
⠺
⠾
僅
惧
拶
踪
綻
捗
瘍
匁
٪
Ќ
ќ
냤
糕
鉸
㐵
ℙ
讨
脸
ໂ
ໃ
ຟ
ځ
芊
曌
Ց
佲
ආ
ඥ
එ
ஞ
၏
ም
ወ
ᾍ
瓘
ሆ
ṗ
쎅
씯
敞
豲
힤
眄
銹
锈
䭽
䨎
䀄
㿳
뵉
ޝ
ޒ
ޅ
엗
ޢ
Ҵ
Ӆ
蝣
ᡶ
ᠸ
歆
쾀
Ẑ
ẑ
听
ˆ
ஓ
ֆ
ឮ
ច
ផ
갘
圙
겊
嗀
躱
ㄈ
ㄣ
ㄦ
怳
螔
蚹
젿
줆
啦
俏
咧
鑠
첟
쳗
粳
녿
ḱ
魹
ﻻ
ﺑ
ﻰ
ꆃ
ꎭ
ꀒ
ꎂ
듼
횸
⌬
⏣
螽
癤
싾
栁
་
맍
滓
爫
埈
ዜ
ቆ
ፅ
ድ
ቅ
皙
퍈
胳
텽
哩
Ҁ
ҁ
Ǽ
Ǣ
霰
ẍ
骷
豺
몃
셥
㮒
蓨
휸
邽
褫
葎
灄
瑇
셖
묾
愭
禨
昰
碙
頵
앹
繊
洤
榥
ᛏ
⋯
ⵖ
龝
⿔
녗
➀
➂
ﺏ
ﺕ
ﺙ
ﺝ
ﺡ
ﺥ
ﺱ
ﺵ
ﺹ
ﺽ
ﻁ
ﻅ
ﻉ
ﻍ
ﻕ
ـ
薉
㪍
퐷
糶
鋌
鬨
筌
幟
冽
륌
殂
慜
濶
⌃
霑
箙
搠
윧
랲
觱
죱
쁨
쁩
ഉ
붹
暳
嬾
ू
ི
뫔
筯
釴

㠉
ɰ
輞
앜
ǽ

嗾
뷧
岌
猷
豎
刦
㖯
乻
̵
罨
娃
鮁
ᡴ
曮
✛
祸
㵜
㴢
幄
啖
컫
疔
淽
负
乏
緍
Ȣ
٭
嫂
Ⱓ
Ⱆ
뒸
줫
瘴
奫
羂
些
曬
읒
Ḳ
혿
ﾖ
蓚
्
㾐
柹
咐
Ĕ
浹
鄲
㑧
캍
㬀
轂
圕
僵
猒
↦
爿
亼
圀
謐
ṙ
扠
鴦
鯵
蠲
袐
萤
癪
廄
鯷
澇
⁂
∬
∋
∏
￠
㎙
㎨
㎰
㎳
㎴
㎵
㎶
㎷
㎹
㎀
㎁
㎂
㎄
㎺
㎻
㎼
㎽
㎔
㏀
㏁
㎊
㎋
㎌
㎯
㏛
㎩
㎪
㎫
㎬
㏝
㏐
㏉
㏆
◑
▤
▥
▨
▧
☜
㉿
℡
┤
┯
┨
┷
┿
┝
┰
┥
┸
╂
┒
┑
┚
┙
┖
┕
┎
┍
┞
┟
┡
┢
┦
┧
┩
┪
┭
┮
┱
┲
┵
┶
┹
┺
┾
╀
╁
╃
╄
╅
╆
╇
╈
╉
╊
㉤
㉥
㉦
㉧
㉨
㉩
㉪
㉫
㉬
㉭
㉷
㉸
㉹
㉺
㉻
㈀
㈁
㈂
㈃
㈄
㈅
㈆
㈇
㈈
㈉
㈊
㈋
㈌
㈍
㈎
㈏
㈐
㈑
㈒
㈓
㈕
㈖
㈗
㈘
㈙
㈚
㈛
ⓞ
ⓠ
ⓥ
ⓨ
ⓩ
⒥
⒦
⒧
⒨
⒩
⒪
⒫
⒬
⒭
⒮
⒯
⒰
⒱
⒲
⒳
⒴
⒵
⒀
⒁
⒂
ⅶ
ⅷ
ⅸ
⅝
⅞
ｃ
ｊ
ｎ
ｑ
Ŀ
ŉ
ˀ
遗
梆
竴
Ⓕ
ჟ
棫
柍
楒
崳
烜
媄
忯
齪
氛
薗
苡
쨤
蕓
袒
릘
墯
齲
횽
孖
燙
页
杲
凞
誄
鸇
汙
靱
姣
麛
杣
睍
ജ
鵤
閆
檍
枛
挔
妣
鞅
攔
盩
ហ
ኮ

氦
ತ
ફ
બ
燴
燜
炖
煨
拌
腌
喟
핻
ἤ
踢
睜
ȷ
嫖
轰
乜
㸴
䢲
篭
韂
杁
ʱ
ʈ
ޖ
☒
娵
떽
枏
ਫ
콬
쐑
삻
팑
죳
궷
놧
붖
☺
✊
✌
✋
☝
⌚
✒
✏
✂
⛺
〽
☕
☀
⛅
☁
☔
⚡
❄
⛄
⛪
⛲
⚓
⛳
Ⓜ
⛵
⛽
⏳
⌛
⏰
♿
♻
⚠
⛔
㊗
⭕
❌
❎
ℹ
✅
✔
✴
✳
➕
➖
✖
➗
⬆
⬇
⬅
⤴
⤵
⏪
⏫
⏬
⏩
❇
✨
⚪
⚫
⭐
◽
◾
◻
◼
⬜
⬛
❔
❓
❕
❗
⁉
➰
↩
↪
僥
Ƶ
५
ई
鼔
褻
溲
垵
佇
檠
嗄
Ằ
Ắ
Ẳ
ẳ
Ẵ
Ặ
嘟
蛞
ϋ

렺
郖
핳
☓
쵱
嗤
覘
볽
졧
褱
꿕
낏
읗
깖
蹉
鑰
贴
卆
ﻼ
ﺠ
ﻤ
둰
梔
絣
ʟ
ꜧ
ҹ
ⱨ
ڮ
ۇ
ں
毯
鼬
垃
澅
ర
趁
Ӷ
ӷ
湿
Ҧ
涸
ޑ
餺
ҥ
Ҥ
꿏
ໜ
僴
淕
歂
庲
岂
羔
唜
榧
鑾
숔
撻
삣
跫
磑
嘛
呢
哦
唹
咿
唔
紉
孑
Ƕ
ƕ
熅
踞
ᚷ
ᚲ
茱
俓
푁
뻤
鰂
쇵
巄
雟
္
ऋ
慞
倏
횝
蠢
癃
渧
麼
僬
禺
菠
饵
煳
ခ
俣
偘
滌
趟
轡
蚝
瑨
壜
蘐
载
ഏ
椷
捍
祊
녈
녑
놜
뇩
솰
휵
ٍ
퀙
쨌
딮
ﻛ
ﻫ
ન
ਚ
蹟
摰
蟜
廑
ꡂ
ꡊ
ꡎ
ꡛ
ꡙ
ꡯ
ꡤ
ꡰ
ꡜ
ꡧ
㄰
㆏
ᄁ
ᄄ
ᄆ
ᄈ
ᄉ
ᄊ
ᄍ
ᄎ
ᄏ
ᄑ
ᄔ
ᄕ
ᄗ
ᄘ
ᄜ
ᄝ
ᄞ
ᄟ
ᄠ
ᄡ
ᄢ
ᄣ
ᄤ
ᄦ
ᄧ
ᄨ
ᄩ
ᄪ
ᄫ
ᄬ
ᄭ
ᄮ
ᄯ
ᄱ
ᄲ
ᄳ
ᄵ
ᄶ
ᄷ
ᄹ
ᄺ
ᅓ
ᅖ
ᅗ
ᅘ
ᅙ
ᅚ
ᅛ
ᅜ
ᅝ
ᅞ
ᅢ
ᅣ
ᅤ
ᅥ
ᅧ
ᅨ
ᅩ
ᅪ
ᅫ
ᅬ
ᅭ
ᅮ
ᅰ
ᅳ
ᅴ
ᅹ
ᅺ
ᅻ
ᅼ
ᅽ
ᅾ
ᅿ
ᆁ
ᆄ
ᆅ
ᆆ
ᆇ
ᆈ
ᆉ
ᆊ
ᆌ
ᆎ
ᆏ
ᆐ
ᆑ
ᆒ
ᆓ
ᆔ
ᆕ
ᆖ
ᆗ
ᆘ
ᆙ
ᆚ
ᆛ
ᆜ
ᆟ
ᆡ
ᆤ
ᆥ
ᆦ
ᆧ
ᆩ
ᆪ
ᆬ
ᆭ
ᆮ
ᆯ
ᆱ
ᆲ
ᆳ
ᆴ
ᆵ
ᆶ
ᆸ
ᆹ
ᆺ
ᆻ
ᆼ
ᆽ
ᆾ
ᆿ
ᇀ
ᇁ
ᇅ
ᇆ
ᇇ
ᇈ
ᇌ
ᇍ
ᇎ
ᇏ
ᇐ
ᇑ
ᇒ
ᇓ
ᇔ
ᇖ
ᇗ
ᇙ
ᇛ
ᇜ
ᇝ
ᇞ
ᇟ
ᇠ
ᇡ
ᇢ
ᇣ
ᇤ
ᇥ
ᇦ
ᇧ
ᇨ
ᇩ
ᇪ
ᇫ
ᇭ
ᇮ
ᇯ
ᇱ
ᇲ
ᇳ
ᇴ
ᇵ
ᇶ
ᇷ
ᇸ
ᇹ
ᇺ
ᇻ
ᇼ
ᇽ
ᇾ
ᇿ
廪
嚣
沬
繄
玁
挟
雰
ዕ
ት
ጽ
ኰ
ዉ
ል
ከ
娟
媓
怤
ﻒ
ﺛ
ﺧ
ﺳ
ﺻ
瓌
ﻇ
ﻏ
ڢ
깩
匄
袢
臻
舺
芎
諟
肪
芇
壢
漚
錨
汧
圂
遬
딫
畷
棊
玗
穝
ഖ
窠
菹
淃
渷
鉋
篯
憼
榶
胼
縷
闅
☮
晞
쿌
唸
긜
쑝
溏

踩
仟
姟
ี
า
옸
廙
ኦ
፡
ṵ
넎
譫
캽
瀹
矬

浤
湥
ि
슟
ϑ
瀿
拆
妫
Ἆ
弈
㮊
즞
樒
诃
绰
脑
贲
烱
勛
瑗
瑱
뵛
ｹ
ﾗ
ﾏ
ｳ
ﾂ
ﾐ
ｨ
勗
糿
仐
핡
棐
뫀
捭
胠
넑
抉
隹
潡
泑
싡
絛
腿
쯊
搶
佼
爔
烷
탖
逡
긾
鬘
̑
璠
싰
Ĭ
欹
쁼
씷
馹
逅
ɘ
ᵻ
ᵿ
Ⓚ
ฺ
굠
튽
奀
臂
녓
麫
뚬
籏
ই
햚
痼
戛
漭
耈
谦
曩
畹
炼
检
盏
栋
昙
垤
异
腻
枷
骊
봍
哑
堎
骏
纵
镰
崾
螅
洄
〄
∶
╴
︰
︱
︲
︳
︷
︻
﹁
﹏
﹓
﹔
﹕
﹖
‵
︴
︶
︸
︺
︼
︾
﹀
﹂
綝
渊
馋
殪
锹
镡
韵
涠
卖
桠
瘇
濑
甗
鸽
类
扩
颇

穷
琐
‒
蜥
垴
瓏
膘
ﺘ
Ἤ
얨
늅
댱
ｽ
玿
霅
Ἂ
郏
솩
ກ
搏
帿
翫
鄖
珸
柤
划
厢
阅
葑
椏
滸
蓴
屺
谏
货
栟
弶
墟
垞
钵
茆
笕
闲
澥
鄮
Ⓡ
莼
嶴
舥
垟
峃
蕺
递
皈
叻
屿
汛
汫
簕
榃
莺
尟
鱻
㐃
㕦
亐
唟
⿸
饐
钐
艍
迲
碶
蓇
櫷
怾
襨
⿱
囕
浌
榌
橵
虄
閪
縇
螦
稤
伩
厑
吔
啫
橴
硳
猠
橻
伲
闏
兺
㐘
濛
桤
鳡
啊
榉
豢
唤
摇
骝
篦
轸
荍
榨
阆
搽
识
趱
硐
㖰
㘒
㔖
䜳
㐓
㖈
䯩
㖙
㔔
莻
硗
澌
辖
冻
垮
赠
齿
淌
见
铝
琊
俭
桴
浞
푠
轿
稳
迓
缠
鬃
厍
绮
坌
荈
垸
瞎
辫
얺
읅
泖
칲
濰

靷
鷓
逯
鹊
佤
堠
虒
聪
亲
謦
枵
嚦
틑
勍
浇
霁
뇸
纤
ᠹ
鴜
鞦
砟
竣
艽
쐉
Ǟ
Ņ
Ȯ
Ȱ
ȱ
Ȭ
垡
藎
铃
洇
欑
涞

侣
杠
骡
泔
腴
렜
谈
倴
浭
츩
驻
⁃
֊
颉
叮
鱒
鱈
晾
处
执
蘑
磴
塌
桲
垒
鏱
泃
頊
㛹
瑒
洚
鄌
峄
疃
潾
罡
鲸
괕
禇
费
앛
颖
缑
饭
滍
磙
渑
嘶
椹
钧
岞
郸
踅
涩
灈
嵖
轵
겇
谌
滠
涨
奓
还
湋
扫
鲟
埇
鲷
烔
醵
淠
绩
篱
矶
嶼
蚶
瓯
앋
馆
嵛
硤
绳
洎
鹄
钤
岿
潋
遶
璪
昄
赋
鹭
岙
姆
璱
伙
璩
涴
浠
圻
簰
澴
谋
邬
⊞
剅
샇

枨
沩
垄
槚
舲
洣
呆
岣
辕
郦
崀
灶
筻
鲊
笆
凼
溆
骥
泷
凳
铎
颗
濵
员
猎
笋
浈
硇
迈
笪
♫
蚬
駮
浰
浛
蘘
萹
菾
쐼
핱
Ὕ
ﯾ
ﺔ
븙
鍞
襁
쐰
禫
衒
黐
듐
鴇
㝓
徠
ဦ
皴
㑳
薏
鐎
☣
坵
毉
쁵
檎
잫
嚈
呱
炻
啜
₮
衽
裄
☤
줒
扌
弭
缙
痺
拵
弸
嫇
ℭ
ℌ
ℑ
ℜ
ℨ
玀
猓
鵡
㻇
樅
睾
酣
풸
碉
찱
ἅ
栻
ℛ
ℳ

ସ
ଚ
ବ
靉
껒
늰
佚
婿
迨
깓
챀
謏
폏
节
潑
馱
彖
ਲ
檓
蔀
缅
洟
옾
ዮ
茘
鑞
緞
鱉
鰼
Ọ
篶
옺
鈸
죕
檣
诏
紞
霱
縯
렇
₣
欞
茌
Ϻ
ϻ
Ͱ
ͱ
ϸ
॰
忒
ⵡ
嗨
嗎
夐
ὖ
撦
맗
ὶ
ഐ
녯
뒝














豸
薍
Ἶ
ܖ
ܨ
ܬ
绀
匽
祛
뇔
乇
쉠
သ
罹
痳
佝
ℯ
揵
魟
푓
⸭
逋
ፈ
ሪ
搄
觥
鴒
慼
紈
牋
駭
嵇
曔
玜
Ѩ
Ѭ
貔
旉
ᕿ
킽
琲
ﺓ
鶡
鱖
꽆
喃
ﬂ
ﬆ
ﬅ
Ǖ
ǘ
Ǘ
ὰ
Ǜ
ཇ
솤
鞑
띱
牀
箊
攵
Ὅ
യ
ẚ
咫
ॲ
⅖
鰌
鰒
鮨
쨋
ᡦ
ી
뇜
糲
♆
蟣
虱
穬
齵
鉃
ཏ
ચ

꽦
柰
堦
˜
㠱
颶
甓
ɶ
ɸ
崴
氡
謊
㷩
墡
鉀
堉
堣
眦
뤌
떢
〯
ɭ
ㄙ
깋
ɱ
邡
瀰
딍
뒴
ঠ
툽
昞
壾
閹
廂
捔
뮴
Ӄ
ஃ
ᓯ
烋
툅
븍
춴
铸
蓟
ﻘ
ῆ
묭
둏
봔
៧
២
录
灭
妇
蜡
尘
毙
惊
肤
忧
춣
ன
்
ṟ
氢
쒼
옃
튱
씔
絅
煜
璣
杮
ᓴ
寑
ڪ
ਰ
잋
₨
‣
힜
璦
ᅇ
댯
晫
晛
韺
楹
昛
賰
胝
猨
襠
铉
ક
됄
迢
俑
鶺
뗼
㼅
寀
١
٢
٣
眂
Ꮳ
Ꭷ
Ѱ
莅
猝
팎
舗
Ӗ
Ӳ
Ӝ
Ӥ
Ӵ
ӵ
ӧ
댬
귝
ஶ
ꀕ
됀
芚
鬹
秊
싈
厪
ﮑ
῾
琹
낛
渪
맢
럄
ץ
큹
쟬
娫
俤
鮟
蕁
犼
甍
ओ
闭
ವ
轆
̴
蕣
筥
쟃
̨
犫
嬲
萄
슭
ଭ
袗
舐
먗
帅
璡
સ
譡
⌋
ӽ
Ӿ
ӿ
澮
홤
盨

넖
➜
呟
栅
攢
Ꮵ
Ꭶ
겂
蠆
敾
綯
☊
☋
ὥ
녙
羸
穟
畱
茯
胖
뽓
넞
羇
卮
ꄫ
릏
钉
炔
逕
敫
풑
밨
籧
댛
峀
嗓
儇
倀
覈
⊲
祓
ǀ
产
兽
译
渐
葷
Ȧ
ȧ
Ẃ
ẃ
篳
噢
튁
惨
絜
睟
둿
鬣
僩
倜
熽
喵
욎
勻
倬
逵
ἆ
枊

厙
囐
鈿
긘
敉
벹
붘
暄
Ҕ
ҕ
Ҩ
ҩ
ɥ
Ҽ
ҽ
ኪ
ጃ
ዋ
ፊ
ጎ
ኩ
ዪ
ኔ
垍
袉
ؤ
Ⱌ
殃
Ɯ
ದ
檥
봎
纒
엳
릅
蘴
붏
侇
懂
耉
耋
耂
翥
寗
ῦ
ὧ
ဂ
彄
篙
寪
鄑
犖
嫗
矽
϶
Ơ
蕊
恙
噷
哼
ㄪ
ㄉ
ㄭ
ㄚ
傚
櫶
疥
쳣

鱸
惀
愐
怵
憺
筭
嶙
猌
疰
ｱ
ｼ
蓓
钞
领
ʽ
颴
Ầ
Ẩ
Ẫ
Ậ
උ
ඌ
畺
Ų
Ỹ
ण
鼛
덢
Ḧ
˥
˦
˧
襷
髷
ᚦ
峇
ǋ
ǌ
繃
刲
❋
묌
撈
琚
읏
堝
踕
蔔
찎
쨀
菎
蒟
냡
薜
麯
턀
Ɓ
鄀
줃
蹛
窴
閖
裃
搔
Ԝ
Ȉ
Ḍ
肴
궴
羗
읾
ἴ
ቦ
맊
晳
ቱ
膅
迗
뻇
萼
Ҝ
ӏ
䆃
ዙ
ڤ
ẗ
ǵ
Ҭ
괂
띳
欿
裹
抃
臛
刮
慂
瀅
涏
浟
㤚
㦀
貲
岺
섁
鍧
잩
俅
륩
噸
竩
挪
옇
箝
芟
黿
鋲
늣

붤
刳
닾
㻂
⑯
⑰
諲
걑
詫
Ɣ
ǯ
ⵓ
헑
딷
ભ
ಭ
ਬ
寯
髥
娙
傛
ဓ
ဝ
ဥ
庳
侈
蓩
聿
擡
ɧ
鎲
莔
昷
㷏
穨
兕
굥
漝
궅
퓸
ಅ
旒
졷
댚
늖
恠
柎
輅
싧
劬
咕
揶
揄
佉
衚
渶
㮭
悁
糙
咤
皰
딲
禘
燬
馘
裯
郈
闐
Ӣ
ӣ
吭
Ԁ
ԁ
ӟ
Ӹ
ӹ
粿
滷
Ԅ
ԅ
ӕ
鞌
Ձ
鉬
仌
횩
卭
拼
ӻ
ӑ
삗
ӡ
Ҙ
ҙ
శ
మ
鄎
驁
竗
掏
謖
譖
㶊
狷
븬
牔
ሐ
芘
揔
柁
Ộ
Ợ
Ụ
Ệ
儜
宬
翛
☍
匋
☌
ὒ
ῶ
銷
羼
갎
靄
扭
谁

鄫
‴
눨
馀
腄
认
କ
ಗ
잧
ਗ
텦
↵
躾
갛
멨
륱
籔
蝀
ⵕ
ⴱ
ⴹ
ẞ
线
￼
崗
촣
̺
塢
ٹ
䧹
崿
鬷
雈
鄻
撐
湩
딯
ঝ
晗
몪
㖨
ਝ
襈
ঢ
佷
ছ
徧
秫

덯
쟆
肾







箶
⊗
છ
ῖ
뎔
됢
ᅊ
촥
瞯
濺
秪
栯
挻
垰
릫
峿
覸
嶝
ٔ
ƣ
卬
鄅
슁
寞
盌
陴
嶔
嚏
곘
蟇
뎦
䶵
龡
抆
쎘
餡
ਵ
ਧ
ମ
핧
靼
닸
悫
硲
枘
橖
聨
謡
뇍
깄
ℷ
泝
밒
멪
떙
癭
绘
篮
蠹
釰
宠
燉
鋾
Ὧ
Ὥ
ꕜ
ℶ
ी
猖
콀
蕢
虖
挍
鱣
瓡
栒
䘙
邅
愓
愬
撝
궠
盥
闚
屨
豶
険
籽
揅
Ὁ
ὠ
큿
蔞
ȳ
歊
揤
흼
縕
玧
黝
짮
뫙
閿
澀
뢀
ꡓ
쥤
冑
샆
돵
돚
⊔
臑
畦
迸
팈
瑣
ȃ
ӝ
縻
朖
爚
豰
బ
વ
ޏ
隤
请
违
젲
廏
䃫
貃
寐
腑
酤
讌
༄
狠
燁
ጳ
렠
춸
坰
̿
㕎
ޔ
퇌
핔
鮐
삳
ժ
甹
涕
읳
宪
编
觟
笁
掎
虡
갞
뀨
끠
냬
뗘
뚀
뚸
뛔
럐
렦
먜
뫠
뱨
뽜
뽸
뾔
뿨
쀄
쀠
싞
썌
쎠
앢
잒
즤
쪠
쫘
쫴
쬬
쮀
쯰
챼
컈
턔
퇘
퍠
퐤
푞
풔
픠
햬
횎
